#version: 0.2
Ġ t
Ġ a
Ġt h
i n
r e
o n
o u
Ġth e
Ġ s
e r
i s
Ġ w
a t
i t
e d
o r
Ġ b
Ġ c
l e
a n
e n
Ġ p
in g
Ġt o
Ġ m
Ġ f
Ġ o
Ġ h
Ġa n
e s
Ġ d
a l
Ġ I
i c
Ġ y
Ġ n
Ġy ou
Ġo f
Ġ in
a r
i on
a s
Ġan d
o t
Ġ re
o m
u s
Ġ is
Ġb e
v e
l y
Ġth at
l l
" "
Ġ l
Ġ it
Ġ on
en t
a g
c t
Ġ e
Ġw h
Ġ T
Ġ g
u t
o w
Ġn ot
i d
Ġf or
Ġ A
i m
Ġ W
h e
i k
l d
c e
r o
v er
Ġh a
s t
a y
Ġa s
t h
t ic
Ġa r
i a
Ġ S
i g
s e
e re
c k
a d
Ġc on
a m
Ġth is
it h
Ġ (
u n
c h
at ion
ag e
tic le
i f
Ġ Ġ
i p
Ġa re
Ġar ticle
Ġs t
Ġha ve
ou ld
Ġ C
Ġs e
ou t
o p
o l
Ġw ith
is t
' s
Ġd e
Ġ ""
at e
Ġ B
Ġyou r
Ġd o
Ġ or
Ġ P
om e
Ġs u
Ġ M
i r
e t
' t
Ġw as
ed ia
ou r
Ġ us
an d
er s
Ġm e
! !
i l
es t
Ġ Ċ
i ll
e l
ed it
Ġa t
Ġ edit
a k
ik ip
. .
Ġa b
u r
h t
a in
o o
ikip edia
r om
Ġ H
o re
p p
Ġp ro
Ġs h
Ġ F
q u
r i
Ġn e
Ġp age
Ġ D
u l
Ġa d
b le
Ġb ut
al k
Ġ k
us t
Ġe x
Ġ un
Ġ r
m ent
t er
Ġ v
Ġm y
an t
Ġ N
Ġw e
as e
Ġ Y
al ly
Ġc om
le t
Ġc an
Ġf rom
p e
Ġs ome
Ġb y
in k
ĠT he
Ġa l
e m
Ġcon t
Ġ R
Ġs o
Ġan y
h an
n d
ĠW ikipedia
i e
Ġ G
Ġ j
Ġab out
n t
s s
Ġ 2
th er
l o
i ve
ig ht
u p
Ġ "
Ġh e
r a
Ġ 1
ik e
Ġp o
Ġd is
on e
c es
Ġ if
0 0
or t
Ġh as
it y
Ġ L
Ġa ll
le ase
Ġw or
ion s
Ġ E
am e
Ġw ould
Ġw ill
l a
u m
ar d
Ġ J
ic h
Ġthe re
Ġ le
Ġl ike
r y
Ġwh at
is h
Ġ O
n ow
Ġ im
k s
Ġon e
i es
e ct
Ġad d
â Ģ
it e
ou s
Ġde let
Ġf a
d er
Ġ -
at ed
i v
ou g
s o
Ġj ust
Ġthe y
Ġn o
Ġbe en
us e
ak e
Ġt alk
Ġwh o
i an
Ġk now
u re
u d
Ġ qu
Ġa g
a ck
ar t
Ġsh ould
in d
Ġ U
on g
Ġ up
Ġd on
en d
Ġin t
g e
Ġwh ich
ĠT h
Ġo ther
Ġs our
u e
Ġa m
Ġm ore
c a
o g
re e
p l
ver y
Ġa c
a b
!! !!
Ġth ink
c l
i al
Ġg o
al l
r it
Ċ Ċ
as t
id e
Ġre m
Ġm o
f or
o s
Ġ out
Ġe v
ĠI f
p t
Ġp e
lo ck
h er
Ġh ere
ĠI t
f ere
c us
ct ion
Ġp re
es s
op le
Ġh is
e ll
a ble
im e
Ġd id
a re
ca use
Ġse e
in e
i re
ou nd
Ġus e
ri b
T he
ĠY ou
Ġ en
i z
Ġs pe
ag es
oo k
Ġa pp
Ġth an
' m
oug h
.. .
Ġpe ople
ar y
oo d
Ġs ay
Ġdo es
Ġbe cause
or y
b er
s ion
for m
C K
ig n
Ġ K
e ar
in t
Ġthe m
a p
u b
Ġon ly
e w
j ect
o d
Ġm ay
or s
i ous
en ce
ers on
Ġg et
o ve
is m
th ing
e p
l f
Ġne ed
Ġt r
Ġw ere
Ġarticle s
Ġcon s
Ġal so
o v
ic e
Ġt ime
O U
Ġc h
Ġh ow
u ck
Ġw ant
Ġ âĢ
c i
f f
Ġre s
o se
Ġthe n
Ġb lock
Ġm an
p er
ie w
c ed
Ġwh en
Ġbe ing
) .
Ġl ink
Ġthe ir
i le
Ġdis cus
en s
el p
Ġun der
Ġp erson
Ġ i
ou nt
ĠĠ ĠĠ
Ġc han
ation s
an s
ic al
Ġcom p
Ġa ct
fere n
ver t
Ġat t
ul t
se lf
Ġin form
Ġ2 00
Ġag ain
ic t
Ġre ad
Ġha d
a c
Ġm ake
Ġc re
ĠW h
Ġsu b
Ġim p
e x
E R
Ġwor k
ĠY OU
' '
p h
s er
m in
Ġcom ment
Ġn ow
as s
Ġh elp
' ve
Ġp lease
ad e
Ġg u
Ġwh y
Ġfa ct
ing s
Ġre l
Ġre p
Ġw ay
as on
Ġof f
Ġev en
ĠT han
Ġp ol
Ġp er
Ġinform ation
Ġc ould
c om
a ct
Ġw r
ik i
Ġ very
ĠP lease
Ġbe l
le s
Ġl ist
ir st
Ġpo int
Ġs a
1 1
and al
c on
rib ut
Ġne w
Ġus er
re ss
ĠI n
ĠTh is
Ġqu est
f ore
Ġg ood
if ic
Ġsour ces
Ġdelet ion
Ġsu ch
ĠS t
Ġl ook
u al
u ch
Ġp ages
U CK
Ġ V
Ġn ame
ent ion
Ġm at
ic k
in ce
Ġd es
Ġac c
w ay
Ġit s
it ion
an ce
g u
Ġse em
Ġbe t
Ġb ack
' re
Ġo ver
ĠC h
f ul
ot her
cl ud
w n
a v
Ġsour ce
ĠW P
at es
Ġre ason
Ġ '
Ġedit s
re at
Ġrem ov
a il
Ġf ind
T h
Ġse ction
Ġedit ing
/ /
Ġp la
= =
I N
it t
l ish
o ll
Ġ1 9
Ġv andal
Ġin d
Ġre c
Ġf irst
Ġm ade
a ch
ar n
Ġwe ll
Ġh im
Ġg r
Ġre vert
Ġre feren
Ġthe se
R E
o c
p le
Ġp ar
or d
a h
u ally
ot e
Ġp l
!!!! !!!!
U T
Ġcont ribut
Ġus ed
t y
Ġp r
Ġas k
Ġs p
n g
Ġto o
Y ou
Ġm uch
er m
Ġt w
Ġp art
Ġc le
c ome
Ġo b
f ter
c y
ce pt
Ġas s
Ġf e
Ġt ry
Ġr ight
d u
Ġd if
Ġint o
Ġre ally
Ġwh ere
Ġdelet ed
) ,
Ġmo st
Ġc op
is e
ar ch
Ġcom m
Ġt ag
g g
Ġdiscus sion
A T
Ġs ame
Ġsu pp
i ed
o st
Ġ ver
Ġin clud
Ġc l
Ġe very
Ġre qu
Ġs im
Ġo wn
at ing
e ver
Ġh ist
Ġman y
n n
A N
Ġwor d
ĠT H
L L
Ġad min
Ġre f
r u
ow n
a ve
Ġpo st
Ġre g
v ed
Ġex pl
Ġo p
T han
ces s
"" .
t ing
i b
ot h
Ġbe fore
ak ing
Ġth ose
re ad
Ġc all
w w
o b
ĠA nd
W h
Ġg en
o x
Ġcons id
a a
t p
la im
ĠA l
ex t
: //
0 1
Ġ 3
t alk
Ġis s
ol og
' ll
il ity
Ġde f
Ġcop y
. ""
Ġcont ent
ter n
ĠR e
op e
ar ly
r ight
Ġc o
Ġ ent
Ġbel ie
or re
Ġpro v
ble m
Ġpol ic
Ġsome one
Ġst ate
Ġspe c
ra ph
v iew
Ġtw o
g ed
le ss
Ġy ear
t en
Ġf uck
Ġk e
Ġa fter
Ġsa id
Ġst ill
Ġc rit
n e
m er
y y
Ġp ut
Ġc laim
Ġgo ing
re d
Ġs ince
Ġsome thing
ver s
Ġpro blem
on s
st and
ere st
ro p
in al
Ġp h
as ed
Ġblock ed
ere d
ut h
pe ct
e e
i ble
Ġh er
ĠH ow
Ġw rit
Ġc he
r at
l ic
en se
Ġin v
ar k
in es
Ġsh ow
Ġsub ject
Ġwith out
ia ble
Ġm ention
Ġto p
ment s
orre ct
UT C
Ġ our
ĠH e
Ġc it
Ġcont in
el come
Ġme an
ĠA r
Ġadd ed
Ġint erest
Ġsu re
Ġim age
t ain
h ing
Ġt ake
Ġm ight
Ġs er
oug ht
Ġwe b
Ġv iew
i ly
Ġedit ors
i ld
W W
v ing
Ġc ur
Ġcon f
O N
o y
Ġremov ed
Ġpla ce
u g
Ġl ong
re nt
ĠA s
Ġquest ion
oll ow
ĠT alk
Ġst art
Ġin f
O T
ĠThe re
v ious
ĠThan ks
w e
Ġf ree
gg est
f t
Â ł
Ġdoes n
ĠB ut
Ġde c
at her
er n
a le
b e
Ġst op
Ġunder stand
s ent
at ive
ard s
Ġc ase
t he
iz e
ĠI s
ĠS o
Ġd ay
Ġyour self
Ġp ub
Ġd one
id ent
ire ct
v en
Ġatt ack
I f
Ġre al
Ġs ign
S T
r al
O V
ab ly
Ġsu ggest
Ġm is
Ġ let
ĠTh at
Ġf ollow
Ġfe el
n ot
Ġne ver
Ġbet ter
Ġe l
Ġperson al
Ġan other
ation al
g r
ic s
Ġm ess
Ġw ikipedia
Ġin st
ĠĠ Ċ
r an
on t
Th is
Ġor ig
Ġseem s
m m
I t
Ġspe ed
Ġ .
Ġbelie ve
Ġus ing
Ġany thing
r ing
Ġha pp
Ġke ep
on d
ĠU n
ĠA n
y s
Ġhist ory
l ed
Ġth ings
H i
Ġn um
Ġrequ est
ĠĠ Ġ
"" ,
at h
Ġb i
? ?
ar s
Ġg iv
i x
P lease
a z
Ġsupp ort
ĠA N
ĠThan k
Ġh ope
w h
Ġche ck
Ġcomment s
Ġlink s
Ġdes c
Ġcopy right
read y
' d
o ld
he re
ig h
a w
cy cl
Ġdiscus s
ian s
Ġag ree
Ġb it
ut e
ist s
Ġgen er
Ġth ing
le ct
Ġagain st
cycl op
im es
ve l
Ġdid n
I T
Ġwr ong
Ġop in
Ġs he
Ġal ready
ak es
Ġth r
ith er
ĠTH E
Ġpolic y
Ġt erm
u ll
Ġf ound
Ġex am
Ġfor m
ic ally
Ġc ount
Ġexpl ain
Ġt e
ĠW e
R e
an n
Ġb oth
Ġs c
Ġr u
itt le
Ġcur rent
Ġt ext
Than ks
a ce
Ġnot e
Ġe m
o ol
Ġedit or
fere nt
Ġres p
: :
am es
ĠâĢ ¢
1 9
at ure
~ ~
em pl
Ġchan ge
Ġact ually
ĠF UCK
I G
Ġc orrect
Ġrem ove
E D
Ġel se
Ġpro p
or g
Ġvandal ism
th ers
Ġf ew
Ġacc ount
Ġw elcome
Ġdif ferent
if y
a j
y le
IN G
ou p
I n
it ed
Ġtry ing
Ġw ar
Ġab ove
ate g
Ġre view
Ġo thers
if e
le v
ĠWh at
Ġex per
ĠE ng
Ġcon c
Ġw on
Ġm ain
Ġb l
Ġs y
Ġnot hing
Ġl ittle
oo ks
ens us
Ġ ide
l and
Ġm ust
Ġ ro
Ġex p
an y
or ry
Ġfa ir
Ġc are
Ġimp ort
let e
Ġiss ue
Ġth ough
Ġg reat
A L
con d
Ġapp ear
g es
Ġs ent
A H
Ġ 4
Ġ 5
Ġyear s
Ġpar tic
ĠD e
ĠâĢ Ķ
er tain
Ġin c
Ġen cyclop
Ġconsid er
an gu
ul ar
Ġg ot
s h
u y
Ġgu id
Ġquest ions
od y
v es
Ġwh ile
mer ic
og raph
Ġ end
o k
Ġpo ss
Ġt ell
Ġm aking
Ġl ast
Ġ [
p ly
Ġcontin ue
ĠI P
Ġ ,
Ġe t
Ġany one
u es
Ġpro b
ĠD I
os ed
Ġth ought
er ial
Ġst and
ĠD o
Ġthr ough
ap s
Ġspeed y
Ġg ive
Ġadd ress
O R
Ġr ather
p r
an g
Ġreferen ce
e y
Ġac cept
it s
Ġin s
e ad
Ġsay s
Ġ2 01
Ġweb s
Ġl ot
_ _
ur ther
Ġrep ort
Ġar gu
Ġin ter
Ġn on
Ġrel iable
o f
O L
m e
Ġ |
ur n
.. ..
Ġc ome
ĠĠĠĠ ĠĠĠĠ
Ġv i
id ence
Ġdo ing
at er
Ġf ar
Ġc our
a pp
ut ion
Ġguid el
Ġsim ply
Ġb r
u pp
Ġdef in
way s
Ġb est
Ġmat erial
Ġcre ated
Ġs ch
Ġ 7
Ġwor ld
ĠY our
if ied
Ġle ast
Ġl angu
ate ly
E S
Ġcrit er
Ġreferen ces
Ġ )
we en
r ip
Ġpl ay
âĢ Ļ
rop ri
lo ad
ent s
Ġrec ent
Ġt it
Ġle ave
Ġis n
Ġorig inal
ĠC om
Ġh t
Ġ 6
ell o
Ġw arn
Ġs m
Ġprob ably
se arch
Ġgr oup
Ġen ough
= ""
!!!!!!!! !!!!!!!!
c c
Ġadd ing
om in
or n
Ġd own
m an
ht tp
Ġht tp
ĠS h
Ġar ound
ĠW iki
Ġet c
Ġs ite
Ġt empl
ĠF or
id ed
Ġa uth
ĠA meric
Ġbet ween
Ġopin ion
Ġc a
Ġc ertain
Ġc ol
Ġex ist
Ġw iki
Ġb ad
ĠĊ Ċ
m age
Ġre st
I S
s w
Ġrevert ed
Ġdelet e
Ġimp ro
Ġexam ple
Ġcons ensus
Ġo ld
g an
Ġwr ite
ĠEng lish
at ch
Ġbe h
er r
Ġus ers
O M
s p
Ġmat ter
Ġun t
al s
Ġm in
ict ure
o ck
'' ''
re t
Ġe ither
Ġ 8
Ġa v
ropri ate
ist rat
Ġt y
i er
Ġpo s
aa aa
Ġpro du
ĠU S
Ġex t
Ġcall ed
Ġconc ern
Ġe ff
Ġm on
ĠAl so
Ġl og
Ġspec ific
1 2
ab ility
Ġimport ant
Ġre search
ĠHow ever
re n
Ġcle ar
Ġdis p
Ġreg ard
Ġcontribut ions
ww w
d ay
E N
Ġre d
Ġk ind
i o
e f
olog y
Ġvi ol
yy yy
Ġb ook
A G
ĠS UCK
Ġneed s
Ġl ife
o h
Ġcomm un
nn nn
Ġnot able
Ġch ar
lev ant
iz ed
ĠS e
Ġmess age
uy uy
Ġp rom
Ġsu mm
ĠN ew
Ġtr ans
es e
r ist
Ġnum ber
ty ty
ru ct
an k
Ġa w
ow er
t s
ĠU ser
h aps
Ġv al
ĠI S
Ġ2 0
is ed
Ġ 9
Ġev idence
Ġnot ice
Ġn or
O O
it ies
Ġwebs ite
Ġver sion
am p
h ip
Ġs it
t e
Ġme m
is ion
u ff
Ġcon st
Ġe ver
Ġh igh
Ġcle arly
Ġle ad
Ġf un
Ġse cond
t ion
Ġall ow
ra ct
F F
em ber
Ġad v
Ġcriter ia
Ġencyclop edia
Ġd irect
ĠThe y
Ġmo ve
em pt
Ġgiv en
2 0
Ġp icture
a ir
Ġcomp lete
1 0
H ello
g ing
Ġal ways
Ġinv ol
Ġsay ing
ut ral
Ġqu ite
Ġim ages
Ġlangu age
Ġha ving
AH AH
b ers
Ġwrit ten
Ġst r
Ġcont ro
Ġwh e
c ial
r ic
Ġob vious
Ġpre sent
Ġguidel ines
Ġf l
Ġy et
Ġup load
b ox
I D
ĠA d
Ġtr ue
Ġle g
Ġ 0
ĠB e
Ġde t
at t
Ġpub lic
ri end
lish ed
Ġm akes
Ġconsid ered
ĠM y
Ġf am
ci ent
ĠP OV
ĠN o
1 4
Wh at
Ġse x
Ġcan not
Ġan sw
ot ect
ĠC an
WW WW
on y
Ġt ri
. "
Ġword s
Ġc lo
et s
ou n
as h
ĠI nd
11 11
Ġst ud
Ġwhe ther
Ġh ard
Ġt est
Ġh and
Ġunt il
H ow
00 0
Ġw ish
aj or
Ġchan ges
Ġf urther
Ġide a
1 8
Ġd ist
l ine
ver al
Ġref er
2 2
is s
Ġme ans
Ġwe e
Than k
Ġhapp en
Ġauth or
Ġle ft
ot s
Ġ &
Ġs ing
O CK
I C
Ġse veral
Ġlist ed
Ġinst ead
Ġre t
g er
or k
A l
re ci
us ion
Ġle ss
Ġb ig
Ġsu r
ur ing
Ġfollow ing
Ġru les
ak en
; =
Ġadmin istrat
Ġp op
ateg ory
Ġb as
st em
Ġpol it
Ġth ree
Ġtit le
o le
1 6
Ġoff ic
us s
Ġwho le
A P
Ġb ased
Ġdis c
Ġm ind
Ġcour se
b ody
Ġf il
o ot
Ġent ire
Ġe ach
Ġapp reci
Ġtempl ate
Ġo pp
Ġ1 8
1 3
m ed
Ġinclud e
Ġposs ible
u c
Ġmention ed
th ough
T alk
Ġm edia
Ġst at
Ġt imes
ver n
are nt
!! !
Ġatt empt
rib s
Ġstate ment
Ġ ign
Ġse en
n ess
Ġres ult
Ġdesc rib
r up
Ġe as
ĠJ ew
Ġrequ ire
1 7
Ġa p
m y
Ġtop ic
p g
Ġiss ues
Ġle arn
w here
Ġfact s
ĠF e
ĠO r
Ġs ense
Ġpro per
Ġdet ail
Ġm ajor
ord ing
Ġd ate
Ġpro ject
or ies
ĠM ay
Ġon ce
ĠP ro
d it
A s
t o
Ġsh it
Ġ u
ci ally
Ġob ject
Ġgener al
Ġun s
ĠN OT
Ġpre t
U ser
Ġl ar
Ġ es
c ing
Ġhe ad
Ġ Q
id es
A R
A nd
Ġsent ence
1 5
x t
Ġm er
Ġph ot
in s
The re
b lock
ah ah
A r
i vers
n ame
Ġp ast
Ġv ar
Ġprov ide
Ġmy self
} }
. )
is tic
ĠA f
re s
iv es
N o
Ġp ur
Ġday s
Ġcre ate
Ġ Z
in n
Ġa ut
Ġm or
Ġf riend
ou th
C T
Ġn omin
Ġf our
u ation
Ġinclud ed
A S
Ġf ix
Ġind ic
ĠS p
Ġsh ort
Ġc r
Ġthan ks
Ġor gan
ĠWh y
ion al
ud e
Ġse t
ol ution
l er
Ġs l
ro du
gr ound
Ġd ou
Ġknow n
Ġ1 0
j pg
Ġne utral
ĠAn y
Ġapp ropriate
Ġchan ged
w ard
us h
Ġex act
are d
Ġst yle
Ġhist or
Ġsy stem
L E
ĠW I
ĠA ll
Ġ200 5
t on
ĠO n
ikip ed
ĠT o
Ġop en
Ġac cus
2 3
Ġl oc
ĠĠ ĠĊ
Ġcomm on
ri es
Ġass um
d e
ĠCh rist
Ġansw er
Ġpro cess
Ġinf o
led ge
a x
Ġstart ed
u ro
Ġso ck
re sent
S t
b y
ag raph
Ġde m
Ġg ay
c u
Ġsch ool
Ġchar act
{ {
b o
w ikipedia
P ro
w iki
Ġl aw
A n
ĠN ot
err or
ir d
il ar
Ġget ting
end ed
Ġsumm ary
m s
Ġ ==
pe cially
2 4
A B
re ed
Ġdis ag
iz ation
y ou
Ġwr ote
ro ss
Ġc ent
ĠC he
Ġs orry
iv ed
o id
E W
Ġab le
la ck
Ġh ar
i or
ore d
is ing
Ġh um
Ġl ine
Ġre levant
Ġen g
2 00
ĠG erm
Ġpar agraph
Ġremov ing
p ar
Ġser ious
Ġpre vious
ser t
o ss
ĠDI E
âĢ Ŀ
Ġqu al
Ġst ay
m ost
Ġm ist
Ġclaim s
f er
Ġinclud ing
ĠI N
i et
Ġimpro ve
Ġs ort
Ġf al
Ġn ames
Ġ ir
Ġst uff
Ġnot ic
Ġcom pl
ĠB rit
ĠG o
Ġpos ition
A A
Ġa way
W ikipedia
Ġde al
Ġf ull
Ġsu ck
Ġattack s
Ġt aken
ar l
Ġor der
ie ld
Ġit self
g le
e ed
Ġhow ever
t i
Wh y
ĠCom m
Ġbeh av
Ġt ra
AT E
ĠB E
ĠO F
ent ly
Ġinterest ed
Ġmon th
c ol
ĠM Y
ĠL OL
Ġres pect
Ġne xt
r on
feren ce
ĠAmeric an
i ber
at or
Ġp at
u k
ĠL e
S S
Y our
ĠJ ust
ful ly
Ġp ri
Ġfa ith
Ġwrit ing
ĠAN D
Ġo cc
Ġr un
Ġappear s
on se
I P
Ġ est
Ġb and
iv il
ro ll
od e
am m
Ġwant ed
Ġcommun ity
u ly
ific ation
Ġwarn ing
a it
Ġcurrent ly
ch n
ĠM E
am b
Ġpr otect
Ġregard ing
Ġm us
ĠT O
se l
Ġrel ated
Ġl ater
p age
Ġadd ition
Ġsing le
in a
as es
D I
upp et
Ġrec ord
Ġ ...
Ġcrit ic
ot t
ĠI mage
iv ing
ĠâĢ ľ
im ent
un d
Ġwith in
Ġlook ing
Ġ â
Ġse arch
m ber
le g
Ġcount ry
ĠC on
and box
Ġ200 6
Ġpolic ies
Ġp ass
Ġnot ability
vel op
Ġc ame
g o
us ed
Ġde b
ĠM ar
Ġw atch
oh n
Ġsim ilar
o int
om an
z er
Ġfa il
Ġpret ty
ut ure
Ġedit ed
Ġcertain ly
Ġin tern
s on
b ack
r ation
Ġcomplete ly
Ġqu ot
P OV
l ict
v ent
id d
Ġ =
Ġent ry
Ġse lf
Ġrel ig
Ġexpl an
I s
b it
U N
Ġgo vern
g ain
Ġacc ur
Ġinvol ved
Ġs ound
2 5
ĠA t
Ġwas n
ĠâĢ ĵ
S E
Ġp ower
Ġf ile
ig ure
Ġde p
Ġdon t
ur y
Ġoffic ial
Ġargu ment
b an
he l
w ise
Ġf r
op h
ĠN or
Th at
Ġdisag ree
Ġfal se
Ġst ates
Ġf ag
Ġag o
ac y
ĠF AT
IG G
3 3
Ġn ice
Ġdesc rip
Ġpla ced
Ġmay be
Ġcl ass
un t
Ġtr uth
ct ions
Ġch ild
ĠS ee
Ġask ed
Ġre pe
Ġresp ond
Ġd uring
ate ver
Ġth reat
Ġpro f
C h
our s
Ġb ann
Ġde l
ul ation
s ing
Ġm ed
oo gle
Ġwon der
i ally
r ain
S o
Ġe qu
ant s
Ġuse ful
Ġ ident
C R
Ġc ult
Ġevery one
Ġs ol
Ġne cess
Ġk ill
Ġdif f
up id
Ġl ove
end ing
Ġf in
ĠS ome
il it
Ġtalk ing
Ġab s
ĠRe g
Ġp ie
he ad
Ġbel ow
c o
Ġf igure
ra el
Ġpost ed
A Y
H ey
d d
Ġwee k
ĠJ EW
r ad
Ġto t
Ġes pecially
lo g
Ġqu ote
Ġd ue
am ed
Ġpartic ular
Ġgu ess
Ġty p
ag ed
ou se
ain s
I A
om at
rup t
is sion
it al
Ġfuck ing
i ar
Ġrep la
j oy
l ing
ĠP ol
Ġper haps
Ġmor on
Ġnotic ed
ci ence
Ġsign ific
N ot
Ġs ide
ĠP er
cl usion
re l
Ġevery thing
Ġn ational
__ __
Ġf uture
ub lic
ĠYOU R
og n
ĠF A
Ġh i
Ġspe ak
ĠP h
Ġred irect
Ġco ver
i ent
c ur
ad d
ĠD O
ign ed
Ġ19 9
Ġappreci ate
Ġar ch
Ġcont act
Ġr a
ĠN ow
Ġpub lished
Ġmean ing
T H
n ew
Ġde velop
Ġknow ledge
Ġ1 7
Ġreason s
Ġresp onse
Ġso on
uro pe
Ġl ack
ort un
Ġb u
ur al
iv id
Ġwork ing
Ġdo cu
Ġnew s
ive ly
ĠW ikiped
Ġread ing
sel ves
W ell
at a
Ġsm all
Ġm et
Ġ1 5
Ġwor th
Ġprov ided
Ġl ooks
ip le
ograph y
c he
Ġ2 4
a i
in ess
it ions
Ġproblem s
m ore
Ġg ame
Ġs k
Ġtoo k
Ġbe come
A LL
ĠA RE
Ġgu y
Ġlar ge
Ġst ated
g et
Ġof ten
le y
ivers ity
Ġb us
Ġeff ect
Ġvandal ize
r is
ĠP IG
Ġcont ribs
b t
Ġdisp ute
Pro ject
ut es
!!!!!!!!!!!!!!!! !!!!!!!!!!!!!!!!
Ġto day
Ġst upid
ĠM an
con t
Ġru le
at s
Ġha ven
aaaa aaaa
um b
Ġal ong
ur ch
Ġneed ed
Ġtri ed
Ġh old
Ġl ic
Ġaw are
Ġval id
r ow
er y
Ġexact ly
l im
Ġpur p
Ġre v
Ġc ar
âĢ Ķ
Ċ Ġ
tern al
C H
Ġm ult
Ġbe g
ĠS er
ĠJ un
yyyy yyyy
Ġ /
Ġs andbox
ticle s
Ġexper i
F or
ire d
Ġup d
ĠWh en
Ġrep ly
nnnn nnnn
Ġan ti
Ġmo d
uyuy uyuy
ĠE x
us ing
Ġconf ir
Ġcontro vers
Ġstat us
Ġuser name
Ġpolit ical
A M
Ġc ou
Ġcont ext
Ġexplan ation
l ike
tyty tyty
ĠN IGG
Ġrem ember
Ġstr ong
Ġf ive
col or
2 01
p or
ge ther
Ġar t
Ġshow s
wh ich
Ġapp ro
Ġf ish
Ġun d
Ġ200 7
ĠL I
M y
ht m
Ġen joy
Ġterm s
in c
Ġrevert ing
Ġem ail
Ġse par
qu est
Ġcit ed
ĠH ATE
Ġadministrat or
ivid ual
ĠR ep
Ġj ob
Ġ200 8
p ro
Ġb re
Ġdelet ing
l am
Ġpoint s
D o
E T
Ġ ?
Ġun f
n er
an e
com m
or ld
ĠS H
Ġmem bers
ID S
Ġact ual
w ards
CR AP
Ġs cient
Ġun less
Ġupload ed
om en
Ġrep resent
ir c
ĠH ere
CRAP CRAP
ap er
Ġav oid
Ġdescrip tion
ĠNIGG ER
Ġtag s
Ġh om
Ġal most
Ġ {{
Ġun block
ĠUn ited
Ġdefin ition
o ber
Ġobvious ly
Ġb ooks
Ġrecent ly
it er
Ġt aking
Ġad m
Ġlike ly
our n
Ġ1 2
Ġ1 4
er ing
Ġb an
un k
Ġb ro
ict ion
qu e
it ive
Ġthan k
p ut
ed ic
Ġcharact er
I mage
Ġto ld
Ġt urn
al f
Ġgovern ment
re am
Ġsa w
ĠS ch
ĠA gain
ĠW H
ep end
Ġview s
Ġhapp y
Ġexper iment
Ġfil m
Ġ Â
Ġback ground
ĠJ ohn
Ġcomp any
ĠS c
Ġacc ording
Ġp en
Ġdec ide
Ġaut omat
ĠN e
ff ic
Ġex cept
ens ive
n a
Ġh on
Ġgener ally
tic al
Ġ200 4
ĠP r
Ġwh atever
Ġclo se
Ġv is
Ġl a
Ġpr im
Ġeff ort
ĠO ne
Ġm ark
ĠB lock
Ġpie ce
F A
i od
ĠB L
ons ense
b all
g ot
am a
Ġadmin s
um p
A D
Ġtrans l
Ġallow ed
ad em
Ġst ory
V E
I ON
Ġw ent
Ġf ine
Ġh y
Ġev ent
Ġ1 6
Ġmus ic
Ġon es
g y
Ġconf lict
Ġe p
Ġind ividual
Ġmin or
Ġp ract
Ġal one
ĠIs rael
Ġc ap
Ġwor ks
Ġint rodu
m b
Ġty pe
Ġd en
Ġbit ch
Ġbann ed
l u
ĠBrit ish
Ġvar ious
ide o
O n
n y
in ed
e al
n ect
re en
s c
se e
Ġcontribut ing
re me
ĠG ree
Ġle vel
s ed
ĠC l
WWWW WWWW
Ġthem selves
it es
Ġmo ved
Ġorig in
Ġav ail
Ġap olog
Ġex pect
ĠT r
s ide
or der
f ect
m p
Ġ id
ly ing
" ::
ib ly
1111 1111
Ġh ours
ĠG od
] ]
Ġatt ention
Ġcritic ism
Ġr ac
ra p
itt ed
Ġest ab
b um
en ces
iz ing
F uck
Ġact ions
Ġhappen ed
Ġt er
~~ ~~
s y
or ial
Ġwork ed
: #
'''' ''
re w
Ġe th
Ġsim ple
ĠC ont
ĠB y
Ġinterest ing
RE CT
Ġre ce
Ġare n
ist ory
ĠJ an
Ġl ive
ĠA M
I L
Ġpartic ip
, ""
W e
a les
im ate
ur k
Ġde ath
Ġte chn
Ġan n
ĠW ar
Ġare a
ĠR E
Ġbel ong
Ġcompl ain
Ġt ild
Ġqu ick
ok e
Ġdou bt
Ġd r
Ġcon v
Ġthe ory
ĠA LL
Ġsupp osed
Ġautomat ically
j ust
id th
ul arly
Ġprom ot
e ah
er al
Ġto gether
Ġme et
Ġ1 3
Ġsub st
H e
b s
ĠM r
Ġlong er
Ġsit es
le x
Ġc ategory
Ġl im
un ch
Ġme ant
I ST
it ch
Ġcit ations
Ġ X
Ġc ite
i ver
ll ing
ĠC OCK
Ġgu ys
Ġcl ar
ur d
Ġaccept ed
ĠM e
Ġhim self
ĠB ark
Ġun c
Y es
re g
S h
Ġmo der
O W
Ġa ff
nd er
Ġhelp ful
Ġrec ogn
Ġsour ced
Ġm ar
Ġtild es
Ġcit ation
Ġf ight
Ġr ation
Ġ #
Ġcre ating
ĠC ol
Ġcom es
Ġn onsense
ĠG et
Ġdocu ment
Ġw ait
ite ly
Ġpre s
Ġ *
ĠE urope
Ġavail able
Ġe y
ĠP e
ĠG e
Ġper iod
Ġfe ature
Ġhum an
Ġindic ate
U P
Ġm ill
ĠA ug
ĠD on
al le
ĠR uss
) ;
or ing
Ġprop osed
p ret
ĠS T
Ġfa v
ap an
Ġbi as
ĠA IDS
ra w
Ġs ong
Ġwould n
Ġm ere
ol ute
ĠB r
Ġthere fore
Ġins ult
B S
e v
p uppet
ar ily
Ġ ill
Ġs us
ĠS he
Ġany way
ne y
ĠChe ers
a f
v ice
00 00
Ġg l
RE DI
Al so
Ġ ve
Ġgo es
Ġnecess ary
a u
REDI RECT
Ġcle an
ĠGerm an
Ġcre d
en cy
Ġb o
Ġpro of
Ġcont est
I M
Ġopin ions
C om
V ER
Ġy es
arent ly
Ġbi ased
Ġ ed
Ġb ox
. ,
Ġm ent
UN T
t op
w ork
and a
Ġr id
o ice
Ġt roll
th od
Ġj ud
ad ing
Ġaccur ate
n ic
Ġb ring
Ġviol ation
Ġsignific ant
Ġp ers
"" ?
ĠJew s
Ġdis rupt
Ġmonth s
Ġte am
5 0
ĠC UNT
Ġfam ily
ony m
Ġal though
Ġam ong
Ġsit uation
T AB
if f
Ġ19 8
Ġf ield
Ġf oot
ĠA ust
Ġstand ard
Ġs w
Ġm ass
Ġstate ments
Ġexplain ing
n o
Ġa ction
Ġse ctions
av ing
on es
o ver
st ar
Ġl ab
ol ic
Ġ1 1
Ġtag ged
Ġdeb ate
Ġl ight
i ation
r ary
ĠF AG
ĠN POV
Ġind eed
Ġre ach
Ġinc orrect
B e
ia b
Ġsepar ate
Ġh ome
ĠA SS
Ġth ird
le nt
ĠSt ates
Ġpart y
Ġcl ick
ĠM us
Ġper m
ĠJ uly
S e
Ġb en
an ge
Ġind epend
Ġration ale
J ust
p ort
Ġhe ard
ĠI T
Ġrem ain
ar ian
ĠT e
Ġcon nect
ruct ive
Ġl iving
t ers
Ġf ore
am ing
Ġ200 9
ĠA b
Ġbehav ior
u ary
Ġt able
Ġup on
O P
wh at
h ow
Ã ©
ob ox
ĠF uck
ar th
Ġver if
Ġc ity
ĠA re
m en
Ġen c
el s
Ġother wise
f uck
t imes
ĠM a
le ction
Ġprodu ct
ilit ary
O S
U n
ĠA pr
Ġdetail s
ĠG ood
Ġdes er
Ġh ate
ad a
ĠP l
ib ility
Ġm other
ĠG r
ĠS ince
ra ft
Ġshould n
Ġm ot
Ġl at
ent ial
Ġp ill
AHAH AHAH
Ġmult iple
c ent
Ġd am
ĠW est
Ġm om
u est
Ġca use
C E
ĠW ill
htm l
ĠChrist ian
Ġir re
Ġabs olute
Ġrepe ated
Ġform at
ĠL et
Ġper fect
ress ion
Ġcou ple
b ut
Ġc ivil
Ġser ies
ĠĠĠĠĠĠĠĠ ĠĠĠĠĠĠĠĠ
Ġleg al
Ġj o
Ġsub m
ĠSt yle
Ġdirect ly
ĠFe b
a ul
Ġm ag
ic es
ic ult
Ġqual ity
Ġde ter
Ġal bum
Ġcomp ut
Ġbu ild
ĠAug ust
Ġsu c
Ġ2 3
Ġpre ss
Ġdif ference
Ġid i
as ter
st er
Ġus ually
or m
ĠB ALL
Ġv ideo
Ġhe ll
Ġep is
C an
ĠA m
Ġsch ol
o cus
en n
Ġcre ation
Ġhistor ical
Ġf re
ra b
Ġask ing
Ġne g
Ġcontribut e
U S
Ġd ata
Ġus es
ĠWI K
w ar
Ġprop os
Ġassum e
is on
Ġf an
ĠT ake
Ġdescrib ed
y n
Ġad vert
e ep
Ġ ur
Ġo k
Ġe arl
ĠW orld
ul ly
Ġpo or
Ġmess ages
Ġexist ing
ĠBALL S
W iki
t ed
Ġcount ries
an i
Ġpen is
p x
ĠW ik
ĠE ven
Ġprodu ce
s pe
ar ies
Ġcon cept
s k
ĠH ar
E L
Ġ1 00
Ġcall ing
M an
al th
ag ue
Ġpre fer
Ġget s
ĠUn iversity
Ġcult ure
ip ple
feren ces
Ġpurp ose
Ġhe ar
ĠE n
amb ig
Ġwh ite
Ġo per
Ġre w
ut orial
Ġret urn
r im
Ġmo v
se x
ĠD r
Ġac cess
b al
one y
Ġblock ing
Ġco ck
ug ht
O h
and s
Ġ error
Ġ2 1
ĠU K
ĠFUCK ING
3 0
Ġpro ve
ĠJ apan
pl ay
att le
Ġc amp
se t
Ġdiff icult
Ġb lack
ĠMay be
u ed
id ing
Ġ( ~~~~
Ġcons ist
Ġph r
ran k
Ġd est
ir l
Ġprof ess
Ġpill ars
1 00
ren ch
at ic
Ġinv est
T o
Ġp ort
ĠC H
et y
Ġsp ace
Ġex ternal
ĠWI LL
Ġc ases
Ġe lect
e ch
Ġdec ided
ED IA
inn ing
ut ed
Ġphot o
Ġin clusion
ĠD is
Ġh it
Ġright s
Ġconcern s
ourn al
Ġc ens
Ġpro gr
Ġact iv
Ġsuck s
Ġinter pret
ĠG u
ish ed
so ci
Ġspec ial
Ġ201 0
bo ard
Ġv ote
Ġh alf
Ġargu ments
ĠM arch
ĠU N
er ous
pt ion
Ġchan ging
Ġext reme
hel p
Ġprim ary
F D
le ment
ĠW ell
Ġcont ain
ĠO N
app y
Ġs at
Ġan al
ĠTh ese
Ġread ers
an ces
h ole
Ġc oll
Ġwant s
Ġem p
g ress
ĠInd ia
Ġt reat
ist er
Ġph ys
Ġb ot
Ġg ave
er t
az i
Ġexp and
Ġhar ass
Ġresp ons
Ġreport ed
4 0
B ut
S orry
ĠA ss
oo se
Ġam ount
ĠTH IS
O B
av id
Ġnor m
ĠJew ish
ĠWikiped ian
Ġbus iness
Ġfam il
W elcome
al d
Ġpri v
andal ism
Ġcontro l
app ropriate
Ġs cience
st r
our ced
Ġmist ake
ĠPer haps
IP EDIA
Ġdisrupt ive
Ġc ateg
Ġlink ed
p ed
Ġmem ber
f ree
Ġre le
h a
ac os
Ġearl ier
ĠA D
Ġserious ly
Ġhon est
con om
un g
Ġv ot
ĠIs lam
2 7
ĠG en
ĠK ing
Ġ3 0
Ġgiv ing
ĠE dit
ĠO f
Ġthink ing
ced ing
ahah ahah
u ge
Ġ er
al ign
Ġnum bers
t a
ĠO ct
ortun ately
I LL
ou ble
med i
* *
o ff
Ġth us
Ġlook ed
Ġdiscuss ed
Ġstand ards
ĠTh en
Ġperson ally
Ġdec ision
re st
ed y
Ġin sert
EN T
Ġmere ly
Ġto wards
ove red
h i
Ġread er
Ġ19 7
Ġmajor ity
re m
et er
ĠO b
com p
ĠAr ticle
Ġpicture s
r ict
Ġf ocus
Ġon line
Ġsu per
Ġab use
Ġac adem
D on
Ġre lease
Ġl iter
Ġprop ag
l ist
ce mber
ĠD id
Ġentire ly
Ġconfir m
ng th
Ġspecific ally
ĠAust ral
E x
Ġc irc
Ġcom ing
Ġso cial
olog ical
Ġn amed
Ġref lect
?? ?
le ge
Ġgroup s
Ġintern et
ĠN ational
Ġben ef
Ġm en
our ce
Ġopp os
ĠJun e
Ġmoder n
ul ous
let ion
Ġchan ce
Ġ ''''''
Ġconst it
Ġrepla ce
Ġirre levant
arn star
R R
lo y
Ġaccept able
Ġscient ific
Ġmat ch
Ġpartic ularly
Ġmill ion
ĠS outh
pt ember
ĠG AY
p les
Ġc or
id er
Ġal tern
ther n
Ġe arly
Ġadv ice
ant ly
Ġout side
Ġev ents
Ġa f
Ġas soci
ĠIn tern
idd le
Ġ ess
Ġt error
in ation
D e
art y
Ġrequest ing
ĠAf ric
9 9
Ġ201 2
Ġexperi ence
E E
Ġ ;
C ont
ud d
Ġst ep
Ġed uc
" ==
ia m
Ġstud y
Ġuns igned
d om
re et
op y
Ġac ross
O k
il ly
Ġpl an
g ue
ĠH is
Ġfa ce
Ġtot ally
ĠW ith
ĠL ist
ĠRep ublic
d o
ĠC AN
con s
Ġgiv es
Ġbre ak
i as
Ġpop ulation
k a
ĠN ipple
ĠR f
Ġpre vent
'' '
itt ing
Ġorgan ization
o e
n ing
ove mber
ile s
Ġpop ular
Ġleg it
ĠFe el
ĠH A
Ġ2 2
Ġput ting
S ome
Ġv ol
Ġpost ing
Ġunderstand ing
m ail
"" |
ĠB UT
Ġto ol
Ġinf lu
ĠBE ST
ĠJan uary
p ite
S H
Ġt em
ON G
Ġabsolute ly
Ġde ad
Ġfl ag
Ġt akes
Ġp ot
ig g
ĠAmeric a
at ors
Ġg one
du ct
ĠS pe
Ġaccount s
Ġexp ress
ĠWiki Project
Ġhigh ly
ĠWIK IPEDIA
S ee
a id
Ġchild ren
onym ous
' .
Ġin appropriate
Ġre comm
Ġknow s
Ġco ol
g en
Ġm ine
6 0
ĠE d
ru ary
Ġdem on
I I
ou d
Ġh es
ĠB l
Ġsh own
Ġim medi
Ġexam ples
Ġindepend ent
B L
Ġb order
Ġn one
Ġeth nic
is f
ĠT urk
ri ed
Ġ2 5
H ere
Ġb ott
ĠS P
Ġbelie f
ĠAd min
2 8
W P
a ction
ĠT V
ir th
S UCK
ure s
Ġfriend s
iab ility
Ġprogr am
U M
en ced
d is
ell ow
m a
Ġb orn
Ġc unt
Ġf ill
ran ge
t ime
Ġl ost
ĠR es
Ġpost s
Ġbeh ind
an a
Ġwar ring
Ġeas ily
F UCK
u h
Ġb log
ĠWh ile
Ġlist s
Ġtempl ates
4 5
Ġf at
Ġwee ks
Ġsubst ant
Ġverif iable
g ots
Ġw ik
ĠG oogle
Ġapp l
ograph ies
Ġbas is
Ġrequire d
C C
Ġa head
Ġp ay
Ġl iber
Ġas sert
ĠGree k
st it
r ite
Ġ !
Ġb ody
le n
ic a
ĠC ar
Ġspeed ily
Ġ z
Ġdiscuss ions
Ġign ore
Ġproper ly
Ġwill ing
Ġper form
Ġgr ound
c er
Ġmom ent
Ġcomput er
8 0
i que
ĠG O
ard ing
ell ig
Ġsol id
ĠCOCK SUCK
Ġw omen
AN D
Ġin it
ĠF irst
Ġadministrat ors
? )
Ġc ell
Ġsome times
cl us
for d
Ġreason able
Ġass hole
Ġcent ury
Ġfor ward
ĠA fter
m ing
ĠI nt
Ġexplain ed
Ġinvest ig
Ġst ub
Ġinf obox
Ġdefin itely
Ġrelig ion
ĠS y
Ġnomin ation
Ġar bit
Ġeas y
l ight
as ing
Ġbe c
am ent
Ġsur pr
Ġfag gots
6 7
Ġc ut
el t
Ġapp arently
R S
i um
Ġim pl
ĠApr il
r ant
Ġd ri
w ith
and om
ĠR oman
es us
as c
ĠC ent
est er
Ġreg ards
Ġte ach
Ġign or
Ġres ol
Ġrid ic
2 9
Ġt re
Ġloc al
Ġ(~~~~ );
Ġjo in
ĠH ave
Ġcl ub
OT H
Ġsus pect
Ġc oun
ĠS orry
Ġde v
ĠS m
Ġdes ign
sh it
{ |
and id
k e
| -
Ġ err
Ġnot ed
ĠĠ ĊĊ
ced on
ĠY ork
em s
Ġ20 11
b ook
Ġw ide
it ude
Ġpub lish
Ġrelig ious
f e
Ġf inal
Ġfun d
Ġlic ense
Ġl uck
Ġar gue
Ġme thod
Ġway s
ines e
ĠM c
sy ch
O H
Ġn ature
Ġl o
ip s
il os
le ar
ĠS w
Ġrel ations
Ġresult s
A ll
a ign
ĠI m
ist an
Ġnew sp
Ġsock puppet
201 0
Ġm ilitary
Ġr ad
k now
tic k
um e
as k
Ġfor mer
ĠB ar
ĠWh o
Ġb al
al ity
ĠW here
ĠDI CK
Ġhes it
z z
Ġremov al
Re quest
p ir
en e
Ġd ick
Ġfuck sex
empl ate
6 9
Ġme ets
ri ef
ify ing
ĠDe cember
p s
Ġd rop
Ġfor ce
ro y
) :
b r
ou ch
op s
Ġmis sing
?? ??
Ġa ir
ub e
Ġtr ouble
Re g
ĠAf D
ĠNor th
Ġtot al
aaaaaaaa aaaaaaaa
h am
or th
Ġfree zer
Ġbl ank
Ġfamil iar
it le
ll ed
ĠH elp
Ġ5 0
ĠBe cause
Ġocc ur
Ġappro ach
Ġbott om
Ġf ully
th is
un der
Ġus age
Ġsat isf
Ġcould n
Ġpla ces
Ġword ing
Ġwonder ing
yyyyyyyy yyyyyyyy
uyuyuyuy uyuyuyuy
Ġneg ative
la v
nnnnnnnn nnnnnnnn
Ġcontrovers ial
he m
ab or
n et
ĠA ct
____ ____
ĠI M
Ġdescrib e
Ġdo g
ĠAny way
Ġhy p
Ġenc our
Ġp aper
th at
Ġcontribut ion
tytytyty tytytyty
Ġt end
Ġb ar
Ġbe com
Ġse lect
re ceding
it ing
en ing
ĠC al
ra ck
ĠE l
Ġide as
Ġpropag anda
A d
ĠS im
se qu
ĠP age
Ġint ention
Ġconcern ed
) "
Ġposs ibly
B C
ĠSe ptember
ĠÂ ·
N N
Ġc e
Ġp ain
ure d
Ġtest s
N ew
ĠI ran
ĠP R
ĠN ovember
Ġtr ad
RE ED
Ġob ser
Ġsupport ed
Ġimport ance
ĠOct ober
Ġdiscuss ing
Ġbec ame
ĠC OM
ĠB est
ir t
Ġsuggest ion
Ġsex ual
ĠReg ards
Ġmov ie
F C
Ġ[ [
Ġcour t
Ġwarn ings
ĠMus lim
L Y
ay s
ĠO ther
ci ety
Ġreferen ced
Ġm ap
Ġh uge
ar ing
Ġg ames
ce ed
ĠF r
ĠJ im
ĠCh urch
Ġbas ic
Ġappreci ated
ĠGet ting
ĠI r
Ġestab lished
Ġm oney
Ġpr ot
Ġguidel ine
Ġidi ot
AN N
Ġexper t
Ġpri or
a ff
Ġg e
if ies
ug h
Ġfav or
ĠA nt
ph p
Ġnomin ated
ĠO h
a e
ch ie
ĠSH IT
Ġsuc cess
g est
u ous
ing u
Ġf all
our ces
CRAPCRAP CRAPCRAP
v al
Ġe conom
c est
w ell
ĠSt ate
Ġsuggest ed
S pe
ĠR em
REED OM
at ory
Ġfor um
Ġver s
Ġpresent ed
Ġtyp es
? !
i our
p oint
Ġl ib
Ġfix ed
ĠSch ool
Ġb oy
Ġbr ought
Ġval ue
Ġprevious ly
Q uest
ĊĊ Ġ
Ġrefer ring
Ġsound s
w are
Ġd iv
ĠM ore
ri an
Ġp ick
ĠY es
ĠNew s
K E
ĠS UP
ĠH istory
F REEDOM
ĠF rench
ath olic
ĠFeb ruary
Ġb other
ĠN ote
a el
Ġinc ident
Ġhesit ate
' ,
ic it
Ġne ither
Ġj ournal
Ġinc re
ĠDo es
b ar
Ġth ous
ER S
ĠTH AT
ale st
Ġrece ived
Ġyour s
Ġpr inc
ĠQ u
Ġcap ital
ĠPe ople
ambig uation
e c
id s
ĠB el
Ġro le
rel ated
Ġepis ode
Ġridic ulous
Ġh or
Ġne ar
an ish
Ġhe y
Ġapp ly
Ġw idth
g ree
Ġs tick
en ed
ce l
Ġsp am
Ġrele ased
is ions
ow s
st yle
ust r
Ġwe ight
Ġaccus ations
Ġpart s
Ġd er
Ġv ict
Ġany more
Ġhapp ens
re p
an ies
us es
Ġser vice
Ġcharact ers
Ġphr ase
Ġcontribut ors
!!!!!!!!!!!!!!!!!!!!!!!!!!!!!!!! !!!!!!!!!!!!!!!!!!!!!!!!!!!!!!!!
l ink
n ce
z e
Ġcon duct
ĠP ar
Ġint ended
k o
y ond
Ġs al
Ġd a
Ġl ow
ĠO R
Ġman ner
ER E
Ġke pt
Ġhom o
Ġgl ad
Ġl ed
ch an
ip p
2 6
Ġex ists
Ar ticles
Ġrac ist
ur t
Ġsome where
end a
Ġact ive
Ġtop ics
Ġquot es
Ġl ik
cl ass
Ġtell ing
rip t
Ġb ull
Ġc andid
Ġp arent
ra ight
An y
M M
Ġwho se
Ġsee ing
Ġreal ity
Ġinter view
O ne
ĠG A
Wh en
m i
Ġs ad
ul ations
Ġclaim ed
Ġrepeated ly
G ood
le ading
Ġinst ance
reed om
2 1
Ġc ast
ĠW as
Ġfact ual
Ġmain tain
4 8
b i
Ġl ate
Ġj oke
add ing
ĠA rab
Ġsh all
ĠM U
ilos oph
c ise
g in
Ġ Ð
Ġn et
ĠC ategory
iv ility
Ġag e
Ġupload ing
ĠAd d
er v
or ge
Ġbe yond
ag ing
Ġbehav iour
Ġst ruct
ĠH ope
Ġch alle
Ġa ck
Ġb irth
Ġl and
he tic
Ġmost ly
Ġ== ==
Ġf it
Ġtr ust
! )
Ġb ase
Ġb ast
es is
ĠF urther
Ġk new
AN S
Ġno body
Ġs la
Ġl ies
ĠD avid
Ġshow ing
Ġinvol ve
Ġimmedi ately
b or
Ġle aving
Ġconf used
WWWWWWWW WWWWWWWW
N ow
az ine
Ġcheck ing
ES S
Ġcateg ories
l in
it ation
Ġan cest
Ġdes pite
a ut
t r
Ġto wn
Ġn at
om b
Ġsh are
Ġch urch
ĠInd ian
11111111 11111111
6 8
Ġst ating
Ġsome body
CK S
Ġreal ize
Ġbl at
ĠM ost
Ġinclud es
ĠRuss ian
Ġcon d
Ġbeg inning
Ġpract ice
Wiki Project
L ist
Ġs end
it able
Ġas pect
ĠC o
ĠB lack
Ġdemon str
0 8
D Y
Ġst raight
âĢ ĵ
Ġver tical
Ġclaim ing
st ream
Ġse ason
Ġcomp et
Ġcom b
Ġadvert ising
h o
Ġim ag
iv en
ind ex
ĠIt al
Ġspe lling
ĠCh inese
Ġtra ck
Ġacadem ic
3 6
e g
Ġa chie
Ġn ight
ĠM in
Ġcamp aign
t w
Ġref rain
ĠC ould
Ġbro ad
ĠBUT T
ĠW ould
Ġint ent
Ġgu ide
19 9
Ġmove ment
I V
P S
c ret
Ġch oose
Ġrecomm end
Ġack now
Ġsu ffic
âĢ ¢
Ġcomp anies
== ==
3 7
y a
Ġsh ared
ĠU nder
OO OO
Ġfr ont
Ġfeature d
Ġextreme ly
help me
5 5
c il
:: ::
ĠMa cedon
Ġb rief
Ġh ost
ar a
ent ially
Ġle ngth
Ġwebs ites
D ear
ĠM o
ĠE very
od es
Ġrevert s
oc rat
Ġauthor ity
3 8
3 9
id ge
ĠA pp
Ġref ers
h ib
Ġr andom
Ġ2 7
ĠK ore
ious ly
Ġaccus ed
4 4
F irst
ĠC ount
ra z
ĠJ esus
ĠH appy
ĠSUP ER
Ġs ens
Ġapp e
Ġuns ourced
Ġkill ed
Ġp un
ĠM ich
Ġphot os
Ġbo ard
F air
ĠA R
ap ers
Ġins ist
upp ort
Ġmer ge
Ġlab el
Ġin put
Ġal leg
Ġag enda
ond on
Ġencyclop edic
Ġh op
ĠM OTH
Ġdis play
um an
Ġconst ructive
or row
Ġf em
ĠC ity
ĠL A
ĠIt s
cc ording
ĠĊĊ Ġ
ĠCan ada
Ġlegit imate
? ""
es ides
lo bal
Ġadd itions
Ġstart ing
A re
ĠM on
ĠR ed
Ġhe av
Ġconnect ion
O r
a pt
g ar
ve y
ĠH igh
ĠJ e
Ġdist in
SE CKS
Ġcontrovers y
Ġpropos al
Ġjud ge
ĠBUTT SECKS
G A
i ence
im edia
ad es
ĠM any
il t
ĠF l
ĠG reat
Ġ- )
AG E
und red
s ome
an ks
7 7
Ġw ater
Ġim m
Ġnum erous
Ġ201 3
Ġey es
in st
re es
Ġre du
pr otect
istic s
Ġemp loy
Ġc al
Ġp uppet
Ġe at
Ġrep ut
Ġfun ny
Ġan im
Ġre ject
Ġv ia
Ġpo op
Ġplay ed
ĠSe cond
Ġsecond ary
c an
i ant
Ġh ouse
ĠP res
Ġperson s
AM E
H T
an ced
Ġrefer red
Ġupd ated
Ġp ure
ĠS up
Ġsubject s
AL K
Ġpos itive
p en
in o
Ġlim ited
i us
in ter
is ation
Ġd om
ig her
Ġso ld
Man ual
Ġfe ed
ĠEng land
ĠBL OCK
Ġperm ission
Ġbast ard
O K
c le
Ġl ie
ĠGerm any
Ġadm it
" :
in ent
Ġf elt
Ġass ist
Ġan onymous
Ġin n
ill s
ur g
ĠF rom
ĠD E
Ġapolog ize
r am
Ġth read
re land
Ġc ode
ĠP aul
Ġex c
os es
Ġany where
erson al
Ġfollow ed
Ġra ised
3 5
S ince
is es
Ġpoint ed
Ġeffort s
know n
I R
Ġde cl
Ġfind ing
Ġpr int
Ġc rap
op er
Ġthink s
Ġcheck ed
d own
Ġag reed
Ġoff er
ĠAr ticles
ĠComm un
Ġclick ing
d b
t t
Ġ ut
ow ing
Ġare as
Ġbl ood
Ġfair ly
Ġsl ight
Ġperfect ly
B y
M IN
P e
f act
Ġt ar
Ġt ouch
ors hip
ĠĠĠĠ Ġ
Ġreg ist
Ġbas ically
Ġvis it
S p
k en
n el
ĠP ort
ac cur
Ġstud ents
ĠSer b
P A
Â ·
us hing
ĠC or
Ġspe ech
Ġmis leading
Ġlog ged
Ġcommun ic
oss ible
form ation
Ġke y
ring e
Ġimpro ving
Ġband s
E dit
Ĩ Ĵ
Ġf ather
Ġv ill
ab y
Ġreg ion
opy right
B O
M ay
ĠF re
fere d
Ġ x
Ġt one
Ġcon form
Ġmo ving
itt ee
Ġelse where
Ġlangu ages
FF FA
ĠJapan ese
w idth
Ġp sych
ar ks
ĠJ ames
Ġkeep ing
on na
Ġab ility
ĠH ind
Ġint ellig
Ġoff ensive
Ġseem ed
Ġset t
% ""
m ine
Ġcont rad
ard ed
... ""
Ġhelp ing
Ġ201 4
r ay
en g
as ure
ur der
Ġintrodu ction
A ss
Ġs pl
Ġh undred
Ġwh om
ol f
Ġsome what
ative ly
Ġmin utes
Ġupd ate
ist or
Ġv s
ĠN OO
Ġrequest ed
Ġcopyright ed
o ca
ĠC y
ĠH ol
Ġrun ning
Ġreach ed
Ġdest roy
d iff
Ġt en
Ġs ca
Ġres olution
ock s
Ġ rom
qu ently
Ġwor se
Ġgo d
Ġgr amm
Ġexperiment ing
Ġestab lish
4 7
H H
T W
in ally
Ġhe ld
ĠO K
Ġapp lic
Ġfail ed
f ortunately
Ġg irl
Ġnot es
ĠN O
art ment
all ed
AN K
Ġ il
ur b
la w
Ġsy n
sh ip
Ġcol or
ĠNOO BS
Ġs n
at ives
IT H
Ġcover age
Ġnorm al
Ġm ix
Ġd ig
ort s
um n
ĠJ ack
Ġsuggest ions
Ġhar m
H elp
e gr
er gy
ale nt
Ġrequire s
Ġprotect ed
C he
ou l
us er
ĠS am
ĠC our
ĠM et
Ġtr ain
ĠCh ar
ys is
Ġrepla ced
Ġey e
] .
e in
Ġde ep
ĠFUCK ER
Ġeas ier
S m
Ġ +
ĠS un
ĠD es
Ġ2 6
ose x
Ġprotect ion
4 6
Y eah
Ġb old
Ġsee k
ĠCh ina
Ġdef end
C on
Ġschol ars
ro g
ĠC ro
ĠP arty
ĠM al
Ġun like
Ġatt ribut
Ġsm ell
Ġerr ors
5 6
i h
u el
er ry
Ġc ross
im age
st ood
ĠM edia
Ġspe aking
5 8
M A
Ġc ant
Ġan g
ĠI reland
ĠD a
Ġch oice
Ġlog ic
ic an
Ġor d
ĠL a
Ġpol ice
s he
Ġh igher
Ġr ange
Ġc orre
ĠI I
ar m
4 2
Ġh o
Ġcomp ar
Ġsupp ose
Ġclo sed
osex ual
re y
Ġl ines
Ġconsider ing
Ġrelations hip
I nd
k y
t itle
"" )
ĠD em
ra id
Ġcomp rom
IT CH
Ġs ize
Ġb attle
Ġtr uly
con st
ru ction
Ġaltern ative
L A
Ġd ied
ĠS ov
am er
Ġr ude
Ġind ust
erm an
Ġreview ed
Ġro ck
Ġaddition al
Ġstrong ly
pect ive
Ġprom ote
Ġcoll abor
ĠAD MIN
Ġ $
Ġo dd
ers hip
Ġsome how
ĠAr men
Ġsent ences
Ġlaw s
Ġcoun ter
J ew
P receding
Ġg oogle
Ġwas te
Ġtit les
Ġf ool
Ġdou ble
Ġintern ational
new s
9 0
Y OU
Ġb unch
Ġr ace
Ġbi ographies
Ġfag got
Ġp le
Ġcit iz
Ġexist ence
D is
T R
Ġbi ography
Ġn igg
Ġyou ng
cept ion
Ġfam ous
Ġocc up
Ġment ions
Ġdeter min
c ies
i ated
ch ive
if t
and er
Ġcont ains
ition al
Ġexpl icit
Ġthought s
Ġcriter ion
ĠEurope an
Ġnewsp aper
Ġp ush
Ġg ra
Ġver ify
Ġaddress ed
ĠUS A
Ġb ul
Ġre n
ĠP ers
Ġwor ry
ĠE ast
Ġpr on
f ace
Ġd raw
ĠB ITCH
ie f
Ġplay ing
ĠCom p
3 4
Ġs on
Ġfor got
tic e
Ġrest ored
Ġparticip ate
8 8
ĠS an
ĠF OR
OU S
Ġcorrect ly
ef in
Ġfigure s
Ġund o
Quest ions
6 6
A ct
re vert
Ġd ie
ĠA ng
Ġph ilosoph
Ġshort ly
Ġloc ated
Ġquick ly
b l
Ġa ud
as tic
Ġre ve
Ġcon vers
rup tion
Ġeng ine
i en
Ġal le
ĠL ook
for ce
Ġprov iding
Ġlic ens
A b
p ost
Ġthe ories
Ġin accur
ĠC atholic
Ġhe alth
upp ets
Ġaf raid
A meric
p ing
ĠA c
ĠB arnstar
ĠL ondon
la ce
Ġprov ides
Ġdisp uted
Ġcirc um
% ;
k rain
Ġs ix
Ġm iddle
Ġblock s
ĠAl though
ĠThere fore
as ion
Ġcon clusion
Ġal t
Ġmat ters
Ġcontent s
Ġdeser ve
Ġc at
Ġp et
Ġd i
ĠT w
ĠM ag
ant ed
ord s
Ġcare ful
.... ....
Ġthreat s
y an
Ġact ing
Ġsp read
ĠIr ish
0 7
s ure
v il
Ġf ol
Ġbe gan
Ġfor get
Ġsh ot
Ġr ul
Ġc overed
Ġan cient
IS M
Ġfin ally
T utorial
u ing
Ġre pl
un e
ĠP at
ĠH er
pp ed
Ġ2 8
ĠL ike
Ġwatch ing
Ġfoot ball
Ġinterpret ation
0 6
4 9
C l
c ast
in y
Ġg ain
ĠA S
Ġun ne
ĠWikiped ians
C ategory
v an
à ¤
ĠF ran
ian ce
IN K
Ġprov en
iver se
ĠW W
The y
Ġlist ing
ĠRe c
Ġhit ler
0 3
P R
e tic
r ia
Ġs an
Ġd ates
ĠP alest
ĠF ile
Ġso ft
land s
ĠDe letion
Ġter rit
b oy
Ġs illy
ic ks
Ġmention ing
AA AA
Ġassoci ated
8 5
U R
Ġw ind
ĠR el
Ġpre d
Ġca used
Ġdevelop ment
Ġ ~
Ġf ellow
ĠW ales
Ġass ess
Ġmain stream
Ġwarn ed
Ġorigin ally
U U
Ġb all
ar i
iz ations
Ġatt itude
Ġtag ging
oy al
Ġdel ay
Ġtransl ation
Ġbuild ing
Ġsuffic ient
m iss
z a
ad ian
ĠAustral ia
P G
Ġs olution
Ġg onna
ir it
ĠF R
Ġcons pir
Ġsp end
Ġreview s
Ġthrough out
Ġappe ared
P er
g a
Ġw oman
alk ing
ĠR ich
os p
Ġreport s
5 9
v ir
re h
ig ger
ĠU P
4 1
Ġas ser
ĠH E
rit ten
Ġdefin ed
Ġann oy
Ġd umb
ag on
ĠT imes
Ġapp eal
Ġconcern ing
Ġattempt s
0 5
Ġf reedom
Ġ( ""
ĠV er
Ġent ries
Ġvict im
3 1
G o
ink s
ĠL aw
J ER
Ġen ergy
AT ION
Ġtri v
Ġopp osed
Ġprofess ional
F e
N D
ĠW ITH
am il
Ġkeep s
Ġlot s
ĠSh ould
Ġbelong s
ĠCOCKSUCK ER
Ġad op
Ġfun ction
Ġloc ation
ĠPh il
Ġclar ify
ĠMOTH JER
" ,
P age
ĠC ong
Ġpro gress
Ġany body
ph as
Ġlat ter
Ġil leg
G G
W ar
Ġl ay
Ġl os
ĠT R
ĠE mp
Ġsa ve
Ġuser page
Ġcop ied
Ġdetail ed
Ġmer ged
ĠAfric an
0 9
i qu
un s
ĠC r
ĠD ep
ra cy
Ġpoint ing
ĠAr b
Ġhard ly
ĠSov iet
5 4
Ġp aid
he t
Ġhe il
Wh o
Ġlet ter
back ground
Ġok ay
O RE
ve re
.. ...
Ġr ank
Ġev olution
stand ing
IG HT
ĠBL P
5 7
S te
ã ģ
ov ed
Ġhelp s
Ġcare er
L D
a ult
m on
Ġ ri
Ġf ire
us tice
pl ed
ber g
Ġreason ing
ĠMan ual
Ġunblock ed
Ġindividual s
mb ol
Ġinvolve ment
ĠPres ident
T C
Ġe arth
ĠR AP
Ġviol ate
E d
u x
Ġt acos
Ġm urder
ap h
ord in
Ġcontribut or
ĠAl ban
Ġsupport ing
wh o
uss y
ĠDO G
Ġmod el
S ex
er k
Ġn ation
ow ers
Ġfa c
Ġ200 3
Ġobject ive
W here
b el
n ote
Ġs ick
Ġso ciety
Ġpart ies
Ġcontin ued
wh ile
ĠSUCK S
I RE
y our
ct or
ĠA lex
Ġun re
ci ation
Ġsuggest ing
Ġarch ive
ĠGe orge
Ġbenef it
. [
3 2
i ate
Ġt ax
Ġc y
ĠT acos
ri ble
ĠR ight
Ġ2 9
ĠAN I
Ġ201 5
Ġmist akes
Ġmed ical
Ġsignific ance
T M
Ð °
ĠF rank
Ġdis ambiguation
Ġhas n
clud ing
Ġsign ature
Ġign ored
ĠIntern et
o ly
p d
ol it
et t
Ġrem ains
Ġminor ity
cel lent
Ġparent s
f ess
st ead
ĠĠ ĠĊĊ
Ġspec ified
33 33
Ġwide ly
ĠP AGE
ĠD R
Ġext ra
Ġdeal ing
go ing
Ġaff ect
Ġdeter mine
Ġtar get
h h
h ood
Ġw ars
Ġn ar
ĠS ing
Ġcomm er
Ġcall s
rel iable
Ġexperi enced
iction ary
Ġconsist ent
Ġpot ential
Ġthous ands
l an
r d
Ġthat s
ĠA L
ak er
ĠN azi
Ġstand s
Ġsumm aries
Ġfile s
Ġbitch es
Ġcontrad ict
L et
w ood
Ġw est
ĠB i
ir ty
ĠL at
Ġconf usion
IC ANS
Ð ¾
ĠC ons
ĠM ark
ĠH ouse
ri e
Ġjust ify
Ġpe er
Ġch art
ress ed
ĠSt op
ru g
Ġpriv ate
Ġstruct ure
Ġc ry
ĠB ill
Ġgo al
Ġconf using
Ġsmell s
a pe
ad y
Ġde gree
ĠJ ud
Ġinst ruct
A t
Ġc ost
ĠT emplate
Ġdis app
Ġtw ice
oth ing
ĠMich ael
Ġa im
it ler
se c
ir m
ast y
AN T
Ġwish es
Ġbus y
Ġrev ision
Ġconfir med
Ġs qu
Ġso le
Ġpl ain
Ġrest ore
lent y
Ġlat est
7 8
I F
y ing
ĠH ello
cess ary
Ġmis sed
7 5
b re
ver age
Ġne arly
Ġcomp lex
Ġsp ent
Ġsurpr ised
ĠRAP E
b ooks
Ġr are
ĠSt ar
Ġdisp utes
FF FF
Ġphot ograph
cont ribs
ĠKing dom
Reg arding
s es
Ġp ushing
Ġn ik
ig inal
ĠC han
Ġmag azine
Act ually
A C
O I
S D
g han
Ġs ides
Ġw in
ĠW elcome
ĠS oc
ol a
ĠD ay
ĠU krain
pt ions
Ġlist en
Ġacc ident
Ġcit ing
ĠAmeric ans
Ġeduc ation
e ven
z en
Ġf ans
Ġl ock
Ġj ump
Ġtalk page
Ġpre cise
Ġopen ing
ĠME X
; ""
i ers
r ass
ĠWh ite
Ġstud ies
St op
Ġanal ysis
in ing
ear ch
Ġview point
Ġmis under
Ġcomplain t
Ġdam n
Ġfund ament
Ġ >
Ġw ikiped
Ġto m
Ġwor st
os h
m it
ed eral
al i
he red
Ġident ity
AND AL
ĠMEX ICANS
R em
or ough
ĠP ark
Ġun able
Ġv oice
Ġcrit ical
Ġprop ose
Ġquot ed
Ġfore ign
ĠWest ern
Ġinflu ence
Ġvers ions
g n
Ġh at
Ġr ap
ĠAN Y
oun ced
Ġpers pective
Ġharass ment
Ġancest ry
Ġnik ko
r s
ĠS u
ĠK eep
Ġbr ain
Ġcol lect
IS H
Ġdel iber
Ġmark et
Ġblat ant
P h
â Ļ
se ud
Ġse mi
et te
Ġr ound
ra q
Ġpe ace
Ġimp ossible
hing ton
Ġaw ard
Ġappl ied
D id
ĠP H
oll ocks
Ġvandal izing
Ġver ified
Ġwrit er
ĠComm ons
Ġevent ually
Ġmet al
gy pt
Ġp lenty
Ġst ation
ĠB o
ĠM at
Ġmy th
Ġread s
Ġinv ent
vious ly
Ġmot iv
Ġgramm ar
) ?
F rom
f a
Ġr ate
Ġla ugh
Ġarbit ration
Ġignor ant
W N
ul ated
cus sion
ĠDe c
6 4
N POV
is k
ĠB en
let ed
ĠâĢ ĺ
Ġauth ors
TH E
ĠRuss ia
ĠOb ama
Ġfeed back
Ġconspir acy
I E
Ġp ussy
ist ent
ĠR ober
end s
cur ity
ĠEmp ire
ĠT om
im in
ĠR o
Ġpo ll
Ġplay er
Ġcol lege
Ġeng age
Ġcare fully
Ġdom ain
Ġn aming
id a
Ġpro ced
Ġsy mbol
Ġmin im
Ġregard less
Ġnigg as
5 3
p ic
Ġl ives
am s
ĠĊ Ġ
Ġstud ent
ĠIsrael i
0 4
s ub
u a
ar ticle
Ġl ol
Ġl ower
ver se
ri v
Ġk ing
Ġint egr
Ġ3 1
ĠPol ish
Ġbeg in
Ġrespons ible
on ic
on ment
ĠB ig
Ġcont rary
Ġhe art
iv ity
Ġrem ind
Ġpl ot
Ġexpand ed
Jew ish
Ġcommer cial
Ġm id
ĠI R
as p
he rent
ous ly
Ġpolit ics
Ġpres ident
ĠLA W
6 5
A dd
U E
v i
Ġ Î
ĠI F
Ġcre dit
ĠTr ans
Ġachie ve
Ġsoft ware
N e
in f
al t
ĠM ed
Ġread y
ribut ions
ann ing
Ġcr im
ĠPol ic
ĠHA VE
ed u
an cial
Ġd raft
ĠS O
ac cept
istrat ors
Ġcomprom ise
Ġin comp
Ġre vers
ĠT ALK
Ġimp ression
Ġcontin ues
Ġplay ers
Ġtroll ing
Ste ve
u u
Ġ 00
Ġspec ify
Ġsex Sex
ĠIntern ational
om as
st on
Ġst range
Ġrem arks
Ġreg ular
Ġcur ious
Ġimpro ved
Ġlog o
Ġattempt ing
Ġeng lish
por ary
rim inal
Ġbelief s
7 6
w in
ĠA ir
ver sion
ir gin
ĠN E
ort ion
ire ction
ĠĠĠĠ Ċ
ograph ical
Ġopp ortun
Ġrepe at
Ġ; )
Ġprinc ip
Ġconvers ation
f rom
v o
ing ly
Ġst ar
ĠC ON
ĠB ro
Ġint ro
Ġcontribut ed
ĠSp anish
Ġturn ed
Ġcred ible
s ch
on est
ĠV ANDAL
Ġattack ed
Ġident ify
7 0
le ments
Ġan t
ĠF ound
âĢ İ
ĠAr my
Ġadv ance
AS E
Ġschool s
iet y
Americ an
e th
Ġsu ff
let ter
ĠO ff
Ġro om
idd en
ĠWH AT
ĠCol lege
Ġspl it
a ur
y p
Ġl ived
Ġe gg
Ġam b
ast e
ĠRe quest
OL E
Ġ8 6
ffic ial
Ġnat ural
R es
Ġev il
Ġhand s
Ġhistor ians
Ġnecess arily
ester day
Ġtre ated
+ +
f ield
ĠA nn
ĠC ur
Ġcons erv
Ġattack ing
Ġliter ature
Ġf ear
Ġl oss
ĠB ul
ĠP ak
ĠK N
the re
ĠUn ion
wh y
Ġcorrect ed
rep resent
Ġindust ry
W ith
Ġ Ã
Ġb ill
ĠI raq
ĠW E
ro vers
Ġha ir
ĠR ock
ĠE arth
oc racy
Ġneutral ity
Ġhold er
ocrat ic
0 2
5 2
L F
f D
Ġm al
if orn
ĠC oun
Ġsh ut
ul a
Ġvi ole
ĠGo vern
ĠAt t
Do es
Ġhom osexual
stit ution
I m
S he
ĠE v
la h
ire s
ĠAn th
uk e
AHAHAHAH AHAHAHAH
Ġce le
Ġalle ged
l ation
ĠI D
ol ved
ĠM art
ĠE r
ov ing
Ġtechn ical
P IN
Ġf asc
ic ro
ar c
ist ry
ri or
rib e
Ġdif ferences
Ġinst it
ĠUn fortunately
Ġequ al
Ġchalle ng
Ġexc use
e lete
p re
Ġh our
ĠG ET
Ġhope fully
Ġagree ment
Ġpass ed
Ġencour age
ĠCro at
Ġalt ered
8 6
R ep
Ġdis g
ĠRe view
Âł Âł
Ġeditor ial
Ġdem and
Ġunc lear
Ġphys ical
ĠRf C
C ould
i j
Ġp aged
ut ions
se ction
ĠCan adian
4 3
o on
it z
!! '
so ever
ub b
Ġimp act
Ġgr ad
Ġrew rite
Ok ay
H S
U ST
m as
v ices
Ġa verage
ĠB ull
Ġsour cing
Ġuse less
ran ch
lev ision
Ġpurp oses
Ġwait ing
Ġappl ies
Spe edy
ĠLAW DY
Ġpaged elete
M e
N A
l i
p ages
or por
ĠC riminal
ĠP ost
ĠR aj
Ġoff ice
Ġdec la
Ġargu ing
Ġlog ical
Ġprot est
U LL
ĠH itler
Ġcomp reh
Ġper man
ific ations
Ġem phas
Ġfight ing
Ad min
ĠWas hington
vir onment
Ġcrim inal
? "
M ain
d es
Ġh ot
Ġh ide
Ġd ia
Ġpro ceed
ĠJ er
Ġyourself go
ĠAN AL
Ġviol ations
amm ing
Y M
p ace
Ġsu itable
Ġrec all
Ġnotice board
Ġpublic ation
Ġcr ime
ĠOn ly
Ġnet work
iforn ia
ot ed
us ive
up lic
ber t
ĠK ILL
Ġind efin
ee k
Ġfil ms
ron ic
ĠWill iam
Ġalleg ations
. âĢĿ
M Y
O f
f lict
Ã ¡
ag er
ĠT AB
Ġv irt
Ġwhat soever
ound ing
Ġunder stood
Ġ200 0
ĠIn c
Ġsure ly
old id
Ġform al
Ġsc reen
Ar chive
aaaaaaaaaaaaaaaa aaaaaaaaaaaaaaaa
uyuyuyuyuyuyuyuy uyuyuyuyuyuyuyuy
nnnnnnnnnnnnnnnn nnnnnnnnnnnnnnnn
or se
Ġf ra
ĠP O
Ġshow ed
Ġsuggest s
Ġadv oc
Ġpat hetic
Ġtreat ment
ĠRf A
ĠSm ith
yyyyyyyyyyyyyyyy yyyyyyyyyyyyyyyy
Ġbecom ing
Ġ ult
it led
Ġh ence
rit ic
Ġgr ow
Ġgr and
Ġsp irit
Ġbl ue
How ever
Ġrespond ed
ĠAustral ian
Request s
Ġexplicit ly
8 7
L ook
N ote
Ġs ake
or ter
Ġe lection
Ġr out
all ing
orn ing
Ġobject ion
rodu ction
Ġassum ing
ĠTurk ish
tytytytytytytyty tytytytytytytyty
Ġunne cessary
j ud
Ġ lying
Ġfor th
ĠB rad
ĠN Y
ĠTh ose
Ġbecom es
Ġreve al
8 9
Ġst e
ian o
ĠRe ad
Ġstop ped
ĠWik imedia
Ġinaccur ate
N OT
r h
Ġp iss
Ġd ro
as tern
he less
ik h
ust om
ĠN ov
ĠWh ich
ĠIn stead
Wh ile
Ġmis s
Ġbro ken
Ġdam age
Ġcitiz ens
A K
W H
b n
d el
n ames
Ġp ull
ĠL OS
ĠE D
Ġro ll
Ġsystem s
ĠComm ittee
Ġcock s
Ġhyp oc
Ġhundred s
ĠCour t
ĠS al
Ġcomp ared
clud ed
Ġob tain
Ġcit ies
Ġstr ict
Ġlearn ed
ĠOn ce
ro l
ĠS at
ĠC le
ra ce
Th en
Ġser ve
Ġreport ing
SE LF
Ġill ustr
FD L
Ġslight ly
n s
re ly
Ġfor ces
Ġwere n
Ġacc use
Ġspec ies
Ġexist ed
ĠQ ue
Ġcar ry
Ġart ist
Ġliber al
ĠFurther more
G O
c ious
k i
Ġm ale
Ġar my
ĠN AME
com pl
ib al
cyclop edia
angu age
Ġ7 0
Ġlar ger
Ġexpect ed
Ġvot es
Ġinn oc
T r
v ention
w ing
Â ´
se y
ĠP ress
os n
clud e
ON E
ann ed
Ġgreat er
Ġhead ing
Ġparagraph s
Ġbu ilt
Ġdocu ments
ĠGe org
ĠJim bo
h and
Ġsh ame
ĠAn other
Ġend ed
Ġrest rict
Ġconst ruct
Ġcult ural
Ġcou pled
Ġconv in
Ġsong s
Ġtom orrow
Ġy esterday
Ġit em
un te
ĠR S
Ġj ew
ĠO FF
!!!! !!!
os en
iz es
Ġnew com
av es
Ġlearn ing
Ġlar gest
CRAPCRAPCRAPCRAP CRAPCRAPCRAPCRAP
Ġimag ine
b b
u it
Ð µ
Ġsu p
em it
ĠTh us
Ġaccur acy
Ġunc ivil
Ġactiv ity
Ġinit ial
I nt
r or
u ate
x y
Ċ ĠĠĠ
Ġo il
ar b
ĠG reen
Ġfa ult
Ġimp lement
ature d
Ġviol ating
Ġsl ow
Ġaccus ation
Ġunf air
orth y
const ructive
Ġasser tion
G OT
H E
H an
O C
l ig
it ness
Ġc atch
Ġp seud
Ġn ative
Ġon to
ĠA T
ĠA ccording
am ple
ĠM or
Ġun iversity
Ġche m
Ġinterest s
ĠDI D
Ġredirect s
Ġactiv ities
S c
p lease
w atch
Ġf ood
el lect
ĠL ib
ĠE gypt
ĠJ ones
Ġform s
Ġ4 0
Ġorgan izations
ĠSc ott
Ġfav our
ĠChristian ity
T ER
U L
b ury
n ight
v is
an cy
Ġto ler
Ġon going
ut ch
Ġus ual
Ġme chan
Ġun ivers
Ġimprove ment
Ġâ Ļ
Ġterror ist
Ġtool s
Ġinvestig ation
ĠMuslim s
Sm all
b and
y es
ot o
ĠB unk
ul ate
ĠO k
ov es
Ġsur v
Ġproject s
Ġmed iation
ĠItal ian
accept able
ĠLOS ER
P r
f r
Ġb arnstar
Ġy a
Ġsh oot
Ġun ique
ap ter
Ġown er
Ġfeel ing
Ġrequest s
Ġâ ĺ
Ass ad
L e
h ar
Ġ ought
Ġb iz
Ġman age
Ġsign ed
Ġmain ly
18 1
Ġmist aken
ĠLI VE
Ġinsult ing
Ġsubm ission
ĠAfric a
ĠOther wise
p ub
v io
Ġ 01
Ġ zer
re view
Ġp ed
ĠA p
il ities
Ġbut ton
Ġno vel
Ġam az
Ġen sure
Ġsub sequ
ah a
Ġpl us
Ġlet ting
Ġ5 5
Ġap art
Ch rist
ĠSoc ial
m ar
t ies
Ġth orough
Ġb uy
ĠC opyright
ĠJ o
ĠU s
Ġobject ions
ĠAf ghan
Ġresol ve
ĠFr ance
u ine
Ġm outh
Ġf ast
al a
im ately
ĠR ob
iv al
Ġpeople s
ac c
Ġro ad
ok en
Ġfriend ly
ĠSw ed
Ġfem ale
9 8
f ort
p an
Ġ ''''
ĠP eter
Ġsu m
ĠD oc
Ġdis miss
Ġknow ing
Ġsumm ar
amp ions
ĠNor thern
Ġilleg al
5 1
v in
w ik
Ð ¸
Ġo ption
Ġd uplic
as y
ition ally
ĠAr t
Ġfree ly
Ġ9 0
Ġaccus ing
Ġcommon ly
Ġrecord s
0000 0000
Ġepis odes
Ġoppos ite
Ġconstit utes
Ġaspect s
ĠCriminal War
J ohn
h ic
Ġt im
it ar
ĠM il
od ay
ac ing
Ġcre ator
oc ide
org an
Ġcent ral
Ġlim it
Ġdeser ves
Ġbal ance
! ""
9 11
A fter
Ġas ide
Ġdis e
Ġam er
iz ard
Ġgen etic
ĠBunk Steve
B AG
c al
g ment
p et
Ġs we
ĠA FD
ĠM ad
Ġwe ak
rit ish
ĠK o
Ġacknow led
ĠCount y
V andalism
Ġs le
Ġm ach
Ġy eah
Ġg lobal
il er
ĠD Y
ra h
ser v
ĠTe chn
Ġformat ting
Ġrad io
n on
ĠS k
Ġst re
ain t
ri age
vent ions
Ġconv ention
Ġcens orship
Ġhonest ly
________ ________
Ġlik es
Ġinstruct ions
9 2
A gain
B N
in ian
if iability
ĠM el
ĠG FDL
com ing
ĠAr ch
az is
Ġdirect ed
SH IT
Ġimpl ies
hem at
) ""
9 7
A h
E n
O D
c is
c ific
Ġw ife
Ġh ol
ch ange
ĠF inally
Ġrem ark
ĠK h
Ġres ources
Ġsa fe
Ġfollow s
ĠAN ON
Ġbl ind
Ġallow s
Ġpur s
Ġlarge ly
Ġobser v
Ġregist ered
B I
L ONG
[ [
â ĨĴ
it or
or ks
ic ated
ĠB ush
and y
Ġjust ification
Ġch at
ict ed
Ġbi o
Ġconst antly
Ġfail s
Ġrespond ing
Ġdocument ed
Ġground s
Ġbull shit
S er
a uc
ou thern
ĠB C
ound s
Ġlink ing
Ġdes igned
Ġaddress es
e k
e qu
p adding
Ġt act
er d
Ġd ict
ag o
Ġg reen
Ġse ven
ĠB ible
ĠD ON
ĠJ ose
Ġsupport s
ahahahah ahahahah
ĠCOCKSUCK ING
ĠCal ifornia
ĠPH IL
7 2
c ore
op p
ound ed
ick en
Ġgen uine
IT E
air s
ĠQ uest
ĠChe ck
Ġunf ortunately
Ġscient ists
Ġclose ly
Ġter min
Ġlo ad
YM OUS
Ġ @
ĠA B
Ġv ague
Ġspe ll
ĠSt e
Ġcl ue
Ġmaterial s
200 6
Ġexcept ion
Ġrecogn ized
ĠGen eral
Ġsubstant ial
ĠKore an
Ġfol ks
ĠRober t
ĠANON YMOUS
Ġb are
Ġar ri
ĠS A
ĠD el
Ġpre p
Ġ200 1
Ġsc ript
ĠPro ject
Ġdevelop ed
Ġrecogn ize
Ġassist ance
m o
Ġt our
ic o
ĠT ry
Ġar rog
Ġcon clus
Ġex clus
Ġpre v
ob by
Ġold er
oun ce
LE ASE
ĠLI CK
Ġut ter
oca ust
E ng
c re
u ment
Ġof fered
he ther
ĠM ex
ĠE VER
ear s
the y
Ġexplain s
Ġ6 0
Ġlack ing
ĠFAG GOT
Ġphilosoph y
Ġzer o
ĠDY K
c alled
e es
Ġ {
Ġre action
ĠP oint
ĠM ac
Ġint end
ca p
Ġch ose
ĠSt ud
Ġprodu ction
bit ration
Ġequ iv
BL P
H ave
Ġd omin
"" "
Ġha ck
ĠS ar
ĠE s
OU R
ĠV ol
ĠChrist ians
Ġmark ed
Ġpromot ional
ĠPHIL IP
f l
i i
Ġd ang
id ay
Ġse cret
il ing
ill a
Ġpro hib
Ġv ast
Ġbr other
Ġ9 9
Ġdescrib ing
Ġfin ished
Ġworth y
Ġcell padding
WWWWWWWWWWWWWWWW WWWWWWWWWWWWWWWW
PIN ES
ĠPHILIP PINES
8 2
m ark
u able
Ġs outh
Ġm itt
Ġf ake
Ġd irection
ar io
tic s
ip l
ĠB oth
Ġedit ion
Ġk id
ann a
ograph ic
Ar ticle
ĠBrit ain
amm ad
Ġignor ance
1111111111111111 1111111111111111
ĠJe ff
Han ibal
Ġm ut
Ġfor ced
el ine
ect ion
ĠĠĠĠ ĠĠĠ
ac ity
// //
oth ers
UP ID
ĠPHILIPPINES LONG
W ow
l ook
Ġb urn
Ġh urt
Ġn ut
ĠB er
Ġex cellent
ĠL iber
Ġevery body
Ġprodu ced
Ġdisc our
LE T
Sh ould
Ġcandid ates
7 1
W ould
Ġd rug
ĠY et
ĠO VER
uth or
Ġwar rant
Ġappear ance
Ġins ide
Ġeng aged
Ġrecord ed
ĠST OP
Be cause
Ġreput ation
Ġrom ney
Ġopportun ity
h old
in ary
Ġre nder
ĠT im
Ġg raph
il m
Ġgen re
Ġred und
Ġchar ge
Ġoffic ially
Ġfin ancial
ani el
ĠIslam ic
ĠHind u
Ġ ).
Ġt ask
Ġd are
Ġcon vert
Ġst ories
ĠB et
ĠM er
ĠR FC
Ġbelie ved
Ġposs ibility
Ġadv ise
Ġpat tern
Ġbenef its
Ġess entially
ĠDep artment
B ot
D D
S P
Ġre act
Ġun acceptable
Ġen force
Ġcomment ary
Ġcol umn
Ġ8 0
Ġap ology
dit ions
thod ox
M ore
n ge
t es
re al
am ily
ĠP erson
ĠO ld
Ġhelp ed
Ġrel ation
Ġob sc
Ġviol ates
oint ed
Ġden y
Ġmass ive
Ġresol ved
Ġcandid ate
Ġvill age
8 1
d on
i ents
u gg
w an
Ġ '''
al m
ic ian
Ġre lev
Ġwh ore
ĠD ist
Ġal ter
Ġdis ruption
ĠV andalism
Th ese
Ġinc orpor
Ġtell s
ĠLat in
T A
T V
g ov
t ions
w ide
it ter
Ġc as
al y
um m
Ġup set
!!!! !!
os ition
ars h
Ġlead ing
Ġret arded
ĠPol and
irc raft
ĠGree ce
Ġterrit ory
ĠFound ation
8 4
C A
H istory
] ,
b ot
b ys
on ents
Ġd edic
ĠS cience
ist ration
Ġdis h
Ġvandal ized
Ġ7 1
Ġlead er
Ġattempt ed
ĠAss o
Ġdri ve
//// /
g ent
j a
u z
y l
Ġc ustom
Ġd ark
Ġl if
il ty
ĠH istor
Ġman ip
Ġco vers
Ġent itled
Ġhappen ing
Ġign oring
An other
Ġsk ills
ĠAnth ony
9 4
i os
Ġt ired
at ter
Ġto ward
Ġd yn
Ġst age
Ġint ellect
ident s
Ġlet ters
Ġrece ive
w ord
Ġc ru
Ġcon sequ
el f
use um
ĠU se
og ue
Ġdid nt
Ġinform ed
EN S
Ġwatch list
Ġnorm ally
Ġsatisf y
Ġdistin ction
Ġdetermin ed
. '
k j
v andalism
Ġt on
Ġm ad
Ġh its
Ġd irty
al in
Ġe lement
ĠB BC
ĠB TW
ĠD an
Ġex ec
ĠG l
Ġprom inent
Ġ0 2
Ġdisc overed
Ġproduct s
ught er
Ġphys ics
F OR
b ased
h y
k ins
Ġ ug
Ġl ingu
he y
ĠS ign
ĠN ob
Ġac compl
Ġen em
Ġen vironment
olog ies
Ġel imin
ĠUn less
ash ion
ĠYOUR SELF
Ġcompar ison
Ġp owers
Ġbe at
ĠT ex
pp ing
Ġpro se
Ġun w
ree k
Ġacc ord
Ġcrit ics
Ġreview ing
ĠDe f
Ġext ent
Ġhead s
Ġclar ification
Ġcred ibility
k ey
s uch
Ġp apers
Ġbe aut
ĠM ain
ĠR oyal
Ġimp ly
Ġover all
rat ulations
gr oup
Ġapolog ies
ĠAb out
Ġho ax
p uppets
ã ĥ
Ġb omb
en omen
ĠB ell
âĢ ¦
OU LD
Ġspec ifies
Ġconsider ation
sp ond
Ġindic ates
Ġequ ally
vil le
ĠCoun cil
Ġnewcom ers
F R
ĠS cient
if ul
ĠP o
ult ure
ĠIP s
Ġcol lection
inn er
ĠBr own
Ġvol unte
( (
c ation
v a
es h
he ll
ĠL ast
Ġapp arent
per ate
Ġdes k
Ġob s
Ġdef ine
Ġspec ulation
Ġmis represent
Ġtra vel
Ã ¼
â ĺ
Ġo m
ĠT ime
ĠS ub
Ġst aff
Ġme asure
ill ing
ak ed
ore s
ĠF ree
Ġun reliable
Ġr an
Ġwe ap
ĠK han
Ġ0 6
OCK S
oph ob
Ġra ise
Ġbot hered
ĠCent ral
Ġprinc iple
Ġunlike ly
Ġang ry
ĠRich ard
A m
F ile
Ġa st
it ect
ing er
ĠP ERS
ĠY TM
ĠR IGHT
um ber
ribut ion
Ġca pt
Ġopp ose
Ġpast e
Ġfin ish
Ġplan et
ĠRem ember
ANK ER
Ġcircum st
ĠYTM ND
6 1
p ersonal
s m
Ġin ser
Ġl ose
ip e
Ġst uck
ĠE ither
ĠJ ay
Ġcomp are
Ġco oper
less ly
Ġval uable
Ġarch ives
Ġeffect s
Ġmatch es
Ġrepl ied
9 6
H R
b log
b urg
c ision
h ist
k ing
o es
p han
p ng
Ġt a
Ġn av
"" ).
ro ject
Ġcon ventions
il ed
Ġab using
Ġk ids
ĠO ut
Ġact s
Ġbelie ves
Ġgreat ly
Ġabs urd
Ġnational ity
ĠSpe cial
Ġhop ing
ĠPers ian
r as
r ong
Ġw all
ic ation
Ġg un
!!!! !
Ġintrodu ced
":: ::::
EL ESS
ĠArb Com
ĠED IT
ĠT OM
ĠW al
ess ion
Ġph one
Ġfeel ings
OM E
Ġbig gest
Ġthreat ening
ĠFA C
Ġcateg or
Ġterror ism
Ġacknow ledge
ritic ism
W ill
w as
Ġh ur
Ġe lements
ĠW ind
ĠS en
se mb
ĠB as
ĠD ar
Ġr um
ĠL E
ĠL ove
rit ing
not able
Ġpos itions
ĠUS ELESS
Ġ0 3
Ġqual ify
Ġident ified
ĠSome one
Ġpres um
G E
r ast
y er
ce ived
ĠP et
ĠF air
ĠK urd
Ġvandal s
ach ed
Ġdist ingu
Ġoppos ition
Ġintellig ence
- )
b orn
i est
Ġ ip
Ġf rank
out ube
ĠB OT
ikip roject
ĠH ERE
Ġdes ire
Ġinv ited
Ġcit es
Ġviol ated
Ġassum ed
Ġprof ile
!!!!!!!!!!!!!!!!!!!!!!!!!!!!!!!!!!!!!!!!!!!!!!!!!!!!!!!!!!!!!!!! !!!!!!!!!!!!!!!!!!!!!!!!!!!!!!!!!!!!!!!!!!!!!!!!!!!!!!!!!!!!!!!!
ĠGovern ment
D S
u ild
Ġm orning
Ġf ringe
Ġd ub
ĠS ure
ĠP re
Ġab usive
Ġk ick
Ġjust ified
Ġ200 2
ath y
Ġthr ow
Ġte levision
Ġem b
Ġ7 6
Ġprom ise
Ġconst ant
oot ball
Ġdescrib es
Ġnotic es
che ck
ĠWH O
IM E
uh ammad
MM MM
6 2
7 3
Y I
in cluding
Ġb udd
an ing
ĠC D
nt il
ĠE X
Ġch osen
Ġsa les
LL OCKS
Ġref use
Ġprov es
Ġcare s
Ġcol on
Ġsubm itted
Ġinsert ed
ONG O
ĠTurk ey
bi ased
ĠMU ST
ĠSup er
ĠCommun ity
Ġviole nce
rh bys
A nt
I VE
L ove
P l
b a
b rew
g oogle
Ġf law
am an
ol ly
ur ies
Ġdef e
Ġent er
Ġexper ts
Ġhand le
outh ban
ĠLe ague
":: :
Ġled e
Ġsca le
rhbys outhban
rhbysouthban of
7 9
B G
ic ious
ĠA zer
st ein
un block
ul f
Ġv an
art ial
ĠK now
ER T
Ġper cent
Ġph enomen
Ġtri al
ĠAny one
":: ::
BL OCK
Ġfundament al
ĠPERS ON
ĠTOM MY
M ar
N T
a edia
Ġb ound
ĠW ANKER
ĠB ook
ur s
== =
Ġfr ustr
Ġtem per
BO LLOCKS
May be
Ġug ly
A pp
F urther
i ot
Ġw alk
Ġst alking
ĠC ap
Ġk n
Ġun known
Ġcons ult
ĠV al
ick et
Ġpr oud
Ġgot ten
ĠLI KE
ĠCUNT BAG
raz y
Ġamb ig
ĠBull shit
H OLE
N ational
Ġw ww
Ġg ang
ĠL ou
ĠE AT
ĠJ ul
olog ist
olog ists
Ġdirect ory
Ġansw ers
Ġmer it
200 7
ĠWH Y
Ġrac ism
Ġliter ally
ĠADMIN S
G e
m ind
s ourced
ĠA GA
ĠL ife
ab out
ĠK ar
Ġ6 8
Ġstat istics
Ġrepresent ed
Ġpres ence
Ġsw itch
Ġmov ies
stit ute
Ġlib el
Ġdi ag
ĠAGA IN
6 3
Q u
b ably
Ġn a
ĠB UM
ĠH am
oug ar
Ġch icken
Ġatt ract
ict ional
ĠRe v
ĠAs ia
Ġ0 4
Ġdist rict
ĠNe utral
Ġtrad itional
protect ed
Ġequiv alent
7 4
r ate
ĠE m
Ġchan nel
ĠSt reet
arn ing
Ġansw ered
Ġpromot ion
Ġrew ritten
Ġoccur red
Ġreject ed
Ġdeliber ately
ULL SHIT
Ġconclus ions
V D
b on
d ate
ed er
im port
Ġwith d
ĠB esides
ĠP en
ĠD iv
Ġun constructive
der n
ĠV an
Ġcomm itted
Ġstart s
Ġrequire ments
200 8
Not rhbysouthbanof
Ġadm itted
Ġla unch
Ġve hic
Ġfore ver
ĠAnt i
ĠChar les
Ġinnoc ent
l ast
Ñ Ģ
Ġp ic
Ġm ail
Ġd at
ĠB udd
ĠM ary
ink ing
ĠL ord
Ġtalk s
Ġcomment ed
Ġregard ed
Ġhigh est
Ġ0 5
Ġcriticism s
Ġpress ure
Ġfre quently
gress ive
Ġreput able
R AL
in v
in formation
Ġs ile
Ġc ougar
ag an
ĠB AN
Ġme at
Ġme as
ak s
oo oo
ĠF ox
Ġqu it
ĠCh ris
Ġsp oken
be cause
Ġfix ing
Ġpublish er
Ġchalle nge
. -
B lock
G u
I CK
j an
n ed
r ough
y ear
in der
Ġf ant
Ġh ang
om s
Ġit ems
ĠT utorial
ĠS ur
Ġcon ditions
Ġse c
est ed
Ġr isk
ep h
Ġch apter
Ġhad n
ĠYOU BOLLOCKS
Ġoff ended
Ġform ed
Ġca ught
OM IT
uc lear
Ġfail ure
Main Page
9 5
G en
S upport
T emplate
re ation
it arian
Ġm aps
ĠC amp
ard less
ĠTh omas
Ġrel atively
ĠIn f
ĠV OMIT
Ġdec ent
Ġpoor ly
Ġeconom ic
Ġannoy ing
ĠCong ress
Ġfac ilit
Ġdise ase
Ġredund ant
) )
u an
Ġc ore
al so
ag iar
ct r
ĠS ol
ĠS uch
ĠC OI
ĠB osn
ĠG old
ĠU p
OU T
Ġcontin uing
ok es
Ġclo ser
Ġopen ed
ĠLe g
Ġest im
Ġtechn ology
Ġinsult s
Ġbring ing
Ġmethod s
Ġprincip les
MainPage BG
8 3
in i
on ly
Ġb reed
Ġc ard
en ess
Ġd ictionary
"" ;
ĠW ork
ĠW AS
ĠP rop
Ġr at
ĠR am
ort ed
ĠE th
Ġqu e
Ġpoint less
Ġtrans fer
Ġart ists
Ġdistin ct
Ġwest ern
Ġfra ud
g ood
h ot
m ay
ed s
ĠA h
ĠW il
st ate
ig er
Ġsome time
ack s
Ġwhere as
Ġbr and
Ġsm art
Ġprim arily
Ġschol arly
Ġprefer red
ĠOb viously
ĠArmen ian
Ġprecise ly
ĠPak istan
l or
z y
Ġ //
Ġt ill
on a
Ġc ert
ad o
if iable
ĠH a
ĠO ur
Ġgo ld
gg iet
OV E
Ġhttp s
Ġconcern Thanks
Ġaff il
Ġmass ac
ĠIran ian
OOOO OOOO
Ġcorre spond
ggiet ales
A ccording
J PG
M er
d en
p ress
r r
Ã ¶
Ġs un
Ġb lo
Ġb esides
Ġd ude
ic ide
us iness
Ġar m
Ġat he
Ġover w
Ġsp ot
Ġ7 2
Ġext ensive
Ġve ggietales
Ġbal anced
Ġsuccess ful
Per haps
Ġcircumst ances
D r
u gu
Ð ½
ic ial
ag ged
ĠH i
ĠH uman
Ġad ult
Ġv ide
ĠN et
ra v
Ġsim pl
AN I
Ġco ordin
Ġwrit ers
not es
Ġem ot
Ġinc red
Ġnor th
Ġtyp ical
TH IS
ALL Y
ĠMus ic
ĠGr and
ĠĠĠĠĠĠĠĠĠĠĠĠĠĠĠĠ ĠĠĠĠĠĠĠĠĠĠĠĠĠĠĠĠ
Ġalbum s
Ġpun ish
Ġjudge ment
ĠTex as
B r
B ULLSHIT
is an
Ġn ick
Ġin j
ot a
ĠW izard
ĠE astern
Ġdoes nt
ĠâĢ İ
feren ced
Ġinform ative
Ġgu itar
Ġmis sion
ĠWe b
Ġ6 9
Ġkill ing
Ġmill ions
Ġer a
pd f
Ġdia lect
R A
S A
r ated
Ã Ń
Ġm urd
Ġl oves
ĠT or
ig an
ĠM A
Ġun iverse
Ġwe ird
let s
ĠE du
os lav
Ġwhen ever
Ġref s
Ġca uses
Ġpublic ations
Ġhistor ian
Ġsmall er
Ġteam s
Ġsockpuppet ry
ĠAct ually
Ġcal c
Ġlicens ed
ĠFran cis
Ġancestry Fuck
G et
h istory
en a
al though
ust ing
Ġun it
Ġev ident
ĠK e
ĠSt ill
oc al
Ġexp lo
14 4
ĠChrist mas
Ġquot ation
ĠSc ot
Ġrespons es
NN NN
Ġoccup ation
F L
T IC
W E
w orld
Ġa ircraft
Ġb ur
Ġb ank
ĠT y
ro s
Ġas h
ĠP art
ĠM iddle
ir ing
ĠR yan
Ġreason ably
Ġsp orts
Ġser vices
AS S
Ġclean up
Ġpriv ile
Ġcor por
ĠMore over
ĠKore a
Che ers
ĠMart in
S ock
b order
Ġ ly
it age
Ġc ow
Ġp ath
Ġp orn
om er
ĠP as
ĠP LEASE
ĠF ind
Ġj ustice
ra wn
Ġgu ilty
Ġfeel s
ĠTHE Y
In c
Ġmar riage
ĠASS HOLE
Se cond
Ġfre qu
Ġadvert ise
ĠCH E
Ġexpress ed
Ġselect ing
raz il
ĠVANDAL ISM
ampions hip
9 1
O OT
h ab
ic ed
Ġin cons
ĠS ant
ĠB oy
ĠM ah
Ġex er
ĠTh ree
Ġmo ves
Ġman aged
Ġmat hemat
av en
Ġproblem atic
Ġsc ope
Ġargu ed
Ġdefin itions
Ġtit led
Ġarch ived
Ġhear ing
Ġess ay
Ġpure ly
O pp
x x
Ġb ag
Ġc ensus
Ġan on
Ġre tain
Ġe mer
ĠT er
ĠT ur
ur ally
ĠG iven
um s
Ġpre ser
av y
Ġdec isions
az y
Ġstand ing
ES E
Ġkind ly
Ġ199 0
Ġtechn ically
Ġpromot ing
Ġincre ase
ĠPolic y
9 3
d a
n es
s a
Ġt ab
om y
Ġne igh
Ġr ail
ĠR on
Ġadd s
so ft
Ġpre ced
ph ab
Ġexp an
sp ace
Ġvar iety
Ġrespect ed
Ġsus pic
ĠCUNT S
Ġharass ing
Ġsubstant ially
ĠCOM P
ĠHope fully
Ġmix ed
Ab out
V e
Ġl iar
ut y
ĠA C
ĠW OR
ce ll
ĠS a
Ġst reet
Ġse ll
il st
ur u
ĠH ung
em porary
Ġqu ant
ĠK en
Ġown ed
Ġche ese
Ġlet s
Ġsc ene
12 3
ĠPro fess
ĠEx ternal
Ġfeature s
==== ====
Ġconform ance
1 01
I K
M any
R ight
it a
Ġc ivility
ĠM uhammad
ak a
Ġwho ever
Ġpre jud
Ġuser box
Ġref used
Ġhigh light
Ġbig ger
Ġpower ful
Ġmeet ing
Ġstep s
Ġheav ily
ĠSerb ian
Ġren amed
Ġlock ed
Ġconserv ative
B A
R ed
i at
o fficial
w est
Ñ ģ
ã Ĥ
Ġt utorial
Ġf iction
Ġd ial
ro ad
ĠS C
alk er
ĠU R
ca pe
Ġpre m
ĠV ery
Ġdef ending
ĠSo ciety
ok ing
Ġnomin ate
Ġcens or
Ġcontain ed
Ġtriv ial
ĠPO ST
k er
k eep
Ġw ont
ĠW ANT
ig ation
Ġsh ock
Ġun its
Ġsubject ive
Ġquestion able
Ġ4 8
DI E
Ġâ ĨĴ
Ġden ial
Ġnewsp apers
Ġdemonstr ate
ĠQue en
I ES
m et
ĠF ar
ER O
Ġpol ite
ĠV ict
Ġfuck in
ateg ories
Ġmar ried
Ġvot ed
ĠCent er
Ġexpan sion
J an
K eep
w en
Ġ \
on ent
Ġre b
ia ment
op her
Ġsu dd
ĠH en
Ġdelet ions
all ery
are r
Ġnow here
Ġcomm and
Ġwrit es
ug oslav
Ġdown load
ĠSh ow
Ġfil ed
Ġhar rass
Ġexplan ations
Ġra pe
Ġsk in
Ġreturn ed
ĠON E
Ġethnic ity
Ġlib rary
Ġlos er
Ġb ranch
Ġc razy
an oy
Ġf ashion
Ġo h
Ġar ms
Ġ( )
ĠC up
ĠB ay
Ġcont ract
og y
Ġrel ating
ĠIn ter
ru it
Ġaw ards
Ġlead s
Ġcent er
ĠFA CK
Ġconnect ed
Ġthous and
Ġintent ions
Ġheav y
Ġtrain ing
Ġproced ure
Ġconvin ced
Ġrelev ance
FOR M
H is
h is
u zz
u fact
Ġm ount
Ġf irm
im a
ĠS E
ĠC ENT
ist ed
ĠB attle
ĠP IE
Ġsh ip
Ġr ot
ĠO x
Ġpl at
Ġinv ite
Ġfound ed
oss ibly
ris on
Ġment al
Ġhyp oth
Ġchalleng ed
Admin istrators
N G
T F
p edia
Ġt ro
th esis
ĠC ivil
ĠP ublic
ak ers
Ġr ice
ĠU r
Ġbeh alf
Ġmem ory
ĠBe fore
Ġfr ame
ĠEn cyclopedia
ĠAfghan istan
ĠJose ph
Eng lish
Ġsudd en
B l
S R
Ċ ĠĠ
at ri
am i
ĠC at
ĠM em
ĠM ont
ĠD ie
ĠD utch
Ġvandal ising
ne utral
Ġher self
In f
Ġro y
Ġcr imes
Ġorgan isation
200 9
Ġaccur ately
Ġdiff s
Ġverif iability
reet ings
Ġintellig ent
ĠMet al
Ġcas ual
B ritish
P E
e ff
g arian
l ines
s im
u le
en cies
ic ago
ad min
Ġ"" ...
ĠM att
Ġwas ting
ĠF L
ĠF ore
ĠJ oe
Ġser ved
Ġ7 5
ren ce
Ġsur r
Ġpie ces
ĠAc adem
Ġsole ly
Ġdedic ated
HR HS
D E
y e
re ens
an o
om p
ĠM ONGO
el ly
Ġtr ade
Ġgr anted
Ġunt r
Ġmin ute
Ġkind s
Ġallow ing
Ġfl ow
uss ian
Ġimprove ments
Ġocc asion
Ġhon or
Ġtable s
war ring
ĠMacedon ia
ĠJack son
Ġintegr ity
Ġfacilit ate
M ANN
S C
c laim
m us
re f
Ġm aster
Ġn om
Ġg ross
ĠB ur
ĠB OB
ill er
oc ol
Ġgen ocide
Ġreal ise
Ġconc ent
ĠLe ban
ĠUN BLOCK
OB ERT
ĠMacedon ian
ĠKN OW
C au
Y Y
u ated
Ã ³
ĠT E
ĠA v
im ents
ig ious
un ic
ĠC oll
ĠF act
Ġbut t
ĠY ear
ĠR ad
ab s
od d
Ġtr ick
Ġob lig
Ġown ership
AN ISH
Ġbr ow
Ġ0 8
22 2
Ġindic ated
Ġhistor ic
Not ability
ĠHar ry
Ġconstit ution
Ġvictim s
IRE D
Ġintellect ual
Ġaccord ance
G reat
Ñ Ĥ
Ġm ate
Ġnot ification
ia h
ĠS AG
Ġse curity
ĠP M
Ġpro ved
Ġoff ense
OR N
14 1
Ġtransl ated
ĠCl ub
ĠSP ANISH
ĠMc C
ĠCOM M
Ġhor se
UU UU
pub lished
S O
d ated
i ently
w s
Ġa Re
ed d
en sion
ad or
Ġde em
ĠB al
ĠB ack
ĠM ass
il a
ĠF GG
ĠN at
art ed
ĠU LL
ST UPID
mm m
Ġbl ame
Ġsy mp
ĠIS BN
Ġproper ty
AR D
Ġassum ption
Ġsol ve
Ġspeak s
Ġintrodu ce
Ġfoot note
Be Cau
Ġvot ing
ĠGO D
Ġcond ition
ĠAsso ciation
ĠFGG T
BeCau Se
. âĢĶ
ot es
Ġis nt
Ġal ot
Ġhe ight
ĠO per
ale m
Ġprom pt
Ġdeal t
Is rael
Ġmed ic
ĠFuck ing
ĠInt roduction
ĠAR TIC
Ġanim als
ĠTw o
ĠBrad bury
Ġobsc ure
ĠCENT RAL
ĠSAG ET
ĠULL MANN
p art
Ġre in
Ġe la
ĠA G
ik a
ad ed
ĠP an
il arly
ab al
Ġrep ublic
ah oo
Ġpr ison
Ġreal ized
Ġend s
Ġinvol ving
Ġtest ing
Ġdisc rim
Ġmer ging
ĠGr oup
Ġsubm it
SH UT
Ġselect ed
ĠDE LET
Ġgirl s
Ġcele br
del anoy
! "
B est
G B
M us
a fter
h ost
k in
Ċ ĠĠĠĠĠĠĠĠ
Ġb ollocks
Ġe ast
Ġfor g
ĠB h
ĠB ob
ĠH all
Ġr ational
rit ical
RE AT
Ġver b
Ġiss ued
ĠHe ad
Ġgreat est
Ġcontro lled
AR T
Ġhum ans
ĠCon flict
urope an
Ġeffect ive
Ġden ied
Ġjo ined
Ġpot entially
Ġperform ance
Ġanim al
MA O
Ġinvent ed
Ġacknowled ged
A CH
E l
P rop
U nder
p op
r id
r ich
r ics
Ġs ir
Ġw ing
Ġp ra
Ġm ir
Ġm um
om a
Ġe arn
ĠS ir
Ġcon g
Ġcon ven
ĠM ess
ĠU ntil
Ġpl anning
ĠRe al
Ġaddress ing
Ġsecond s
ĠBe at
Ġsur vey
Ġshit Fuck
Ġquot ing
Ġrepresent s
Ġfill ed
Ġwikiped ians
Ġoverw hel
H appy
O ther
c rip
j o
n i
r idge
Ġw ild
Ġc ook
Ġp an
Ġh idden
ĠA THE
ver tical
ĠH ill
Ġun related
Ġun biased
Ġj ack
Ġfact ually
Ġover view
IN T
Ġpar am
ĠDe ath
Ġstr ateg
iss ions
Ġauthor ities
Ġpolit ically
Ġpass age
ĠDis ney
Ġaud io
ĠPalest inian
aph r
3333 3333
Ġminim um
ĠPIE CE
ĠATHE IST
C ons
M S
R el
c at
l ife
r ome
u ations
or a
Ġo pt
Ġre form
Ġg as
ĠP op
ĠE p
pl ain
Ġgo als
Ġmo b
od ies
ens ed
Ġsp amming
Ġsc rew
Al though
Ġadministrat ive
ĠCon stitution
Ġund ue
Ġrac ial
spe cific
Ġdrop down
Ġsold iers
rovers ial
Ġindefin itely
arb age
ĠCENTRAL IST
A RE
A IDS
E very
O G
P H
Ġc la
es ome
Ġd ream
Ġn ations
ot ic
ĠA ra
ĠW AL
Ġha z
ay ing
ĠP ut
ĠH aw
ĠF in
ĠD C
ure auc
Ġres ist
ĠV irgin
Ġpl agiar
Ġpost er
Ġem bar
Ġexp ression
Ġca using
Ġext ended
Ġ0 9
ĠGerm ans
Ġnews letter
ĠST ILL
Ġincre asing
ĠBel ow
Ġdecl ined
ĠFre quently
Ġattribut ed
Ġsubsequ ent
ĠKo so
Ġsle ep
ĠCENTRALIST STUPID
P P
T e
a ism
d ef
Ġs en
Ġf ederal
ĠW i
ĠS ource
ch er
Ġse qu
Ġr ough
ĠN ight
pe ople
Ġj u
ĠO s
Ġchild ish
ourn als
ĠCont ribs
ĠRes earch
Ġassess ment
emit ic
Ġvide os
FORM ATION
A g
S im
Ġto e
id el
st ant
ri al
ĠN othing
um ing
!!!!!!!! !!!!
Ġdec ades
ĠSo ck
Ġca ption
Ġchar ges
Ġmus lim
iab ly
Ġproduct ive
ĠON LY
ĠAdd itionally
Ġpuppet ry
Ġdistingu ish
Ġfrank ly
Ġdub ious
I AN
M ost
T w
l t
m ir
Ġt ree
is er
Ġc art
im al
ĠB A
ĠB aby
ĠN ick
iv a
Ġtalk ed
Ġres ource
per ial
ass ing
Ġrel ative
AT OR
ĠAnd rew
Ġbi ographical
Ġgot ta
Ġclo sing
Ġthreat ened
ĠCl ass
Ġter rible
Ġremain ing
Ġidi ots
rest ling
Ġdog s
HH HH
Ġtriv ia
Ġarrog ant
ĠDist rict
O b
o ch
p erson
Ġ ic
Ġ ..
Ġb aby
Ġf ell
ly mp
Ġe g
ut ing
ĠW R
ĠN eed
ĠJ IM
Ġfa b
ĠU TC
Ġtr ip
ĠCh icago
Ġtext s
Ġfigure d
ĠPr ot
Ġhy per
Ġcommunic ation
Ġsan ction
C han
f riend
Ġbe ar
ik es
Ġst ring
ĠB razil
ĠM ike
ĠM ove
ĠF ace
Ġj erk
RE E
Ġgen der
ĠHe brew
Ġsupport ers
Ġbad ly
sp acing
Ġcommun ist
Ġtyp ing
Ġmeaning ful
Ġschol ar
Ġconstit ute
Ġforum s
ĠFR OM
Ġdecla red
N HRHS
b our
i y
s ign
Ċ ĠĊ
Ġc orn
ar ry
as sion
Ġre version
Ġe ight
th anks
Ġar rest
Ġex cess
ĠThe ir
ĠR et
ism s
rat s
rat ive
Ġfl ight
ĠIN FORMATION
Ġspeak ers
Ġappro ved
Ġconv ince
ĠEdit ing
Ġdisplay ed
Ġamaz ing
Opp ose
K K
S ure
h l
Î ±
Ġ Å
ĠD aniel
ust ration
Ġv en
ĠY ugoslav
Ġdis s
ĠJ ournal
ĊĊ ĠĊ
vert heless
Ġreferen cing
Ġspec ul
ug s
Ġ0 7
ĠPro v
Ġcent uries
Ġturn s
Ġdocument ation
Ġtroll s
Ġconcept s
Ġoper ation
tr ans
Ġapplic ation
ĠComp any
C ur
g or
Ġ !!!
at ers
Ġp ig
Ġre inst
ut ive
ĠS l
Ġdo ll
ĠP S
edit ing
ĠF IRED
Ġad equ
ĠN ame
ĠN OW
âĢ ľ
are n
Ġman ufact
Ġadmin istration
ru gg
az z
AL T
Ġinter act
Ġsock puppets
Ġpass ing
Ġarch itect
Ġhold ing
Ġappro x
Ġlevel s
ANN ON
Ġprint ed
ĠLib rary
ĠSte ve
Ġdish onest
ĠWAL ES
P IC
Ġ <
Ġ ~~~~
Ġnot ion
ĠW ay
ĠC ast
ĠB ang
Ġsu it
and on
ĠN on
Ġcom fort
ĠE V
la b
ĠO UT
con f
Ġpar aphr
Ġco inc
ĠIs land
ĠSp ain
Ġâ ľ
Ġbre aking
ĠSH ANNON
Ġcomplain ts
Ġ198 0
ĠSy stem
Ġobtain ed
p arty
w a
Ġw itness
ic ians
Ġis land
ĠA ward
ĠC R
Ġde ar
ĠB a
ĠP receding
ri ve
ĠD irect
ĠR FA
ĠR iver
ie ve
ĠL ong
ĠO p
Ġev al
Ġinv al
AHAH AH
Ġintern al
Ġthreat en
Ġstub s
Ġimm ig
ĠPort al
Ġdestroy ed
Ð¾ Ð
FFFF FF
Ġvirt ually
ĠOx ford
Ġela bor
l s
z ech
Ġs om
er o
Ġp ack
ĠH y
ĠF at
ĠF ire
ĠD VD
ĠY eah
Ġcont rast
ab b
ĠV iet
av a
Ġdif fer
Ġreg ret
Ġco ld
http s
12 9
Ġstat s
Ġdisagree ment
Ġelect ions
Ġpublish ing
Ġtrad ition
Ġsal ute
ĠSerb ia
Ġnar row
ĠIR C
Ġmach ine
= )
M a
M r
m ain
p olit
Ġw anna
Ġc rack
Ġf ictional
ĠP C
ĠM s
ĠM ur
ĊĊ ĠĠ
ile y
Ġpla cing
Ġreg ional
erest ing
ran e
az on
Ġsc r
Ġbr own
Ġdist urb
Ġdisc red
res pect
ĠNot ability
ĠPol it
Ġperm itted
ĠBl ue
Ġda ily
Ġmisunder standing
Ġroll back
B ollocks
F E
S I
b ie
h op
n am
Ġs ister
Ġw p
ĠI II
ĠS on
un ny
ĠH as
Ġun just
Ġal phab
ĠL og
ĠE U
Ġres er
ord ers
Ġ3 00
Ġser ves
Ġview ed
Ġend orse
Ġadv ant
Ġdirect or
Ġdist ance
Ġdisc over
rodu ct
âĢĿ .
TH ING
ĠPr ince
enn is
Ġrespons ibility
ĠIM O
Ġredu ce
ĠHol ocaust
Ġball s
C ol
u ity
Ġthe ore
Ġs land
us alem
Ġg arbage
st op
ĠC IA
ĠM en
Ġso ci
Ġpo v
ĠL ee
ĠL MAO
uck s
Wh ich
Âł Ġ
Ġmis con
Ġorig ins
Ġbro ke
Ġrecogn ition
Ġfocus ed
Ġencour aged
Ġda ughter
Ġcal m
Cl ass
Ġinstit ution
N on
b ai
f ull
h ouse
r ont
u is
Ġt iny
ou che
en der
Ġp unk
Ġp adding
Ġo ptions
ic ans
ar ant
"" ...
ag ain
ĠW ood
ĠD ick
ĠD ark
Ġby tes
ĠJ UST
ian a
Ġact or
Ġsub t
Ġmat h
ail s
Ġsp ort
Ġevery where
Ġdef ense
ee ee
ash ed
Ġsort s
Ġredirect ed
Ġtransl ate
Ġlim its
Ġassoci ation
Some one
Ġemphas is
Ġprep ared
n os
Ġw ise
al se
ĠW atch
ĠC are
ĠM S
ĠH aving
um mer
Ġwant ing
Ġman ual
ĠĠĠĠ ĠĠ
11 4
ib l
ĠAs ian
ature s
Ġcorrect ing
Ġval ues
Ġann ounced
ĠPl us
sk i
ĠCOM E
Ġdemonstr ated
Ġdeep ly
Ed gar
Ġrare ly
ĠUkrain e
Christ ian
Sock puppet
c ript
at o
Ġb reat
Ġo vert
Ġin line
Ġl azy
ĠT able
Ġfor b
ay a
ĠB Y
ĠB ad
ĠF amily
ĠD en
ĠG uy
ĠO l
pt y
Ġch ron
Ġcomment ing
ĠIn stitute
Ġent ity
Ġcorrect ions
ang er
Ġinter vention
Ġcol le
Ġext rem
Ġmer its
Ġaut om
Ġmor al
Ġcar ried
Ġsuc ceed
Ġprofess ion
ĠRepublic an
Ġblog s
link s
ĠWW E
M on
S ch
p o
r ick
y outube
Ġ ....
Ġ upp
er ies
ll a
ĠT ony
ĠM iss
ĠN one
Ġal ive
ra ction
Ġout right
rib es
int on
Ġsc en
att ed
Ġocc as
Ġmod ified
Ġdr ama
Ġmeant ime
Ġoppos ing
De letion
Ġboy s
ĠAlban ian
Ġstre ngth
G r
c ount
d r
g h
p arent
u er
re c
at i
ed al
Ġp ump
Ġf ought
Ġn asty
ot ing
ot al
im p
he me
se m
ol ar
ĠN ations
Ġdis reg
ice board
Ġback ed
Ġdef am
Ġ| |
by e
200 5
ĠComm on
Ġmus ical
ĠDO WN
Ġapolog ise
uous ly
iven ess
Ġpet ty
iqu es
Ġdro pped
ĠLou is
U K
on der
it ative
Ġc ro
ĠI d
ar re
ĠT oday
ĠP E
ra c
ĠL in
ard ian
Ġout come
Ġcomp leted
ph a
av is
Ġ5 00
Ġrequire ment
Ġhum or
Ġeng aging
Ġnational ist
Ġ199 9
Ġsignificant ly
Ġreflect s
cons ider
Ġtown s
Ġseek ing
Ġrevers ions
ubb ish
Ġtact ics
Ġplat form
Ġroy al
E ven
h as
m and
y m
Ġc os
Ġn uclear
ĠT a
ĠT re
Ġg ather
Ġst raw
out s
ĠP ri
Ġle ct
ac ob
Ġfact or
Ġfe et
Ġreg ularly
Ġher o
Re ad
19 2
Ġauth ent
Ġpract ices
Ġparticip ation
???? ????
Ġfavor ite
Ġpick ed
ĠArab ic
ĠItal y
Ġredu ced
Ġadop ted
M C
P O
c oh
Ġ !!
Ġb ully
ar ticles
ĠC SD
ĠB at
ĠH ell
ĠD un
ra ham
ĠO tt
ĠTh ough
ribut e
ĠDo ing
Ġlead ers
Ġpret end
Ġaut ob
Ġqual ified
Ġcompl icated
Ġrun s
Ġrev isions
Ġupd ating
Ġcap acity
ĠGree ks
Ġrece iving
IST R
ĠPl ay
Ġport ion
Ġ197 0
Ġhor rible
ĠNE VER
. (
P ar
g if
o il
s ince
s ource
Ġf lo
ion ist
ch ar
Ġse vere
ĠM ilitary
ĠM icro
il ater
ill ed
ur a
Ġv ac
Ġso vere
Ġle ague
ĠO ver
ab led
form ed
Ġper ceived
ĠV ER
ĠAr bitration
rent ly
Ġencyclop aedia
Ġend ing
Ġstr ike
16 8
Ġobject s
ĠFA CT
ĠRE AD
Ġpromot ed
Com ment
Ġur ge
Ġrecomm ended
Ġwik il
ĠSecond ly
Che ck
ĠDR INK
Ġstrict ly
Ġbeaut iful
Ġhypoth esis
Ġfab ric
Ã ¤
on ian
Ġs ight
at us
at ically
Ġn azi
as el
Ġg lo
ĠW hether
th en
ĠB re
ir y
ĠF red
Ġun us
Ġac qu
ab ase
Ġatt end
Ġcomm ons
22 9
Ġident ical
Ġsupposed ly
Ġpers ist
Ġconsist ency
Ġ; -)
Ġinit ially
ĠMin ister
Ġsett led
ĠBul garian
ĠCHE ESE
Ġmedic ine
L C
V er
b ag
d og
r age
Ġa x
ĠI ll
ut s
un ction
ĠP ot
qu ette
Ġj ournals
ĠE nd
ong ol
act ive
arch ive
Ġreg ions
ont o
wh ite
Ġcol our
Ġcol ors
Ġ8 2
ĠFe atured
to gether
25 0
Ġmeaning less
Ġce ase
Ġeconom y
ĠApp arently
Ġwind ow
ĠVict or
Ġoverwhel ming
A f
W as
Ġb ed
Ġp ending
ic ations
ĠA g
ia ms
ĠB LE
ĠP ower
ĠM ount
ill age
ĠH oly
ĠThe ory
ĠJ on
ĠO pen
Ġag rees
Ġgr owing
Ġpl ant
Ġpr ice
Ġent ertain
ale nd
Ġdesc end
Ġfound er
Ġcount s
AH H
ok ed
Ġ9 000
Ġoffic er
AA A
ĠReg arding
Ġaccording ly
EE P
ĠWith out
Ġprogram s
Ġfem in
Ġapplic able
Ġlicens ing
Ġcompreh ensive
ĠEVER Y
phan ed
Ġvehic le
D avid
U SE
k h
r us
w orks
Ġw el
Ġw inning
Ġb ureauc
es y
ar ter
ĠF a
ĠD ave
ĠN azis
ĠL y
Ġle aves
ĠV iew
Ġcomm ittee
Ġreg ister
Ġcontent ious
Ġinst ances
It s
Ġhead er
Ġindic ation
Ġdep th
201 2
Ġrepresent ative
ev in
Ġfre sh
Ġprofess or
Ġamount s
Ġteach er
Ġcorre ction
Ġbul lying
ĠUkrain ian
aaaaaaaaaaaaaaaaaaaaaaaaaaaaaaaa aaaaaaaaaaaaaaaaaaaaaaaaaaaaaaaa
uyuyuyuyuyuyuyuyuyuyuyuyuyuyuyuy uyuyuyuyuyuyuyuyuyuyuyuyuyuyuyuy
nnnnnnnnnnnnnnnnnnnnnnnnnnnnnnnn nnnnnnnnnnnnnnnnnnnnnnnnnnnnnnnn
yyyyyyyyyyyyyyyyyyyyyyyyyyyyyyyy yyyyyyyyyyyyyyyyyyyyyyyyyyyyyyyy
Ġinser ting
ĠHen ry
B TW
N ice
id ering
ere r
Ġst ance
ĠC a
ĠB R
Ġdo zen
ĠH an
ĠH ence
Ġsh ape
ĠN ext
ĠE lect
rit er
... )
Ġper pet
Ġsp in
Ġcle arer
arch y
Ġbit s
19 5
Ġide ology
Ġ[ ]
14 6
Ġtri es
13 0
Ġpat ience
Ġhold s
ĠSer iously
Ġport ray
Ġemp ire
Ġperform ed
Ġjoin ing
Ġjournal ist
tytytytytytytytytytytytytytytyty tytytytytytytytytytytytytytytyty
L OL
M edia
R TR
or iginal
Ġh omin
ĠI ss
ro om
th rop
ĠS ikh
ĠS OME
ĠC la
ĠH ome
Ġr ant
let ing
ĠR ome
ie v
ov al
AN H
wh en
ĠBe ing
Ġnomin ations
Ġsearch ing
Ġdescrip tions
Ġweek end
Ġconflict s
Com m
Ġder ived
Pe RTR
Im ages
Ġperman ent
ĠGeorg ia
ugu ese
ĠScot land
ĠWi LL
I B
b ul
b ush
d s
l anguage
s is
Ø §
Ġa h
is c
le ad
Ġp uppets
ic ient
Ġin herent
ent h
ĠS ah
Ġse perate
ĠB ank
Ġk idd
Ġex hib
ess ed
ac ific
Re ferences
Ġguid ance
pr us
Ġkind a
ĠSe ems
Ġfl u
Ġpublic ly
ĠOr thodox
Ġdep end
ogn ise
Ġmembers hip
Ġsubst it
ĠEdit or
inst ein
Pe ople
Ġrul ed
Ġmanage ment
Ġaccompl ish
ANH ERO
C le
i ography
r ants
Ä ±
Ð º
or al
Ġb tw
Ġp il
Ġm ax
es pecially
Ġn erd
ĠW olf
ĠS lo
Ġdo ctor
il s
Ġcont emporary
ĠR ick
ĠR OBERT
Ġag gressive
art s
ĠTh ird
ac he
Ġrel iability
ĠĠĊ Ġ
Ġsc heme
Ġadv ised
20 11
ahah a
Ġworth less
cont ent
Ġvalid ity
Ġclean ing
US H
Ġfall s
ĠADMIN ISTR
ĠRight s
Ġdisg usting
ĠSocial ist
Ġamer ican
ĠSA ID
Ġutter ly
ĠUR L
ACH ANHERO
Ġinval id
ĠBLE ACHANHERO
2 10
B E
_ (
b ian
j i
o ices
t ar
le m
ĠW ars
ĠS ection
ol ve
ĠB an
ĠB oo
Ġdo or
et ch
ak h
ant i
ĠG ib
Ġint im
ĠK ind
Ġvandal ise
Ġver ification
Ġcl imate
LL LL
Ġadmin ship
Ġcontin ually
14 2
13 9
Ġdou che
ĠMar x
Ġclass ic
Ġmod ify
Ġmar ks
Ġassert ions
ĠSy ria
ĠMU D
Ġbroad cast
Ġsqu are
Ġshoot ing
ĠPas ht
ĠTur ks
C ong
D ude
O ct
a ed
r ish
Ã §
Ä ģ
à º
an cing
Ġh int
ĠT ag
Ġg oo
ce an
ĠS qu
ĠS ep
Ġst able
ĠC ub
ate ful
ĠP al
Ġsu icide
ĠM ot
Ġne o
Ġr ise
ish op
ab e
Ġsp oke
Ġpart isan
Ġdef ault
ĠRe ally
Ġher itage
ĠAs k
Ġreview er
.... ..
Ġimpro per
istrat or
Ġlog ging
Ġpresent ing
ĠBE EN
Ġprotect ing
Ġbann ing
ĠSH OULD
Ġrepresent ation
Ġvis ible
Ġcap able
ĠAIDS AIDS
ILL ION
Ġsuper ior
Ġreplace ment
Ġess ential
Cont ribs
Cont ributions
Any way
Ġrul ing
ĠJud aism
ĠSwed ish
Ġton ight
ĠAra bs
A p
D P
l ar
Ġc ir
Ġm ast
Ġwh ilst
ĠA mb
ip ped
Ġst rip
ĠC orn
ĠG ar
Ġen for
Ġch rist
ph r
Ġsa ved
Ġfind s
Ġsupp ly
Ġcopy vio
Ġdesc ent
Ġgener ation
OR T
ĠFor ce
Ġrest oring
22 7
ger y
Ġdep artment
Ġbre ach
ĠCol umb
Ġfield s
Ġtem por
Ġblank ing
Ġlik ed
Ġren aming
osp ital
Ġperman ently
CRAPCRAPCRAPCRAPCRAPCRAPCRAPCRAP CRAPCRAPCRAPCRAPCRAPCRAPCRAPCRAP
ĠKoso vo
N C
T ube
W est
c r
m aster
p rom
z ens
Ġthe rap
Ġs ending
or um
Ġm ilit
ag ger
Ġst ress
Ġst amp
Ġst rugg
ĠC ome
el a
Ġex change
pe at
ĠL ittle
ĠU sing
Ġpre ference
Ġspe lled
ord an
Ġpl ans
Ġcomm it
cyclop edic
Ġdifferent ly
Ġrelig ions
Ġeffect ively
Ġcomplain ing
Ġindepend ence
EE EE
Ġrom an
Ġtermin ology
unic ip
ĠARTIC LE
ĠADMINISTR ATOR
G od
m ology
Ġf ont
Ġfor t
ad ow
Ġcon vey
Ġse es
ĠH o
Ġsh op
ĠF il
Ġad just
ĠR ather
ĠG al
Ġrem ote
gu y
ĠAl i
Ġinf er
Ġinst ru
ys op
12 8
Ġ9 8
Ġleg is
Ġmind s
Ġcontact ed
Ġparticip ants
Ġjud gment
Ġinterview s
ĠBo ard
ĠMex ico
Ġwithd raw
Ġupp er
K ing
M arch
f irst
p ired
Ä ĩ
Ġb og
ro c
th ur
am ic
ch ester
ĠM ax
Ġr ubbish
ud es
Ġint r
uck er
ult ural
Ġcop ies
Ġinc ivility
pr il
Ġbr ings
ret ch
20 9
ĠOr der
ĠOr iginal
Ġlaw yer
Ġclean ed
Ġbuild ings
Ġphr ases
Ġfamil ies
Ġrele ases
** **
Quest ion
ĠFl or
ĠCy prus
ĠDem ocratic
Ġhat red
Ġta ught
Y R
c use
g on
Ĩ Ĳ
Ġin cl
Ġl it
Ġg erman
ĠA ut
Ġar se
ĠS U
ĠS lav
un a
Ġab st
Ġpro d
ĠN igger
Ġ1 000
Ġass ure
Ġide al
Ġbr idge
Ġplay s
Ġsur face
Ġorgan ized
Ġsock s
Ġwonder ful
Ġtyp ically
Ġerr one
Ġblat antly
opp y
Ġbare ly
9 69
C o
D B
c ern
e z
o ided
p lace
Ġs ac
Ġc amer
Ġh ous
es tic
ĠT ell
ĠW el
ig m
ig ion
ĠC E
ur day
Ġcom ic
ĠR ay
ĠG ame
Ġdis like
ĠO WN
ĠO lymp
Ġper t
ven ue
az a
Ġimportant ly
amp ion
Ġfour th
Ġdisag rees
25 1
Ġrepe ating
pro f
Ġsw ear
Ġinflu enced
ĠPar is
Ġundo ing
ĠAlex ander
Ġphotograph s
ĠJer usalem
Ġthorough ly
ĠNob ody
Ġphenomen on
edal us
C opyright
i el
l ong
t ry
w ritten
Ġa in
Ġf ly
Ġd icks
Ġre ly
Ġl oose
ĠT amil
Ġar b
ĠF ederal
ĠD og
ust ain
Ġr ow
ra f
end ment
os ing
Ġpre ceding
ew orthy
Ġent ered
Ġput s
ĠIs lands
Ġcount y
Ġsc reens
Ġconst ruction
17 7
ĠOr gan
Ġcr ow
Ġwatch ed
Ġclass es
ortun ate
Ġscient ist
ĠNe il
rap her
OP LE
Ġmot ives
Ġcompet ition
IV IL
Ġdecl ine
ĠVer ifiability
Ġadvoc ate
Ġdang erous
ĠPerson ally
ENS OR
Ġcooper ation
Ġincred ibly
Ġsudden ly
Ġsurr ounding
B lack
h ave
i ations
m ann
n ational
o i
it o
Ġb lah
al o
Ġe h
ĠA ge
ĠS han
am ar
un ciation
ĠC ross
ĠC zech
ol k
Ġdo zens
Ġpro xy
Ġun ilater
Ġal together
ĠE xt
ud ge
able s
ĠK enn
Ġact ed
ĠAnd y
ĠRe ferences
12 2
Ġdem ocracy
25 4
ĠPh ys
Ġmother fuck
Ġsurpr ising
Ġrad ical
het or
Ġunre ason
ĠOff ice
ĠCroat ian
HE AD
ĠFace book
5 00
N ame
T T
V ery
v y
w ill
â Ķ
re sh
Ġf als
ar on
ĠA W
Ġha bit
ad s
ĠC reat
ĠB lo
ĠP a
ĠM OS
et c
em p
ĠL ady
um er
Ġcomp ly
ict ions
Ġser ver
Re view
ĠSe cret
Ġinvol ves
13 3
Ġmer ger
Ġdou b
Ġpat ent
Is lam
Ġspeak er
ĠRep ort
Ġdeath s
Ġsubst ance
Ġincorrect ly
sk y
Ġconsist ently
Ġanal y
Ġexpert ise
Ġconduct ed
Ġvill ages
ĠDa edalus
ĠPalest ine
ĠEs pecially
Ġmassac re
Ag reed
? ).
N azi
V I
W ik
c our
c raft
g ers
l as
v andal
Ġt ough
Ġt ips
in ion
Ġit al
Ġst ore
Ġse ct
ri er
ĠN ice
Ġhe at
Ġind ex
rat or
ĠAs h
Ġpersonal ity
Ġwar ming
Ġworld wide
Ġaw esome
Ġrespect ive
Ġdep ends
Ġfalse ly
Ġlack s
top ic
Ġamong st
Ġfoot notes
Ġpropos ing
Ġoper ating
Ġcor rupt
Ġdick head
umn i
ĠCle arly
ĠAB OUT
Ġbudd y
Ġuntr ue
H A
u j
Ġb oo
le ph
ĠW all
ĠS BS
un ting
ĠC NN
Ġor ient
em an
ry an
Ġag g
og rapher
Ġpr ime
Ġsy nt
Ġav oided
Ġcommun ities
Ġhand led
ĠSp ace
Ġabs ence
Ġpromot es
war rior
Ġaltern atives
gen er
Ġsuspect ed
ĠHE LL
ĠCroat ia
Ġswe et
ĠEdu cation
) âĢİ
M E
e b
g ate
n ers
s ize
u ct
Ġh iding
Ġn oun
as ant
st one
if le
Ġse ts
ĠB uild
ĠM IN
est ival
ĠF our
ble s
ĠN ever
ĠG ay
ĠL ine
ĠTh ink
ĠK at
per or
Ġper tain
ick ing
ĠCh ild
Ġfuck er
ann y
Ġexp osed
ertain ly
Ġmon it
Ġhard er
Ġrepla cing
epend ent
Ġcens ored
Ġflag s
Ġcell spacing
ipp ing
Ġbrief ly
inter pret
Ġunre ferenced
Ġmotiv ated
Ġillustr ate
ĠDar win
ĠProfess or
Ġdeem ed
alend ar
! @
C ON
L ike
f air
u f
Ġw ave
Ġb orrow
es c
Ġd rawn
ĠI l
ĠW ild
ĠS S
am in
Ġde g
ĠB ab
nd rome
Ġdis ambig
um in
Ġatt ached
Ġgu arant
Ġfact ors
ĠSt and
Ġass ass
Ġsupp l
ost on
lic ensed
Ġinf in
Ġinf ringe
22 3
ĠReg ardless
Ġnational ism
ai wan
Ġreply ing
On ce
:# ;
Ġparticip ated
Ġer ase
Ġcourt esy
Ġcommunic ate
Ġchem ical
Ant i
ĠCOMP UT
Ġauthent ic
coh ol
Ġintim id
! ?
F an
P T
R oman
c itation
g ian
p ower
v ard
| |
Ġs arc
Ġb le
Ġb att
ĠI Q
ĠF BI
Ġun if
Ġr ich
Ġqu iet
cus s
ens ively
Ġwrit ings
12 7
OO D
Ġdet ect
22 6
Ġquot ations
oph ile
Ġsol ved
Ġremain ed
Un ited
Ġcomput ers
Ġconfirm ation
cons ensus
pen is
Ġsyn thesis
Ġrout e
! ).
O Z
O ld
a ces
r ot
s en
Ġs itting
ed ge
Ġin con
as m
ĠT op
Ġg ent
ĠS W
if est
Ġst one
ĠC reation
Ġde vice
ĠP ub
el tic
ĠF ootball
ĠN ic
ĠR om
Ġgr ateful
Ġcopy ing
we alth
aw are
20 4
ĠAd am
Ġauthor itative
17 4
inn ers
ĠSp am
Ġrev olution
Ġunf ortunate
:# ""
Ġparticip ating
Ġport al
ĠDis cussion
Ġeduc ational
Ġimmedi ate
Spe cial
Ġple asure
Ġcitiz en
ĠRel iable
fa ith
Ġsum mer
Ġexclus ively
ĠWind ows
ĠAzer bai
eph en
ĠPE OPLE
2 12
H ope
N U
U SS
c ar
c ut
h uman
m al
p ur
er a
at ical
Ġb odies
Ġe ats
Ġnot eworthy
ĠA k
im um
am ous
ĠC ENSOR
ĠP D
ĠM orm
il le
il ver
ter m
ĠL ake
ind u
Ġcre ates
11 8
Ġte en
Ġem pty
Ġleg ally
14 9
Ġcr is
de letion
Ġqual ifies
Ġpract ical
ĠWill iams
ĠHA AHH
Ġtem porary
Ġobser ved
Ġdiv ision
Ġlabel ed
Ġrap id
++ ++
Ġconsequ ences
Ġenem y
ĠVal ley
Inf obox
Ġhaz el
Ġadvant age
F IRE
H P
n itch
Ġa ka
in et
Ġf its
ot ion
Ġre verse
Ġar ts
ĠS and
Ġst ations
op en
ĠB ooks
ĠY AAAA
Ġact ively
ac ies
11 0
ten ance
rop ical
Ġgener ic
ropri ately
Ġusers pace
10 5
10 7
16 2
ĠZ eal
Ġhistor ically
ĠSer bs
Ġappro val
Ġturn ing
ĠPr ime
Ġexpand ing
Ġaltern ate
ĠCar ol
ĠSup reme
Ġgra v
ĠBi ographies
ĠPolic ies
Ġreveal ed
WWWWWWWWWWWWWWWWWWWWWWWWWWWWWWWW WWWWWWWWWWWWWWWWWWWWWWWWWWWWWWWW
Ġlingu istic
Ġweap on
Ġadvertise ment
Oct ober
E r
H O
b ell
er g
Ġf uel
ĠT own
ch a
Ġst eal
ĠC C
Ġse a
ĠM uch
!! :
Ġun ion
ĠY AAA
ĠR od
ĠG lobal
ard en
ĠYou Tube
Ġen s
ph y
11 2
ress ive
ĠTH ERE
Ġconf ront
ĠSh all
Ġir on
ĠComm ission
Ġbann er
ĠCl inton
ĠGen er
Ġreplace able
Ġcast e
Ġachie ved
PR ICK
Ġbiz arre
Jan uary
ĠVER Y
!@ !!!!!!
ĠHAAHH AHAHAH
, âĢĿ
c s
d ro
at han
Ġp ics
Ġh arsh
Ġre name
Ġre consider
ĠT ra
im m
un ity
Ġst y
Ġse lling
Ġde ce
ĠM od
ĠH el
Ġne ut
ĠR os
nt ario
Ġ- >
og en
Ġman g
Ġsa f
Ġsupp ress
Ġsince rely
Ġsc andal
Ġstud ied
ĠPro f
Ġpat ient
Ġ199 7
ĠTr uth
Ġpers istent
Ġmot ion
dis ambiguation
Ġsurpr ise
Ġteach ing
Ġincre ased
Ġnar rative
Ġking dom
Ġincomp et
Ġbill ion
Ġhair y
Ġbiz nitch
11111111111111111111111111111111 11111111111111111111111111111111
Tw o
ĠCOMPUT ER
] [
c ase
l ol
m ond
t arian
Ġ ^
ĸ º
Ġt ort
in ct
re x
Ġb ud
Ġm iles
"" :
ĠA cc
out ing
ist ered
ĠP ur
Ġr hetor
pe lled
all s
Ġmo de
per t
Ġsub section
Ġrep ost
Ġpar k
Ġpl anned
Ġdef ines
ĠHe y
ug ust
12 1
ĠSe ason
10 3
10 4
18 5
ĠLe ave
Ġclass ical
spe aking
ĠEdit ors
** *
Ġcoun cil
Ġcomb ined
Ġaud ience
ĠMag azine
Ġaffect ed
Ġenforce ment
ĠSign post
Ġcheese I
ĠProt est
2 16
N P
b es
y o
Ġt id
Ġw ider
ot he
ĠT W
ĠA P
ĠW T
am n
ĠC amb
ist a
ĠM O
ĠM ake
ĠM os
ir med
ĠF YI
Ġcan v
ĠR h
ĠG reg
up s
ĠL i
ĠL o
ĠL and
ĠL ink
ell ed
uck y
itt y
Ġrec re
ib et
ann ica
Ġappear ing
12 0
Ġnor thern
23 2
ait ing
ĠSome times
Ġann ounce
Ġinsult ed
Ġdest ruction
ĠEd ward
Ġhost ile
Ġalleg ation
Ġforgot ten
Ġrepl ies
ĠSing h
Ġviewpoint s
Ne utral
Rep ly
cre ate
inv olved
Ġly rics
? .
A ust
L iz
U s
h ard
s orry
w er
Ġ Ï
in ians
Ġb ird
Ġf rench
Ġan ime
Ġis ol
ĠT A
ro zen
ĠS outhern
ĠP acific
ĠM P
et heless
ĠD i
ĠR oll
ĠL ab
ĠL ead
ĠK n
ĠSt an
Ġ19 60
Ġreg ime
ollow ing
mm mm
Ġthr owing
Ġ4 5
ock ey
Ġtrans port
Ġsit uations
cient ific
Ġret ard
Ġresult ed
Ġinterpret ed
ĠInt ellig
ĠRec ognise
Ġri ver
bre ak
inf o
hell o
ĠMicro soft
J im
L a
M T
p ers
p roduct
u les
| }
â Ī
Ġ _
Ġt aste
is ations
le e
Ġl ately
Ġg allery
ĠA st
Ġ( +
ul ating
Ġun ver
em i
Ġso ap
Ġany ways
ort ing
ĠL inks
Ġact ors
Ġsp ending
Ġass ign
ten sion
19 3
aj aj
ang ers
10 8
IC E
Ġret ired
16 6
istic al
Ġstay s
Ġcompl iance
ĠCon serv
rupt ive
Ġ199 3
Ġvis ited
eal ous
Ġconv icted
Ġdocument ary
Un fortunately
Ġelect ed
Ġdev oted
Ġpron ounced
Ġsan ctions
Fe b
ĠSu PeRTR
Ġmarket ing
Res p
Ġexer cise
ĠBeat les
Ġunus ual
Ġhomin em
A pril
X X
e a
g rey
j ack
Ġs outhern
Ġb ow
Ġb ab
Ġb ought
Ġc odes
Ġf if
Ġh ole
ent al
ĠA CC
ul ed
Ġcons ent
ĠWh atever
Ġimp lying
Ġgu est
RE ST
oc ation
Ġco ast
Ġprov ing
Ġconf use
we b
Ġmis information
ĠEng ine
ĠInd eed
ole n
Ġdisc ip
17 6
Ġpur ch
ĠJohn son
ĠAdmin s
Ġsens ible
Ġfol k
ĠRec ords
rie ved
Ġpseud o
Ġpresum ably
ĠDiv ision
ĠAcadem y
Ġpert inent
ĠZeal and
N O
P ol
T ALK
W orld
n b
s v
s ight
t ook
t ext
y ers
Ġ Ä
Ġp al
Ġan ger
ĠC O
ol as
ĠP ope
Ġv ow
Ġcan cer
ĠR y
ĠG ive
ĠL im
ĠO S
ud i
ĠYou ng
11 1
ĠIn formation
Ġvandal ised
ever al
ĠIs n
Ġsc ore
Ġro ot
Ġins ight
Ġdefin ing
Ġ7 4
ret e
Ġsing les
16 1
Ġopen ly
23 5
24 2
Ġfail ing
Ġ199 5
Ġmult i
Ġclar ified
olic y
ĠAss y
Ġincomp lete
Ġobserv ation
Ġambig uous
Ġtro ops
Ġscr ut
ĠFlor ida
Ġunreason able
A c
S u
b ro
d y
e lect
l ers
o very
p read
p ool
t rack
Ð »
Ġn ipple
Ġin qu
Ġcon ce
Ġcon ference
ch i
Ġst retch
ĠC riticism
ĠP OL
ĠM ic
ĠM AN
ĠM ORE
ĠF C
ĠR us
Ġpo ly
ces sion
ĠL ive
Ġtr im
ass es
Ġper sec
ific ant
Ġgen res
Ġinf l
az ines
Ġcheck user
ĠSh ah
ĠWiki Love
ides pread
Ġnice ly
Ġexperi ences
reg on
0000 00
Ġbox es
ĠAm azon
Ġcontain ing
Ġinvestig ations
Ġintention ally
Ġblood y
ĠCor ps
ĠDes k
ĠDa ily
Ġord ered
Ġchart s
Ġcost s
Ġfasc ist
Ġcitizens hip
ĠQuest ion
ĠQuest ions
import ance
ĠBosn ia
Ġdeg rees
A V
B ob
N PA
S ource
T ake
V V
c op
c ity
Ġ ''
or o
Ġp p
Ġd im
ic ense
Ġyou th
ĠT oo
ro log
ĠB ANN
ĠB usiness
ill ion
ĠH OW
ri ans
ĠD et
ment ion
Ġv ir
ĠR og
lo se
up er
ĠL ind
ĠL os
ĠO ntario
are k
Ġch ief
ail ed
Ġpar alle
Ġconf ident
IT Y
Ġbl ow
sp ot
Ġmon itor
10 9
Ġfl at
oun ter
Ġaut o
24 4
ĠNe ither
fe ld
Ġnat urally
protect ion
ĠPort uguese
Ġcollabor ation
Ġrank ing
Ġant is
ĠJer sey
Ġduplic ate
Ġtempor arily
B ig
M o
T ry
b ad
d id
d ep
l ad
v ar
y pe
ou red
Ġc od
an c
Ġan arch
ĠI mp
ĠB ow
ĠB USH
Ġor g
ĠP icture
ur ious
ĠD avis
em ail
ĠR ac
ĠE conom
Ġle s
all ow
os cience
ell ing
Ġcomp at
act er
Ġover ly
Ġgr ant
Ġconc ise
Ġins pired
Ġset ting
23 7
Ch ar
Ġ199 1
Ġbeg ins
Ġdifficult y
Ġinterpret ations
Ġarbit rary
ĠJim my
ĠNews letter
ĠEvery thing
Ġdig ital
Ġmotiv ation
wik imedia
mind ed
Ġnick name
Ġprivile ges
B R
H ar
P ersonal
S AN
` `
g al
h art
p rop
Ġ ice
in ity
Ġs in
Ġw ond
or ation
Ġd ance
Ġyou t
ut ter
Ġnot ing
Ġar range
ĠS ong
ĠS ex
ĠC AL
ate ur
ĠG il
ĠG wen
ĠE instein
ĠJ F
Ġch oo
Ġpar l
Ġmean ings
10 2
ric an
Ġpresent s
IC S
IC AN
17 3
Ġes p
Ġassum ptions
omat ic
Ġla id
Ġtransl ations
Ġpres ume
Ġenc ount
ĠPl an
Ġoper ations
Ġcens oring
upport ed
Ġscholars hip
Fe el
Ġvolunte er
Ġoccasion ally
ĠCOMM UN
Ġkidd ing
D ER
e en
g i
l ow
m es
Ġm ig
ĠW omen
Ġcon clude
ĠC ath
ĠC iting
ol is
ate ll
ĠB B
ĠB I
ĠB ern
ĠP A
ĠM is
ers ion
Ġr ush
ra it
ĠL ad
ĠE nt
la p
ard o
Ġmo le
ĠK ong
ans as
Ġlist ening
ĠAr chive
Ġfollow ers
te en
Ġcover ing
Ġsoon er
Ġupd ates
AM N
iter ate
ĠCont ribut
Ġclar ity
Ġmag n
ĠCount ry
Ġsens itive
Ġord ers
Ġgain ed
Ġlos ing
onest ly
Ġforg ive
ĠHaw ai
Ġembar rass
ĠMove ment
gor ith
Ġsynt ax
. ),
2 11
B en
C IVIL
J ames
N or
P L
P o
b lack
d em
n at
Ġ ie
Ġt urk
Ġth in
in ations
in cess
on en
Ġy ellow
"" ""
Ġnot ified
ĠW M
ĠW ater
st al
ĠB S
ĠB ox
ĠM oh
ir k
ain e
qu al
ĠD ictionary
Ġr ing
Ġdis respect
Ġwhat s
Ġout line
Ġimp ressed
Ġrel ate
ĠIn v
ĠSt alin
ĠCh ief
Ġown s
ib li
Ġser ving
ix ed
Ġ6 4
14 7
18 6
17 8
AR Y
block ed
Ġindic ating
Ġgovern ments
Ġdep ending
ĠSome thing
AY S
Ġmod els
Ġjob s
put er
ĠCont ributions
De cember
Ġsatisf ied
Ġidiot ic
Ġsla p
Ġcond em
Ġord inary
Ġterrit ories
pan ic
Ġsummar ize
ĠFrancis co
Ġash amed
Ġcla use
Ġelabor ate
D R
E uropean
L ink
U RE
e at
w rite
Ġw idespread
Ġm icro
Ġd ress
"" -
Ġl ands
ag s
ĠW ikiproject
ist ing
Ġdo ctr
ĠP enn
ir a
ĠH AS
Ġad here
Ġex cus
ĠE ric
Ġch ain
vert ed
ex cept
ĠV e
ĠV illage
IN E
ĠAl tern
rop ract
Ġsign ing
Ġconsider able
Ġprob ability
ĠCom ments
Ġ6 6
sp an
Ġunt agged
AG F
14 5
18 2
Ġopp onents
Ġfal la
cur rent
Ġdevelop ing
Ġknowledge able
Ġcred ited
Se ptember
Ġpropos als
Ġport ions
Ġterror ists
Ġbreak s
DY K
Ġlength y
ĠEvery one
Ind eed
Ġfundament ally
Ġmechan ism
ĠSwed en
________________ ________________
Ġpurs ue
Ġarri ved
Ġprejud ice
Ġcris is
E v
J une
L ast
b ed
j e
m at
s n
Ġ ]
Ġt anks
in ating
le vel
Ġf ruit
al ing
ĠI ron
Ġre ception
ag le
ct ors
ĠA F
he et
ist ani
ĠP ir
et ball
ĠH ard
ĠF ight
Ġwe asel
ive red
ĠL ear
ĠL anguage
ĠK im
Ġneed ing
ac on
Ġrep et
ĠCh ampionship
Ġdec ade
the w
Ġcount less
Ġsy m
ĠSe a
OO K
Ġadv anced
20 7
18 7
Ġsur name
Ġsl oppy
Ġdisagree ments
che z
ĠSer vice
On ly
Ġrecogn ised
Ġ198 6
Ġpain t
Ġbother ing
ĠMon ten
Fe atured
Ġdecla re
Ġtoler ated
review ed
Ġtemper ature
Ġpunish ment
Inc idents
J ack
S ub
U LA
b ered
Ġs ought
en cyclopedic
Ġd ipl
st ory
ĠS andbox
out e
ĠP y
ĠM ind
ĠM ILLION
ur ance
ĠH ad
Ġpro s
Ġun int
Ġmy st
Ġwe igh
Ġwe aring
ie val
Ġdelet es
Ġno se
ca re
pl an
are t
Ġrep rodu
IN D
Ġind ef
Ġpr ay
Ġsp ite
Ġass ault
gg ing
Ġconsid ers
Ġthr own
Ġcount ed
Ġmain tenance
Ġins ane
me ga
Ġfil ter
13 8
ĠOn line
Ġanswer ing
roll ing
cur ry
Ġ199 6
Ġsk ep
Ġexcept ions
IST A
Ġcontest ed
ĠTe am
Ġaccess ible
Ġdri ving
........ ........
Ġaccident ally
Ġpiss ed
Ġenem ies
ophob ia
semb ly
Ġfrustr ated
Ġdat abase
ĠNet work
ĠFind ing
ĠVirgin ia
rex curry
) (
G reetings
L og
O ver
P ost
a uthor
h r
s ay
v ision
Å ¡
Ġ }}
Ġt ang
Ġa id
at ar
it ush
ed ly
or ious
or ney
Ġc ars
Ġh el
Ġan throp
Ġn igger
th es
ĠS ame
se ll
Ġst ock
ĠC A
Ġse lection
Ġsu f
ĠM useum
Ġab andon
ĠH om
Ġex agger
Ġwe alth
Ġal right
Ġoff ers
Ġoff end
Ġoff ence
ĠSt one
Ġfind ings
Ġfound ation
org et
Ġbr others
ĠCom ment
Ġ6 7
Ġsing er
24 0
Ġclass ification
Ġmed i
ĠDO ES
Ġrev ised
ĠMe an
Ġcunt Liz
Ġpick ing
Ġvict ory
Ġemploy ed
Ġsymbol s
Ġexclus ive
Ġflaw ed
Ġplagiar ism
Ġsen ior
idel ines
ĠBANN ED
C ar
E C
E m
G uy
I LE
M ark
d oc
k ind
n els
in ate
Ġc ous
Ġf ired
Ġin come
ĠT est
Ġg ir
ut t
th ank
ĠS av
Ġab used
ĠH ur
ri el
ĠD oug
Ġr ig
Ġv ary
ĠR oss
ra ve
la ced
ĠJ r
Ġout dated
ĠK y
ĠK evin
Ġtw e
Ġprov ince
Ġdiscuss es
OR D
Ġinter action
18 0
Ġless on
Ġpolit ician
16 9
ins on
Ġprocess es
âĢĿ ,
ĠBrit annica
ĠMar io
Ġ199 8
Ġconfir ms
Ġunf ounded
Ġintrodu cing
Ġpers u
help ful
Ġpun ished
ĠAR REST
Ġpsych ology
ĠSun day
ĠArmen ians
Ġpron unciation
uu uu
ĠSat urday
ĠRad io
Ġcorn er
Ġerrone ous
F inally
f ilm
h u
h istor
i ropract
m ad
p y
Ġw restling
or i
Ġf ulf
Ġd ab
Ġin hab
ag ues
ro ve
ay lor
ĠC ulture
ist ers
ĠB oston
ĠM ajor
ĠH IS
ĠN C
ĠG ames
ge les
Ġ19 50
ach ing
Ġpart ial
ug al
Ġquestion ing
ĠIs les
ool s
ruct ure
Ġmove ments
ric ane
15 0
15 9
ĠDIE GO
ĠFA Q
ĠFA IL
Ġemail s
Ġtechn iques
Ġcred its
Ġmag azines
Reg ards
New s
Ġdiv ided
Ġsla very
Ġfool ish
osp here
Ġlay out
Ġhomosexual ity
Ġpull ed
emit ism
Ġweap ons
MMMM MMMM
Ġcrow d
Ġyout ube
m any
o a
p at
s ite
Ñ ĥ
ï ¼
Ġw at
it zer
Ġb at
Ġf lying
Ġh ip
Ġd il
Ġin ev
as ia
Ġre ck
ĠT en
ia c
un ct
ĠB bb
ust ed
ĠL ight
Ġwor ries
ich ael
Ġmo ck
Ġcomp os
ĠV ISTA
== "
Ġquestion ed
Ġaw arded
rup ting
Ġloc ations
velop ment
Ġ199 4
cont roversial
pro ve
Be fore
ĠHar vard
ĠCH ULA
Ġer ased
II I
rant ed
ĠRoman ia
Ġtre nd
ĠSHIT HEAD
Ġvers us
Ġincident s
Ġmaintain ed
Ġtrust ed
Ġoccup ied
Ġpush ed
IF ORN
Ġdeliber ate
Ġult imately
Ġdiscour aged
Ġincorpor ated
Ġmathemat ical
Ġexcess ive
ĠYugoslav ia
ĠCAL IFORN
ĠCALIFORN IA
: )
F AG
H ING
L ooks
U se
a q
a wn
f ire
j ab
ed uc
Ġc oup
Ġc alendar
Ġp assion
Ġh us
al am
Ġbe ll
ent ious
Ġe ating
ĠW eek
ĠS lim
ĠS ky
ch o
Ġst ars
ĠM ond
Ġal umni
Ġal gorith
ĠR A
ĠR ail
ĠO regon
ab eth
Ġev id
Ġpre ferences
ess age
rib ly
Ġtr ash
Ġimp ose
Ġoff ering
ĠSt r
Ġpl ural
Ġpr ide
Ġpr ick
ru ce
Ġsign s
aw a
Ġprom in
OO O
Ġfun ctions
Ġdist ribution
17 0
17 1
res ult
24 7
ĠPol ice
Ġbeg un
ĠEx p
Ġeth n
Ġcomplain ed
port s
FUCK ING
with out
ĠRoman ian
ĠMacedon ians
ĠHind i
ĠLook ing
ĠPhil ipp
Ġcele b
Ġsile nce
Ġdial ogue
ĠLeban on
Ġbrow ser
Ġsaf ety
A ugust
B o
C ome
D es
U C
c ul
â ľ
Ġt v
Ġt ons
in os
Ġb right
Ġb ug
Ġb ored
Ġb rack
Ġf aster
Ġh uh
Ġre nd
Ġl oud
Ġe go
ĠT em
ĠT aiwan
Ġnot ify
ĠA wards
tic ip
ig en
ith uan
un ter
et ary
ĠĊ ĠĊ
ĠH or
ĠF o
ĠR oy
lo s
ĠE ll
so ck
ong warrior
end o
og g
Ġact ress
act ly
ty mology
Ġinv asion
ĠHe alth
19 0
Ġro ots
ang el
Ġbr ill
Ġca ution
12 4
Ġaw ful
Ġfl ood
16 0
Ġuns ub
Ġpast ed
AB LE
ats heet
ĠÂ £
Ġeduc ated
Ġpopular ity
ĠAdmin istrators
Ġcomb at
ĠMo on
ĠArmen ia
Ġproced ures
Ġrestrict ed
ĠKurd s
Ġincons istent
Ġarb com
2 000
B i
G erman
I AL
M is
M OS
N ever
R et
] ""
b as
f d
g ets
i C
i ro
k es
m ag
Ġt ur
Ġt ourn
in er
an ity
Ġm il
Ġd ated
ag a
ĠT IME
ro at
Ġha m
th an
ĠS ad
ĠS ri
ĠS af
ig e
Ġcon cluded
ĠC all
op edia
ĠB ey
ĠM id
ĠM ach
oo re
ĠH ot
ĠF inal
ĠD ream
Ġv ag
ish ing
Ġam using
ap se
Ġch air
ans k
ĠSt ephen
ĠV andal
Ġgr ade
Ġtw ent
gg er
oth ic
rat ch
ĠFUCK IN
Ġro b
sh ould
Ġins ign
Ġext ensively
12 5
Ġ9 4
Ġlead ership
22 4
Ġpolit icians
13 5
15 3
Ġnomin ating
ĠCon f
Is n
Ġclass ified
Ġund id
Ġdr unk
Ġ198 8
Ġ198 9
ential s
Ġacadem ics
ĠSpe edy
Ġpay ing
ĠFr iday
Ġeconom ics
ĠMo dern
ĠAlban ians
Ġaim ed
Ġwikiped ian
Rem oved
Ġindefin ite
ĠDON T
ĠScient ology
Ġdefe at
may be
ĠWil son
Ġcorpor ate
Ġuserbox es
Ġarchitect ure
Ġautom ated
> >
H er
N ovember
P U
S y
V ENT
h ol
n or
u v
u ating
y as
ed ed
ĠI ce
ic i
ag ers
th ink
ĠS aint
ĠS OUR
ere ot
ĠC ivility
ĠB all
ĠH D
Ġv end
ĠN AS
ĠR aul
ĠG ot
ĠO T
ĠTh ought
ca le
Ġout rage
Ġapp lying
ject ive
Ġatt ended
Ġeven ing
Ġseem ingly
Ġ19 30
Ġrec ording
Ġgr asp
Ġsim ilarly
ident ally
ST OP
Ġwrong ly
Ġexper iments
Ġ6 5
Ġresearch ed
Ġresearch ers
iss ue
Ġdisc ret
13 2
Ġpret ending
Ġdisag reed
Ġra ising
Ġemail ed
sc ribe
ĠPe ace
Ġconnect ions
Ġanal ogy
Ġpriv acy
do es
Ġvol ume
Ġimpl ied
Ġoccur s
Ġprot ocol
?! ?!
Edit ing
Dis cussion
Ġrank ings
Ġmisunder stood
Ġsuff er
Ġgrow th
ĠUs ers
ĠDoc ument
umm ary
ĠSure ly
App arently
ĠTor onto
crip tion
Ġoccas ions
Ġbog us
mention ed
ĠCOMMUN ISM
B ack
P icture
P alest
h av
h igh
i op
w ords
Ġb orders
le ft
ing ton
ic he
us al
ĠT rip
ĠT itle
ĠS om
se ts
un ts
Ġde als
ĠP ersonal
ĠM ongol
et ry
Ġat m
Ġab ide
Ġab bre
ĠH ay
ĠD own
ĠD omin
Ġk m
Ġwe ar
ĠY ET
Ġj okes
ra pp
ĠJ ordan
cl ine
ĠK night
ov ie
Ġres idents
ens ity
ost er
Ġfuck ed
Ġph ase
rat ors
Ġagree ing
Ġ8 1
Ġ8 5
amp les
ash mir
13 1
St ub
Ġir r
Ġdeb ates
25 5
Ġdel ivered
Ġarch iving
Ġcontrovers ies
201 4
ĠLI FE
ane ous
Ġden ying
Com p
ĠEn joy
Request ed
Ġancest ors
Ġconstruct ed
Ġunivers al
Ġsubsequ ently
Ġcow ard
Ġpreced ent
GB T
Ġdisreg ard
OZ EN
Feb ruary
A v
F YI
M ENT
f ather
g ary
h us
p ute
à ¥
Ġ %
Ġ q
it ively
Ġf inger
Ġn u
as i
Ġl ame
ĠA th
ĠA uthor
ĠW ikip
ĠS n
ip ment
Ġ"" ""
ĠB alk
ĠB apt
Ġyour selves
ĠF reedom
ĠD AMN
ul s
Ġun aware
Ġj oint
so cial
Ġcons cious
ens es
Ġnew bie
Ġpl ane
AN G
ib ilities
Ġ3 5
."" "
pect ed
be c
ĠUn iverse
19 6
19 8
Ġend less
20 5
13 7
ĠReg ional
co ver
ĠPh ot
add ed
Ġstrong er
Ġmusic ians
Ġdr am
ĠĠĠĠĠĠĠĠĠĠĠĠĠĠĠĠ ĠĠĠĠĠĠĠĠ
Ġsocial ist
Ġclub s
Ġblank ed
ĠSim ply
Ġpain ting
Ġsla ve
Ġcomb ination
Ġsuffic iently
ĠMOTH ER
Ġcollabor ative
Ġadop t
lan tic
sub st
FR OZEN
Ġast ron
ĠBas ically
Further more
uer to
ĠOtt oman
ĠColumb ia
Ġinstru ment
Ġmang ina
B M
C O
C OM
D UE
Q ue
S outh
m od
s u
Ġt ribes
in em
re ason
it an
Ġc uz
Ġm and
Ġy o
ar ation
ut her
tic ularly
am med
ch ild
age ment
ĠB on
ĠM aster
et ter
ĠF ive
Ġne got
ĠD uring
Ġal ien
ĠR M
ĠG a
Ġj ur
ĠE uro
ĠO cc
Ġag ency
pl ified
Ġthem e
Ġsub page
Ġper ception
Ġits uck
ĠCh arl
AT H
Ġmess ed
Ġsc an
Ġext end
EN D
ĠAd ams
Ġleg end
ĠInd ones
22 8
23 4
St ar
24 9
Ġcontact ing
Ġra ces
Ġund one
Ġcharacter istics
Ġvis ual
Ġaff air
ĠWIK I
Ġinfobox es
Ġsatisf ies
Ġmaintain ing
Ġimm ature
Ġattribut ion
Ġrelationship s
ĠDem ocrat
ĠRo ad
ĠBul gar
Ġhypoc ritical
Ġjew s
Ġslow ly
ĠSar ah
Ġdrug s
Ġaffil iated
NNNN NNNN
Ġstrateg y
ĠCommon wealth
L I
P re
U Q
c orrect
m outh
w orth
â ĸº
Ġthe r
Ġm a
es se
"" ),
Ġg aming
Ġar med
ad i
Ġst ood
il ation
Ġpro sec
ĠD h
Ġk iss
Ġr ating
ĠN avy
Ġal cohol
ĠG U
Ġag es
og ical
ire less
ov a
ĠV en
stand ard
Ġche ap
Ġweb page
gr ade
It al
Re peat
19 4
Ġoffic ers
Ġdisc ography
15 4
Ġvar iable
ĠZ e
Ġdem ocratic
Ġsort ing
add y
Ġunf ree
Ġavoid ing
Ġdemonstr ates
ĠANY THING
rovers y
Ġgenuine ly
Mer ge
Ġemot ional
Ġsequ ence
ĠProv ince
Ġsovere ign
Ġunif orm
Ġdiscret ion
2 17
A VE
C SD
D one
F iles
H aving
N S
b ra
n ie
r un
w all
Ġt ight
Ġa th
Ġs and
Ġc up
Ġc ats
Ġm useum
Ġd ating
al bum
ar p
Ġl ied
ad vert
if er
Ġst alk
ĠC op
ĠC ant
ĠB and
ĠM un
ak i
Ġsh orter
ĠD ub
ĠD uke
Ġv ision
Ġqu ery
Ġag ent
ĠK a
ap ore
Ġcomp aring
Ġcre ative
Ġimp artial
ĠIn s
ĠCh uck
oll ah
Ġunderstand able
Ġmis interpret
Ġconc ur
Ġsy ndrome
Ġexp os
Ġexp ires
Ġposs ess
ren cy
14 0
13 4
17 2
de lete
24 6
Ġrepresent ing
ĠBL ANK
Ġorigin ated
Ġdeser ved
Ġrew riting
Ġexpress ing
Ġdemon st
Ġharm ful
Ġbul let
lace able
ĠAlban ia
Ġcy ber
Ġobserv ations
Ġvolunte ers
(( ((
":::: :
Ġkn ock
Ġcamer a
ĠWel sh
ĠNeil N
ĠKenn edy
Ġdoub ts
, ,
J uly
N aming
O X
W IK
d ot
f ar
f ast
f rozen
u ce
Î ¿
Ù Ħ
Ġ Ø
Ġs oul
er ve
Ġw ikiproject
at son
at ivity
ĠI V
ĠI DI
ly wood
id ays
st an
ad ium
am y
ate ment
et ers
Ġab ortion
ust er
Ġun involved
ĠG NU
ĠJ acob
og atory
os al
ell er
ual ity
Ġname ly
ick ed
!!!!!!!! !
Ġword ed
own ed
Wh ite
IT IES
Ġexam ine
Ġcount ing
Ġbeh ave
ank a
18 9
16 4
uc cess
CT ION
23 0
Ġir rit
Ġsearch ed
Ġofficial s
ĠTr ue
Ġtechn ique
ĠRE AL
Ġcivil ians
Ġur ban
Ex ternal
Ex ample
Ġstudy ing
Ġdom estic
fess ional
Ġtarget ed
Ġrevers ed
Ġinstit utions
Tr ans
ĠCopyright s
Ġdismiss ed
Ġdiag ram
Ġfant asy
Ġneigh bor
mus ic
Ġborrow ed
ĠMorm on
. ;
. ).
2 15
A tt
I ran
J apan
e very
k n
t or
w ater
Ï Ħ
â Ħ
is a
Ġc abal
ar ia
ag ging
ĠT our
ĠT ibet
Ġg reek
ĠW is
th y
ĠS ources
ĠM ir
est ab
ĠH al
ĠF al
ĠD NA
Ġun helpful
em on
Ġcont ention
ie ved
Ġhe ck
lf riend
Ġman ager
ass ed
Ġnew er
ty pe
Ġhist ories
we ight
ĠAn geles
Ġform ally
Ġform ula
Ġexp ired
Ġ4 00
me aning
Ġmin ister
ret t
ĠSe curity
18 3
Al right
Ġproper ties
arl iament
Ġfr ustration
Ġnational istic
Ġmet aph
Ġcor ruption
Ġtend ency
edu le
Ġprotest s
Ġconvert ed
Ġelimin ate
ĠHam as
ĠHung arian
Ġdiscrim ination
Ġcoinc idence
ĠIss ue
Ġgent le
H mm
P ossibly
f ight
g ay
m edia
n um
r if
s id
t ake
w orthy
z b
Î µ
Ġt ip
Ġt empt
Ġt alent
Ġth umb
it i
Ġh ook
Ġd un
ĠC e
ol ics
ĠP L
ur ation
Ġad apt
Ġal ign
ĠR VV
ĠO TH
ast s
ass ment
Ġrel iably
Ġback ing
Ġ19 45
Ġob st
"". "
ĠAr thur
Ġsc um
Ġinc o
sp ons
Ġstud io
ĠNOT HING
Ġmist er
Ġpat ients
25 2
ĠJEW S
Ġtyp o
Ġmoder ator
Ġcred entials
Ġmot or
Ġsuccess fully
ĠMed ical
ĠCON T
Ġmal icious
Ġillustr ates
Ġchem istry
Ġtim eline
Ġestim ates
Ġdefam atory
Ġtherap y
Ġparalle l
" *
A Z
E M
H L
H oo
Y N
b at
c ody
p a
p ublic
t d
v ak
Ġw a
Ġw it
it udes
Ġb ots
Ġp air
Ġf le
Ġd ad
Ġl i
Ġg rew
ut o
ow boy
ĠA z
im ages
ĠW TC
ĠS now
Ġwas nt
edit s
ĠF ish
ĠD am
ant e
ĠN ar
ĠN ik
ĠR and
ĠG ale
Ġ2 16
Ġdis abled
ĠE ach
la x
rib ed
Ġres ign
Ġnew ly
Ġremov es
Ġpl ants
Ġref uses
Ġconf idence
Ġdec ides
ven ge
gr am
ĠUn sourced
Ġgener ated
Re c
Ġend ors
pr int
Ġ) "
oh nn
Ġret ire
Al tern
16 3
ĠOr ig
ĠAny ways
Ġtra ffic
Ġdep art
Ch ris
201 3
ĠNe ther
eral d
TAB TAB
war ranted
Ġder iv
Ġbase ball
Ġple ased
Ġcat al
van ia
Ġcy cle
ĠSu ggest
ĠKN OB
ĠScott ish
acc ording
import ant
Ġsuspic ious
Ġdoll ars
Ġcomfort able
Ġalphab et
Ġguarant ee
iropract ic
A lex
C ent
C OI
D O
F O
M ake
R I
S ALT
T urk
g l
p ol
p aste
s cience
u orum
Ġt ie
Ġd uty
Ġwh olly
ĠT ok
ĠA BC
ĠW AR
ce ler
st e
ĠS in
ĠS ay
ig s
if ferent
ist le
ĠH op
Ġsh aring
ĠF inn
ĠL icense
ĠJ ustice
ish onen
Ġrem inder
os is
iz abeth
ci ences
ac le
Ġsub c
Th ose
read ing
ĠRe vert
lect ed
sh ow
Ġfar m
Ġold est
sp ir
20 8
10 6
AHAH A
ID E
22 1
Ġresult ing
Ġeas tern
17 9
Ġuns upported
leg al
Ġequ ipment
Ġsk y
put ed
ĠRE VER
Ġassert ed
Ġbase less
ho les
Ġcircum cision
ĠArb com
Ġdisg race
Ġrestrict ions
ĠHistor ic
Ġcru cial
ophob ic
ĠSen ate
eder ation
Ġsec ular
PH UQ
Ġencount ered
ĠIDI OT
A nn
B el
F l
O Y
P aul
P ORT
S emitic
T Y
b ur
k f
l k
m ission
s ources
Ġt ies
on i
ou bt
it iz
en o
Ġp iano
Ġan gle
al ed
Ġn ons
Ġre fere
om or
Ġg uns
ĠB rian
ĠH ong
Ġv ent
Ġv ig
Ġcom ics
ĠG am
ĠL ooks
Ġwor ship
ab ad
ens ions
11 7
ĠV is
Ġevery day
Ġown ers
Ġexpl ore
Ġ3 2
olog ically
Ġco ff
Ġour selves
Ġmess ing
Ġlog s
20 6
Ġgay frozen
Ġ199 2
Ġ15 0
Ġlic ks
ĠAM ER
Ġunc ited
Ġfre ak
Ġculture s
ĠEn ter
Ġelect ric
ĠDis c
ĠGu ide
Ġcirc le
ĠAdmin istrator
Ġintention al
Ġtrad itions
Any one
ĠAdd ing
ĠBLOCK ED
Ġengine ering
ĠWW II
Ġpred ict
Ġminim al
ĠIR A
Ġunivers ities
ĠMex ican
Ġprohib ited
Ġdefe ated
Ġearn ed
Ġmob ile
Ġrough ly
ĠFat uorum
SI X
Ġinherent ly
Ġremote ly
Ġinfringe ment
" .
2 14
A ng
A ward
I Z
P C
i Äĩ
p ri
r ote
t own
Ð ²
Ġt ank
Ġb in
Ġc um
Ġf ed
Ġo t
Ġh all
Ġn it
as er
Ġre ign
Ġcon ced
Ġst ream
ol t
ĠB ir
ĠM other
ĠM old
ĠN ap
ĠN EW
em bers
ĠG irl
ĠJ osh
ĠK ent
Ġman ifest
av al
Ġrec ip
Ġgr own
ĠTH REAT
Ġco in
Ġinf ant
ang ing
Ġsm ear
Ġdisp ar
Ġpresent ation
ĠInd o
Ġbig ot
Ġuns ure
Ġhead ings
Ġcr icket
Ġorgan isations
de cline
ĠChe atsheet
Ġâ ĨĲ
ĠSer ies
iver pool
ĠAD D
Ġreflect ed
Ġcut ting
ĠCal gary
Ġemploy ees
Ġapplic ations
AAAA AAAA
ĠFR IGG
ĠBi ography
00000000 00000000
!!!!!!!!!!!!!!!!!!!!!!!!!!!!!!!!!!!!!!!!!!!!!!!!!!!!!!!!!!!!!!!!!!!!!!!!!!!!!!!!!!!!!!!!!!!!!!!!!!!!!!!!!!!!!!!!!!!!!!!!!!!!!!!! !!!!!!!!!!!!!!!!!!!!!!!!!!!!!!!!!!!!!!!!!!!!!!!!!!!!!!!!!!!!!!!!!!!!!!!!!!!!!!!!!!!!!!!!!!!!!!!!!!!!!!!!!!!!!!!!!!!!!!!!!!!!!!!!
Ġfrequ ency
conf irmed
Ġdisturb ing
Ġbreat h
Ġforb idden
YR OM
Ġincl ined
sv g
Ġparl iament
Ġgir lfriend
) ...
C ount
G iven
H igh
M ed
W A
d irect
e er
f ix
l ate
m ade
p ot
v age
v ideo
Ġ Âł
Ġt ribe
re ct
Ġb es
Ġp it
Ġp ing
Ġh ospital
Ġe c
ĠT error
st ud
se mit
ch at
ĠP arliament
ir s
et al
Ġsh ips
ĠD ur
ĠD yn
Ġex clude
Ġun con
ĠN a
ĠN ation
Ġj e
ĠL ew
Ġmo on
Ġpre gn
Ġen light
OU NT
Ġrel ates
ĠCh am
Ġfe at
ĠTH e
Ġref uge
Ġent ities
ran g
Ġbi ological
Ġcopyright s
Ġsc ratch
Ġaccept ing
OO OL
Ġtest im
Ġdisc overy
ĠPro bably
Ġes cal
15 6
23 1
23 6
24 1
24 8
Ġcent re
roll ed
put s
ĠTr ust
Ġrecogn ise
Ġhuman ity
Ġ198 4
but t
Ġ(~~~~ ).
Ġelect ron
Ġvol unt
ĠEd its
ĠSim ple
Ġemploy ee
ĠCommun ist
ĠCong ratulations
Ġrap ed
Ph il
Ġviole nt
Ġconvin cing
CA USE
ĠRev olution
Ġmount ain
Prop osed
Ġapprox imately
Ver ifiability
Cong ratulations
? ,
B itch
H a
b us
f an
f are
f ound
h ism
p ie
r ons
Ġs now
Ġw ood
it ations
Ġf usion
ar an
Ġre ct
Ġl oved
Ġl obby
st ub
Ġ( âĨĴ
Ġst ereot
ĠC apt
Ġse gment
ol o
Ġ"" (
ir able
et ta
ri x
Ġk ings
Ġex ceed
ĠR ub
ĠG R
ĠG uru
Ġdis sent
Ġdis order
ĠE DIE
Ġbeing s
Ġchan nels
Ġcre w
ĠWh it
ĠSt art
ĠV ideo
Ġpart ly
Ġcl ient
ww ww
Ġsince re
Ġinv itation
Ġdec iding
ST OOT
ĠAn cient
Ġro les
OL D
app ed
Ġ8 4
14 3
18 4
Ġpop ulations
Ġcr ash
ĠNot ice
Ġtra ve
Ġguess ing
ET IME
ner gy
Ġdr ink
Ġill ness
Ġsus p
Ġlab or
orm al
Ġelect ronic
ops is
Ġfall ing
Ġbroad er
Ġvisit ors
Ġsett le
oca cy
Ġtrain ed
olit an
ÂłÂł ÂłÂł
Int eresting
fr ont
Ġcert ific
Ġpreser ve
Ġresist ance
Ġdiscred it
ĠProtest ant
ĠMean while
ohnn y
STOOT S
; _
A gree
A fD
F ORE
G H
G reek
O ut
P op
R f
T S
V irgin
e ared
f ly
g ency
j u
r ally
r ance
v ant
z o
Ï Ĥ
Ġt un
Ġth ick
in formed
re ference
Ġs ustain
is ons
is ode
or ce
Ġb oot
Ġb oring
an im
Ġp itch
Ġh unt
Ġh obby
as a
Ġl oyal
Ġg est
ĠW right
he ast
ro id
st ers
st ring
ĠS upport
un less
op athy
ĠM ast
il ia
Ġpro x
ĠR ose
ĠR angers
ĠG E
ĠL ar
Ġqu eries
Ġgo ss
Ġpre par
Ġapp ointed
Ġapp ropriately
Ġres ort
11 9
Ġsupp orter
ru ed
ĠTHE N
19 1
Ġappear ances
Ġresearch ing
ract ed
13 6
15 1
15 5
15 7
Ġtra ce
ĠLOL OOOL
Ġcritic ized
Ġpass word
Ġdep ict
Ġmet a
ĠWar ren
Ġfight ers
EL Y
ĠGAY FAG
Ġflag ged
ĠBl ood
Ġinvestig ate
ĠAnt on
ĠMich igan
ĠSan chez
amil iar
âĻ ¥
ĠBet ter
Ġlif ted
ĠHistor ical
Ġathe ist
Ġadequ ate
Ġmanufact ure
Ġlect ure
Ġsty les
ĠFRIGG EN
C D
C L
E X
M ichael
S w
U D
b its
h appy
k b
n ik
Ġ ~~
Ġt ong
Ġa fore
Ġs ne
Ġs ample
at in
at re
or able
or ms
Ġc ree
Ġp uzz
Ġd iet
om ic
ĠT an
ro ck
Ġas c
ĠC ertainly
Ġor phaned
ĠP ages
ĠP uerto
edit or
Ġsh r
Ġwe ather
Ġim perial
Ġen han
form er
Ġpar ad
Ġdef ence
Ġdef ended
ĠAr ts
be at
Ġem o
Ġfair ness
12 6
ĠQ ur
comm on
ĠNe vertheless
Ġvis iting
ĠRE ALLY
Ġment ally
Ġreach ing
Ġreturn s
bal anced
Ġcirc les
Ġteach ers
Ġtend s
Ġsal t
ĠBITCH ES
ĠAng lo
Ġspread ing
Ġhypoc rite
Ġdyn amic
ĠTE LL
ĠBaby What
ĠFa ith
Ġabst ract
Ġbatt les
Ġincon ven
ĠCamb ridge
ĠPOL IT
Ġinco herent
2 19
8 00
I d
J esus
U pd
V G
b ow
f alse
m aking
r um
Ġ ing
re search
Ġb urd
Ġc lock
Ġc her
Ġm ile
Ġm artial
ic ing
ar gu
Ġbe aring
ik ing
ld er
st art
ch es
ĠB ee
ĠB IG
ĠB eng
ĠM ult
il i
Ġedit ions
ĠH um
ĠF I
ĠF oo
ĠF ilm
Ġun pro
Ġun warranted
Ġr aj
ĠN R
Ġcan on
Ġpol itely
ord on
ĠAl an
ĠRe f
Ġco at
Ġcontin uously
be it
be an
ath ers
ix on
akes pe
Ġinter ven
20 3
Ġdist ribut
Ġbas k
ĠPro blem
200 2
ĠBE CAUSE
Ġest imate
ott ed
Ġpass es
Ġann ual
ĠRE M
Ġ198 2
Ġcoll aps
Ġtreat ing
Ġpropag and
Ġliber als
Ġteach ings
ĠIM DB
Ġchurch es
ĠCo ast
Ġtrack s
Add ed
Ġdro pping
Ġsurv ive
Ser iously
Ġtransfer red
Ġadult s
Mus lim
ĠREAD ING
Ġhous es
Ġsuppl ied
nb kj
Ġsym pt
Ġgoss ip
/ ?
A E
A rab
B old
C W
F S
L eg
N OR
S ur
W arning
b u
c ong
e av
f ox
f oot
h ed
m ies
m ath
Ġ 000
Ġw ins
Ġb ans
Ġb ass
le ast
Ġf ing
Ġf ut
Ġh ub
as ks
ĠT al
Ġar tic
ad er
ad av
ĠC old
ĠC ities
ĠB ol
ĠB ongwarrior
ĠP un
ĠM ust
ul ars
Ġex tension
ĠN umber
ĠG OOD
ĠL GBT
ĠO range
Ġch ampionship
per haps
11 5
11 6
ĠV I
Ġpar an
oth y
Ġent hus
ĠThat s
wh atever
Ġprop ortion
Ġconc ensus
Ġencyclop ed
Ġcour ts
app ing
cc er
ĠUS SR
20 2
otect ion
Ġsur gery
Ġhum our
Ġstay ing
Ġsort ed
Ġpass ages
ĠPh D
ris y
Ġjud ging
Ġ197 5
Ġinflu ential
ĠIm ages
Ġjournal ists
Ġcontrad iction
Ġannoy ed
Ġgrad uate
En igm
Ġincorpor ate
kj bn
Ġlaunch ed
Ġfrequ ent
ĠDirect or
Ġsland er
Ġwel com
Ġmax imum
Ġmotherfuck er
ĠMIN OR
ĠIntellig ence
ĠMond ay
Enigm aman
) /
. :
C at
N eed
P erson
c up
c ified
x ic
Ġ ???
Ġt ail
Ġb on
Ġc ere
us ers
Ġis lam
ĠW ow
ĠC arl
ĠB ased
Ġab sent
ĠH and
Ġun ambig
ĠG aza
ĠL OVE
ĠE M
ĠE dd
Ġac comp
Ġgo dd
ĊĊ ĠĠĊ
Ġhere by
ear ly
Ġunder lying
Ġlist ings
11 3
ple x
ĠAnd re
ĠAl bert
ĠRe ference
Ġke en
mer cial
rat ic
Ġmis use
ran ged
OR Y
Ġprodu ces
Ġchar ged
17 5
ĠJust in
Ġcritic ize
Ġdescrip t
Ġequ ations
Ġarch ae
Ġworth while
cont in
irc um
ĠNIGGER S
Ġunblock ing
ĠCl ick
ĠCont in
Ġaff airs
ĠBr other
ĠBr idge
Ġdev ote
ĠIM HO
Ġder ogatory
ĠJe an
Sp ace
Ind ia
Ġpron oun
Ġpet ition
ĠPalest inians
Ġassess ed
ĠPhil ip
Ġcontradict ory
ali el
ĠAtt ack
Ġhol iday
Ġdict ators
ahahahahahahahah ahahahahahahahah
ĠNob el
Ġelimin ated
Ġcolon ial
Ġfrustr ating
======== ========
UUUU UUUU
ĠBat man
unicip ality
ĠAzerbai jan
ĠTA KE
Ġexcus es
ĠTem ple
akespe are
? ),
A IN
C al
C ES
D el
F I
M at
P s
S an
S ir
S andbox
T oday
b est
i ub
o oth
t v
Å Ĥ
Ġt or
Ġt ied
re ck
Ġthe or
it ors
Ġb less
Ġf oul
Ġh ates
ic ate
ĠT aylor
Ġg ap
Ġas ks
ch en
Ġst orm
ĠC ook
ĠM D
ĠM ight
ĠM ars
est s
ĠH on
ĠH oll
ĠR en
ĠR est
Ġle nd
pl us
iz z
ĠK ING
Ġcons ists
Ġman ga
ĠV ar
ĠCh at
Ġche ers
ĠUn ivers
Ġgener ations
Ġte a
Ġconc rete
ok u
Ġaccept ance
EN CE
ĠBe ck
Ġnomin ator
24 5
roll s
amb ling
Ġsimilar ities
Ch at
Ġalong side
ĠÂ «
Ġminor ities
irl ines
Ġactiv ist
Ġtem ple
dis cussion
Ġwik is
ho i
Ġinsist ing
ĠDes ign
Ġcontradict s
ĠCons ider
ĠCons idering
Ġdisapp ear
Ġprincip al
Ġloss es
Ġult imate
Ġrout ine
ĠStud ies
Ġbound aries
Ġmeas ured
Ġmurd ered
Ġcasual ties
Ġmir ror
Ġunjust ified
ibl ical
Ġovert urn
Ġassass ination
% .
' ?
A CT
B as
C atholic
F rank
P eter
W I
b oth
d iv
k ward
l ib
n c
p ast
p resent
Î ½
â ķ
Ġw is
it als
Ġp ants
Ġm ud
Ġd ip
Ġd ump
ĠI an
ot er
Ġre ward
us ible
ĠA E
ĠA lf
ro d
Ġha ha
st ars
tic ally
ĠS L
Ġst olen
ĠM as
el son
ain ts
Ġby e
em en
ĠL u
ĠE arly
ĠO mega
iv ism
ĠU lt
Ġup coming
Ġac r
Ġpre st
Ġpre view
ĠK am
ĠK elly
Ġacc ent
UT H
Ġref using
Ġ3 3
Ġcopy edit
Ġbelie ving
Ġview ing
Ġsc ream
aj ik
sh ire
.... ...
Ġclo s
15 8
Ġvar iation
}} .
Ġcr us
ilar ious
ĠCon n
ĠMar c
Ġ= )
ĠNor ris
TH e
Ġenjoy ed
reg istered
cent ric
Ġphys ic
iam ond
ĠInt erest
Ġtre es
ĠBar bar
Ġprior ity
Ġcollabor ate
Ġyoung er
Ġdisapp ointed
Ġmisunder stand
âĻ ¦
Ġachieve ments
DD DD
ĠBosn ian
Ġrail way
Ġshock ed
ĠDELET E
Ġsubt le
cern ing
Ġpertain ing
ĠCarol ina
Aust ral
Ġhus band
Ġirr ational
zb ollah
ĠNether lands
F act
O SE
R ock
c ivil
e ous
h ome
m is
n ost
z ant
Ġth ru
Ġc ute
as hing
Ġe ar
Ġe lev
ĠA ff
ĠW ere
ip er
ĠB ase
ĠB NP
ĠM and
ĠF an
ĠF riend
Ġv ocal
ĠN az
ĠR aw
ĠG ra
Ġpo ol
ĠL uc
ĠE N
Ġac celer
Ġmo ot
ess ment
Ġcons um
ov en
Ġch ampion
Ġres ident
Ġimp osed
Ġsa ving
Ġdes ired
Ġ19 69
Ġgr at
Ġsp urious
ob b
ok er
Ar bitration
ĠMar ine
Ġident ifying
comm un
ĠMr s
cent er
Ġaf ford
Ġliber ty
hem atic
Ġge ographical
Ġjournal ism
Ġhop es
ĠHol lywood
Ġphilosoph ical
Ġpresident ial
names e
Ġharrass ment
claim ed
Ġpra ise
Ġtourn ament
2 18
2 13
B ER
c ers
c ite
h om
l ined
o en
Ð ´
Ġt all
Ġt ense
is d
Ġf ame
Ġh ind
Ġd b
al ysis
ĠI de
ic y
ag g
ag ua
id o
ĠW in
th rough
ĠS us
ĠS her
ĠS iles
ĠS everal
se ct
Ġcon not
Ġcon version
if ted
ĠC L
ĠC eltic
Ġor bit
ĠP OW
ur i
ĠH u
ĠF AR
qu ote
Ġne ck
ĠR a
ra ig
Ġdis rupting
ĠE ss
um ble
ard on
Ġint eg
for ward
ine ws
od o
ific ial
ĠCh al
av ia
ail ing
Ġstop ping
Ġend eav
Ġargu ably
Ġleg acy
22 5
uss ia
res ident
ĠZ ion
Ġstay ed
ĠComm and
Ġâ ī
Ġstupid ity
ane ously
sk in
Ġoper ated
Ġharass ed
Ġess ence
Ġcell s
Ġdri ven
Ġsla ves
Ġseason s
some thing
Ġdraw ing
hh hh
Ġcry ing
Ġjump ing
AHAHAHAHAHAHAHAH AHAHAHAHAHAHAHAH
Ġconstruct ively
Ġdyn asty
ĠLast ly
ĠCap ital
ĠWork ers
ĠLeban ese
ĠOper ation
Israel i
Ġconven ient
Ġcook ie
Ma cedon
Ġautob lock
ĠVictor ia
ĠSlav ic
rolog y
Ġsuf fered
ansk rit
B ox
E ST
F ine
P D
S ign
S ources
T O
T op
a ug
e i
g ame
g reat
j g
k k
l ades
n j
s ided
w ere
al ism
Ġre vel
Ġre phr
Ġbe er
ere k
ĠC opy
ĠB rah
ĠP sych
el ve
ĠD or
Ġv ind
Ġv ital
ĠR ule
Ġpo ison
ĠL ang
Ġwor ried
ĠE le
ĠU t
pt on
Ġen orm
iz on
ens ible
ex per
Ġwork ers
Ġoff ending
oll o
Ġ19 44
Ġcle ver
cept ions
Ġcl im
Ġ3 9
Ġco ach
ĠAr gent
Ġreal ised
19 7
Ġprop he
sh atri
Ġnon etheless
Ġdefin itive
Ġmon key
ank ing
Ġfl ame
Ġhand ful
ĠChrist opher
200 1
Ġdeb ating
ĠAt lantic
OW N
Ġperiod s
Ġbo at
Ġsubm itting
Ex cuse
ĠSP I
ĠGO ING
Ġstub born
Ġimpl ication
Ġcapital ized
ilosoph y
ĠCor por
Ġestablish ment
Ġjump ed
ĠAnn a
Ġmut ual
Ġpercent age
Ġevident ly
33333333 33333333
ĠWR ONG
ĠPot ter
Ġinfer ior
ĠOrgan ization
ĠCreat ive
Ġrhetor ic
Ġsoap box
Ġtwent y
ĠNAS A
Ġcoff ee
ĠMINOR ITIES
B oth
C AL
N et
N orth
N othing
T om
T im
U nd
b ound
m ic
r ating
u itive
Â °
ã Ģ
Ġthe sis
Ġw ikip
Ġw inner
at ly
Ġh ung
ĠT odd
ro se
ĠM iller
Ġr ain
Ġv on
Ġcont rib
lo c
ĠL es
ĠJ AS
ect ive
ind ing
Ġam ateur
og a
iz er
od ge
ĠSt at
Ġover look
Ġpr ote
Ġsp ring
Ġcl oud
cess arily
rop olitan
Ġnum er
Ġconsider ably
Ġ7 9
Ġ8 3
EN M
Ġpresent ly
ash a
ash i
18 8
ivers ary
ĠAny thing
UN DUE
Ġprof it
ĠMan chester
umb led
Ġsepar ated
ĠPr incess
sy l
Ġunc ertain
Ġmar gin
ĠRuss ians
Ġve get
Ġlab els
Ġlab elled
Ġreturn ing
Ġcamp s
Ġ(~~~~ )
ĠGu ardian
Don ald
ĠSP ICS
tw o
ĠApp le
Ġut il
Ġkey board
Ġinaccur acies
ĠWE AK
Ġimplement ed
ĠEgypt ian
Ġdang er
Ġgraph ic
Ġunw illing
blog spot
Ġambig uity
Ġmeas ures
Block ed
Gen eral
ĠGold en
OOOOOOOO OOOOOOOO
Ġincreasing ly
ĠViet nam
Ġdescend ants
Ġunilater ally
Resp onse
ĠMic hel
ibli ography
igen ous
ahahahahahahahahahahahahahahahah ahaha
B Y
H as
M c
O OR
T ime
c ould
d q
h ire
m or
o an
p os
p ose
r ors
r ical
r ise
u um
Î ¹
Ù ħ
á ¹
on ce
Ġs atell
is p
Ġw ow
Ġw ake
or ative
Ġb om
Ġd ies
as px
Ġre sem
ĠT ar
ĠS ummer
se cond
se ctions
am ine
ip edia
ĠC ase
ĠC her
ĠC ru
ĠB ah
ĠP ink
ĠM edic
ĠF ant
ĠF ull
ĠF YROM
Ġex cluded
Ġun licensed
Ġdis aster
ĠL arry
ĠL ithuan
um es
Ġwho les
pl ate
ĠK le
OU ND
Ġch a
Ġchan ces
ass ador
Ġmat ure
Ġback log
RE AK
Ġcl an
Ġcl oth
ĠTH INK
Ġgen ital
."" ""
Ġcrit ique
Ġcur rency
ug hing
be ing
ĠTHE M
Ġform atted
Ġtext book
ĠDe ad
omin ation
Ġ8 7
Ġ9 5
te chn
ĠMy th
ĠInd ians
Ġhand ling
Ar t
ĠSp ring
cu it
oid s
Ġpat ri
Ġpat rol
Ġâ Ī
ĠPer fect
Ġunf amiliar
Ġtransl iter
ĠBy e
Ġmar g
Ġbo ards
ĠAb d
ĠAre a
ĠDr agon
Ġlegit im
SH IP
Ġimpl ications
ilos opher
ĠOh io
Ġattribut e
Ġindust rial
ĠAng el
Ġhealth y
ĠFrank ly
ĠSing apore
Ġwarrant ed
Ġsymp ath
Ġsanction ed
Ġadequ ately
polit ical
Ġah ahahahahahahahahahahahahahahahahahaha
Ġchrist ian
Ġmonit oring
Ġsarc astic
product ive
Ġwond ered
Ġbrill iant
Ġatm osphere
ĠJAS ENM
: ""
B ar
G old
P ers
P ort
U p
W il
b ase
d ed
i very
m ove
Â »
in tern
on ia
Ġis lands
Ġl ord
ag anda
Ġg iant
Ġfor k
ĠA x
ĠW ol
ĠW ord
un ge
ip ed
ĠB ear
Ġdo ctors
ĠM oore
el on
ĠD ennis
Ġr ated
ĠG h
Ġ2 50
Ġag encies
rit ies
rit ics
ĊĊ ĠĠĠ
... ?
ber ry
com ment
ual tions
cy l
ĠHow ard
ĠHe art
Ġgener ate
19 67
Ġro ster
Ġexp ensive
app er
Ġsch edule
sw er
Ġprodu cer
ank er
Ġaw kward
Ġadv is
Ġadv ocacy
Ġhand ed
Ġap ost
Ġphot ographer
23 9
24 3
ti quette
Ġsearch es
25 3
Ġfr ag
Ġequ ation
Not ice
ĠSer vices
Ġappro ve
quest ion
af i
Se ems
Ġur l
Ġdest ructive
Ġinflu ences
ĠTurk ic
Ġinit iated
Ġdesign ation
Ġfund ing
ĠSim on
Ġlib r
Ġdiv isions
ĠQu ite
link ed
Ġbirth day
Ġcond esc
List en
199 8
Ġsca re
Ġsca red
Ġvirt ual
WH Y
Ġpseud oscience
ĠOk ay
Ġmisrepresent ation
Ġdialect s
ĠCat al
ĠFin land
ĠBA CK
Ġextrem ist
Ġstrugg le
Ġscrut iny
ĠCath olics
WIK IPEDIA
Ġburd en
cong rat
H ead
L AS
M ED
O LL
U B
b urn
f in
k ill
n amed
s ong
Ã ¨
Î »
Ġ :
Ġa ired
re ated
ed ay
Ġb arn
Ġb ritish
Ġp ity
Ġp unch
Ġf o
Ġf ur
Ġd ow
Ġd ry
al ia
Ġwh ites
im s
ĠS AY
ĠS itush
am ie
op ath
ol i
ĠP ic
ĠP RE
ĠM ason
oo s
ĠH az
ĠH IV
ĠF ort
ĠF ield
ĠF uture
Ġex ha
Ġr anks
Ġv and
ĠY ep
ĠL iverpool
Ġmo s
Ġout lets
ors es
Ġtr ains
ER N
Ġover sight
Ġsp are
Ġsp aces
Ġass igned
Ġpost ings
we et
Ġinst ant
Re vert
ann er
Ġfew er
Ġwar m
Ġsent iment
Ġ6 2
Ġmon arch
AG O
Ġtrans cluded
Ġdem ands
Ġeng ines
Ġ... ""
âĢĶ âĢĶ
pro bably
Ġpen al
Ġautomat ic
Ġhell o
Ġblack s
ĠCH INK
Ġarbit r
ĠEl izabeth
08 40
Ġspl itting
Ġsyn opsis
ĠSam uel
ĠPers ians
ĠPat rick
Ġhypoc risy
Ġkick ed
Ġcoordin ates
Ġincons ist
Ġmathemat ics
ĠDie go
ĠAG F
Ġparam eter
bour ne
Ġinfin ite
ĠHawai i
Ġexpos ure
syl vania
congrat ualtions
C J
G R
M art
O ur
S Pe
T iC
h ia
h ad
i ens
i ants
o z
p m
r ous
z h
re port
on ka
ou b
Ġw inners
Ġp ak
Ġd ying
ll ll
ĠW alt
ig ital
ch est
ĠC ry
ĠC alling
Ġse man
ĠB uck
ĠP alin
ome try
ĠM ANN
est y
est amp
est hetic
ĠH art
pp er
Ġsh ap
ĠD j
ĠD al
Ġk ne
Ġmy ster
ĠY ahoo
ort on
Ġthere by
ĠO pp
Ġch oices
Ġtheir s
ens orship
Ġgu ard
reat ing
Ġ19 40
Ġind irect
Ġpar a
Ġwhere ver
Ġcl utter
own s
ĠRe SPe
Ġmis lead
Ġinst all
Re Ve
Ġru in
In tern
ĠDo N
Ġdefin ite
ĠSh ort
Ġrest aur
ĠSe an
Ġwhe el
14 8
16 5
Ar ch
St ill
Ġrespect able
Ġmed al
Ġeth ics
Ġclar ifying
ĠAb raham
Ġrew ord
ĠWell s
ĠGen esis
Ġfocus ing
Ġsuper f
Ġliter ary
Ġinit i
Ġdev ices
Ġstick ing
eg ro
ĠCons ensus
Ġdisapp eared
Ġsqu ad
ĠChan nel
Ġlaugh able
Ġant agon
ĠCur rent
Ġalleged ly
Ġreact ions
Ġconsequ ence
Ġenvironment al
Ge orge
Ġsile nt
ĠEth iop
ĠMA KE
Ġparam eters
Ġparaphr ase
ĠPolit ical
Ġscen ario
aaaaaaaaaaaaaaaaaaaaaaaaaaaaaaaaaaaaaaaaaaaaaaaaaaaaaaaaaaaaaaaa aaaaaaaaaaaaaaaaaaaaaaaaaaaaaaaaaaaaaaaaaaaaaaaaaaaaaaaaaaaaaaaa
uyuyuyuyuyuyuyuyuyuyuyuyuyuyuyuyuyuyuyuyuyuyuyuyuyuyuyuyuyuyuyuy uyuyuyuyuyuyuyuyuyuyuyuyuyuyuyuyuyuyuyuyuyuyuyuyuyuyuyuyuyuyuyuy
nnnnnnnnnnnnnnnnnnnnnnnnnnnnnnnnnnnnnnnnnnnnnnnnnnnnnnnnnnnnnnnn nnnnnnnnnnnnnnnnnnnnnnnnnnnnnnnnnnnnnnnnnnnnnnnnnnnnnnnnnnnnnnnn
yyyyyyyyyyyyyyyyyyyyyyyyyyyyyyyyyyyyyyyyyyyyyyyyyyyyyyyyyyyyyyyy yyyyyyyyyyyyyyyyyyyyyyyyyyyyyyyyyyyyyyyyyyyyyyyyyyyyyyyyyyyyyyyy
tytytytytytytytytytytytytytytytytytytytytytytytytytytytytytytyty tytytytytytytytytytytytytytytytytytytytytytytytytytytytytytytyty
Ġsubstit ute
ĠPhys ics
ĠPa THe
ĠLi Ve
Ġdoctr ine
ĠFo ReVe
ĠBapt ist
Ġneighbor hood
âĦ ¢
ĠTHREAT S
Ġafore mentioned
0840 80
ĠReSPe CT
ĠPaTHe TiC
ĠFoReVe R
A CK
C riticism
E CT
J e
R ich
S M
U AL
g ments
j ay
l ay
m ass
w ind
Ù Ĩ
Ġthe ology
Ġs ided
it as
it imate
an ia
Ġp ul
Ġp omp
ing o
Ġto ss
Ġf les
Ġd u
Ġn ine
Ġre ar
Ġe tymology
Ġfor cing
ĠA K
ad ays
ol er
ĠB att
ĠP rem
ĠM L
et ing
edit ors
ĠH onestly
ul ong
Ġr ussian
Ġv ul
Ġv acc
Ġal ert
Ġcont empt
lo sed
ĠE ver
Ġam end
Ġapp oint
ĠK arl
Ġper ce
act ed
Th omas
ah n
ib bean
pect ives
Ġsign al
gr ad
Ġsc rip
ĠDo ctor
Ġstr ikes
Ġwish ing
Talk back
vern ment
Ġobject ed
Ġsl ang
Ġlaw yers
Ġsol utions
head ed
Ġredirect ing
201 5
ĠLI ON
ĠCont ent
Ġaff irm
Ġed ge
ĠTe ch
Un less
EL P
Ġliter al
ĠHA VENT
clus ive
Ġselect ive
Ġge ography
Ġge ographic
ĠGreat er
Ġslight est
Ġdestroy ing
Ġcompar able
Ġgra ce
ĠSat an
Ġtoler ate
Ġconvention al
Ġdomin ant
Ġobs ession
Ġom itted
ĠKurd ish
Ġfant astic
ĠFL OOR
Ġmast urb
Anti V
Ġrapid ly
Ġincompet ent
Ġbrack ets
Ġoutrage ous
estab lished
Ġmister wiki
ĠAMER ICAN
ĠGE OR
ĠFoo L
ĠBongwarrior congratualtions
M or
Q A
R ob
S W
b omb
d an
h ope
k ar
l ated
l iber
s ic
s ur
v oc
w ich
z illa
re r
on omy
ou st
Ġs ession
Ġp in
es ota
Ġbe ef
Ġbe cu
Ġl ad
ĠA ction
th a
ĠS EE
ig ade
ĠC ool
ĠC ategories
ĠF oot
ĠF ried
ĠD rive
ĠN ative
pe lling
ĠR ace
ĠG W
up load
Ġ1 01
ĠU l
Ġtr ump
Ġch ronic
Ġres on
ex p
ph ys
Ġsa le
con nect
ĠSt ory
ĠSt orm
ĠCh a
Ġind ia
Ġsp o
AT ED
Ġgen e
Ġ3 6
Ġco al
the ir
Ġbi ology
Ġte h
Re ally
Ġins in
app a
IC AGO
Ġless er
Ġvar iant
inn esota
ĠSp irit
Ġtra its
ĠNor we
Ġtruth ful
Ġmult ip
ĠRep laceable
Ġadm ire
Ġla ughing
Ġter ribly
ĠST UPID
Ġfore st
Ġdam aging
Ġcivil ian
ĠHar ris
ĠAss ume
Ġbenef icial
cons in
Ġsubstant ive
Ġignore s
Ġencour aging
Ġsad ly
ĠMin or
Ġgramm atical
ĠMal ik
Ġcross ed
Ġadop tion
Ġcollect ive
ĠMat thew
ĠBro ad
itness es
Ġfavour ite
Ġnovel s
ĠArch ives
Ġdict ator
Ġmanip ulation
Ġexec utive
ĠBudd hism
Ġestim ated
stant iated
prof it
ĠSW EEP
ĠPub lish
ĠPenn sylvania
ĠKy iv
Ġli ars
Ġtong ue
3 00
; ""|
B ay
D A
D C
D ive
F ran
N Y
O ff
S k
U r
Y OOO
b ig
d i
l on
m itted
s cientific
t ure
w y
w ash
Ċ ĠĠĊ
Ġt ack
an za
Ġp aren
Ġm ood
Ġf ranch
Ġd imin
us ions
ly n
ĠT ip
Ġg erm
ĠA CT
ĠS ix
ig ible
ation ally
ĠC art
ĠC MA
Ġse at
ĠB us
ĠB urn
ĠB ruce
ĠP la
ĠM B
et ies
Ġab und
ĠF ord
ĠF IL
Ġr ab
Ġr ifle
ter ror
ant a
ĠY E
ĠR ap
Ġj ar
lo ss
ĠE ston
ĠO ak
Ġqu arter
Ġpre cious
int endo
Ġtr igger
Ġch am
Ġinform ing
ac om
Ġgu ilt
Ġfact o
ress ing
Ġdes ist
Ġsp anish
Ġtw isted
Ġpart ially
Ġpart ner
Ġ3 8
ĠDe ep
ĠDe lete
Ġ7 7
Ġ9 2
Ġ9 6
ĠAd vent
att ack
Ġpublic ity
ony ms
AR S
23 8
200 4
col n
Ġpri ze
ĠMan agement
Ġenc ounter
ĠGr iff
Ġmot ive
Ġphr asing
Ġ197 6
list as
Ġconfirm ing
loy d
Ġassoci ate
Ġdri ver
Ġluck y
abor ation
ĠRem oving
Ġemploy er
Ġthread s
Ġcommunic ations
Ġestablish ing
ĠDes pite
ih ad
bl ue
ĠRel igion
Ġpred omin
Ġappeal ing
ĠCr own
ĠChan ge
Ġsuff ice
Ġsuff ering
Ġspirit ual
hand ed
Ġrat ings
ĠKe ith
Ġprivile ge
Ġpreser ved
Ġmuslim s
Ġspecul ator
Cur rent
ĠViet namese
Ġsucceed ed
LLLL LLLL
CRAPCRAPCRAPCRAPCRAPCRAPCRAPCRAPCRAPCRAPCRAPCRAPCRAPCRAPCRAPCRAP CRAPCRAPCRAPCRAPCRAPCRAPCRAPCRAPCRAPCRAPCRAPCRAPCRAPCRAPCRAPCRAP
ĠStand ard
ĠRog er
Ġinhab it
ĠThought s
ĠOTH ER
Award http
Ġdescript ive
Ġwis dom
AHAHAHAHAHAHAHAHAHAHAHAHAHAHAHAH AHAHA
Ġenorm ous
AntiV Man
C P
C r
C ap
D em
D ef
E s
L ES
R aj
S ing
T LE
U G
[ ]
a edic
c ow
c ular
d f
f c
j ar
m other
p olicy
r ates
Ġ `
Ġt ape
re v
Ġw itch
at im
Ġb ite
Ġc ave
Ġc ents
en ger
Ġm ort
Ġm ales
Ġf estival
Ġh ated
Ġh ilarious
al er
as ka
Ġre ass
ag en
ĠT ri
ut sch
id ency
Ġha h
th ese
ĠS ound
ĠS anskrit
Ġcon qu
un ning
Ġst ores
ĠC amer
ĠP oly
est yle
ak u
ain ed
ri z
ĠD y
Ġad jective
Ġun eth
Ġr ud
ĠY ears
Ġj unk
ĠJ ason
ĠO fficial
Ġno ble
ĠTh ings
all as
form at
ap y
Ġtr adem
vert y
Ġatt itudes
ult s
ph en
Ġoff line
Ġdes per
Ġdes perate
ĠCh ola
Wh atever
Ġent ering
Ġunderstand s
Ġmain space
Ġide ological
ĠDe velopment
Ġins ists
Ġins uff
IS S
Ġ8 8
Ġspecific s
ĠNew ton
ĠIS P
uff alo
ash es
15 2
de leted
Ġir onic
Ġlic ence
ĠWH EN
eah ouse
bs ite
olute ly
Un block
Ġearl iest
Ġprogr amming
Ġcoll apse
Ġprevent ing
ĠWikiProject s
Ġliber tarian
ĠPR OD
ĠMU AHAHAHAHAHAHAHAHAHAHAHAHAHAHAHAHAHAHA
ĠMin istry
apt ers
Ġdeep er
Ġlaws uit
Ġreve als
ĠCr us
Rep ublic
Ġamer icans
auc as
Ġarrog ance
Ġcolumn s
Ġaccompl ished
Ġrat io
Ob viously
ĠEV EN
ĠBa iley
Ġlegis lation
ĠACC OUNT
Ġinsign ificant
Que en
ĠGEOR GE
' )
2 20
B ill
M ike
P at
R M
R ober
T oo
U m
g el
i w
n om
p her
r and
z ing
â Ĥ
at hered
ed uled
Ġb oss
Ġf ig
Ġf ate
Ġf oss
Ġo l
Ġy e
ll er
ct ic
ĠS r
ĠS ab
ad elp
ol ars
Ġ"" [
ĠB arn
ĠM ail
ur l
ur ban
ĠF ather
qu ire
ĠD A
ĠD om
Ġv o
Ġv ice
ĠN ich
ĠN AT
Ġ2 12
lo ve
ĠL OV
ĠE nergy
ĠO cean
ud ic
are l
are st
ĠK on
ub ble
Ġch iropractic
Ġread ily
Ġimp ressive
Ġrel uct
Ġrep orter
com fort
con spir
ĠV o
clud es
Ġcle ared
Ġcomm ission
Ġref lection
ĠAl bum
rat ern
Ġinv ention
Ġser vers
19 99
In ter
Ġreview ers
âĢĻ âĢĻ
ĠSh akespeare
Ġresearch er
ĠSe pt
Ġtrans form
Ġstr uck
Ġmind ed
inn ed
Ġmor ons
Ġnames pace
Ġir ony
Ġfalse hood
rain ed
Ġnational ists
Ġsk ew
ĠEx press
iction aries
Ġeth ical
Ġ198 5
Ġhome work
ĠAm endment
Ġprefer able
Ġspecial ist
Ġ197 9
Ġsocial ism
CC C
ĠCent ury
?! ?
Ġheav en
ĠFl ag
ĠMal ays
Ġri val
Ed its
Ġcy cl
ĠAL ONE
ĠCur ry
Ġchalleng ing
Ġfra ction
Ġunivers ally
Ġsurv ived
Ġnut s
ios ity
ĠGl ad
Ġphenomen a
ĠCamp bell
Ġcorrespond ing
Ġbur ied
Ġquant um
Ġreinst ated
ĠPri ze
PO INT
Ġflo or
Ġpil ot
aed a
ĠJF orget
Ġcous in
educ ated
ĠLew is
: -
C opy
D ate
D aniel
M in
b anned
d ney
e em
g un
n ation
p laced
r ill
s upport
u lent
Ã ¥
Ã ¦
in ated
re ak
ou ston
Ġs ysop
Ġd uck
Ġl one
Ġl ady
ow a
ow itz
im ary
he id
ĠS earch
ĠC V
ĠB or
ĠB irth
ĠM ission
edit ion
Ġab ilities
ĠH TM
ĠF unny
ul us
Ġad s
Ġun encyclopedic
Ġal er
nt y
ĠL en
ĠL OT
um ar
Ġfa ced
cl ub
Ġcomp onent
ph ot
ade qu
ick r
gu ided
Th ird
Ġass ured
ĠAl len
Ġdef ensive
Ġprov oc
ĠHe zbollah
Ġser ial
ug by
ale se
?? ???
ĠDe b
ĠDe v
ĠIP A
pr ise
AG ES
Ġdist ort
Ġdisc rep
ĠPro du
Ġes cape
23 3
ti ary
amm atory
Ġdeb t
ĠPh ill
pro d
comm od
Ġmark ets
ĠST E
Ġgl ance
fuck ing
Ġmag ic
spe cial
Ġeduc ate
ĠBEST FROZEN
Ġdev il
ĠIm perial
pir ation
ĠFr ont
Ġbase ment
Ġtouch ed
BO OT
Ġpsych iat
ĠHind us
Ġsett lement
Ġgod s
Ind ian
Ġprogress ive
ĠDR V
Ġcarry ing
Ġjew ish
Ġsup rem
Ġload ed
ĠHindu ism
Ġobs ess
ĠSa udi
ĠHung ary
Ġcelebr ity
Ġspecul ative
ĠAcc ount
Ġunver ifiable
Ġcompat ible
Char les
nat ural
ĠPir ates
Ġceleb rities
Ġunsub stantiated
Ġbask etball
Ġwelcom ed
ircum cision
A ut
K ind
P M
Q U
R ussian
S us
Y ep
a ver
b ly
d ict
d ale
f s
f ootball
h ov
i ors
r t
r ots
u i
w ow
Ġt ens
Ġth irty
Ġh ill
Ġin her
Ġre const
Ġre butt
ag ree
ĠT rad
ut ation
id en
id eline
ĠW AY
ro v
Ġst ab
ĠC ARE
ol ley
ĠP ear
ĠP ump
Ġab uses
qu es
qu ality
Ġr is
Ġr ates
ink le
ĠG re
ĠG row
ss ss
ĠL ow
ĠL ock
ĠL enn
ĠO sw
Ġqu o
os a
Ġen cyl
Ġspe ctr
ĠK ansas
act ory
Ġbel t
ĠV ersion
ach er
Ġcl in
Ġafter wards
ee th
Ġinf lation
ral tar
Ġbi ases
az e
ateg or
ret ty
Ġprodu cing
ĠAd olf
ĠBe th
att ered
;= &
16 7
Ġcompl iment
ĠBE FORE
ĠCon ference
IGG Y
Ġdel iver
Ġmed ium
CH ICAGO
ĠÂ §
Ġconflict ing
Ġexpect ing
Ġill ustration
af e
Ġbo iler
Ġindepend ently
ĠSince rely
ĠGu idelines
Ġtreat y
list ed
Some thing
Ġair port
ĠPat ri
bel iev
ĠFrank lin
Ġdisapp oint
Ġaim s
Ġmyth s
yp es
ĠPak istani
Ġâĺ İ
Ġhol ocaust
Ġdomin ated
Ġburn ing
Ġnav igation
ĠSant a
ĠSC UM
Ġbranch es
Ġconcent rate
Ã³ n
ALT LAS
ĠSqu are
ĠSecret ary
Ġorient ation
Ġdiscip line
Su ggest
Ġvir us
ĠWM F
inem a
Ġencycloped ias
Ġwholes ale
Ġbecu ase
adelp hia
BOOT STOOTS
! .
, [
A ST
D b
D ay
D uring
E PIC
J ose
M L
N ope
S uck
S talk
W ikiped
a way
g od
h um
i em
n ut
o it
p riv
Â §
Ñ ı
Ġ um
Ġt asks
re quest
Ġc aps
le ep
le nn
Ġm s
Ġm ild
Ġh ier
Ġin adequ
ĠT s
ĠT reat
ig o
ig ma
Ġst ake
ol ation
ĠB ra
ĠB erry
ĠB ishonen
ĠP IGGY
ĠM es
ĠM ovie
et a
Ġwas ted
and in
ĠH ans
ĠH ugh
ĠH unter
ĠD er
ter min
Ġcont ra
ĠG ary
ĠL ie
ĠE L
um my
Ġlike wise
rit es
ast ika
ĠK an
). ""
Ġimp erson
act ually
Ġind ian
ple asant
Ġtw at
Ġass holes
Ġsim ult
ĠTH AN
Ġref usal
Ġpost ers
ib ber
ĠTHE IR
Ġro bot
Ġargu es
Ġ7 8
ĠYour s
ĠCom puter
Ġdisp uting
iss ance
IC AL
Ġdisc laim
ĠPro gram
Ġobject ivity
amm ar
co very
rel igious
Ġsk ill
Ġcharacter istic
Ġpract ically
Ġapolog ized
Ġann ex
Ġ198 7
Ġclick ed
ĠRepublic ans
len ce
ĠCar ibbean
Ġdisplay s
ino is
Ġprint ing
Ġgra ve
Ġpron ounce
Ġcollect ed
Ġmyth ology
eth nic
Ġcompreh end
WH AT
Ġblind ly
Ġtact ic
ĠLiber al
Ġhang ing
ĠCamp aign
Ġathe ism
Ġprompt ly
Ġven ue
lar ge
Ġneut rally
Ġcanv assing
Ġfalla cy
Ġinev itable
Ġalgorith m
ĠPhilipp ines
Ġconscious ness
Ġprox ies
ĠLOLOOOL BOOTSTOOTS
ĠPOLIT CAL
ĠPun jab
Ġmarg inal
Ġarbitr arily
ĠHTM L
Ġspectr um
, '
. "".
/ .
C y
C roat
H uman
N E
S ar
b in
d ist
m l
n ox
o op
p ass
r int
v ia
re ferenced
on line
Ġs am
Ġw rest
at on
at an
Ġc ards
ĠI G
Ġn oo
ve ys
ĠT ed
Ġg ar
Ġg all
im g
st ep
th on
ĠS upp
ip ing
Ġst alker
ĠC ode
Ġse m
ol id
ĠP UT
ĠM ath
el le
ak y
Ġv oc
ĠG othic
ĠJ ane
ĠK id
ĠK ann
ci le
Ġcomp osed
ult y
Ġmat hematic
Th ree
Ġgen us
ĠRe cent
ĠAs sembly
ĠSo ft
Ġform ats
Ġtext books
empl ates
In v
ĠFor m
Ġlog ically
Ġconst rued
ĠBe ach
ĠInd ependent
Ġdist ract
Ġsing ular
Ġobject ively
Ġvar iations
ĠLe ft
Ġdel ight
Ġequ ality
Ġhi jack
ĠCl ark
We b
Ġann iversary
ĠRE F
Ġdr ag
ĠCol or
no on
Ġhome page
Ġ197 4
ĠDid n
Ġfill ing
OTH ER
ĠBar ack
zz zz
Ġsexual ity
ĠDoes n
ĠBel le
ĠLaw rence
âĻ «
riv ia
ĠAir port
ĠCON TR
ĠIraq i
Ġproceed ings
mo dern
Ġbomb ing
Ġcapt ured
Ġrum ors
Ġsimpl er
Ġrein sert
Ġtheore tical
Ġcolle agues
ĠPasht uns
roc ities
Ġisol ated
ĠWis consin
Ġuneth ical
B rit
C ITE
L ead
N EW
O i
P en
c ou
f ish
k m
m ist
m ans
r iction
s ense
s andbox
w eek
Ċ ĠĠĠĠ
on er
it ory
or ig
Ġc am
an up
en cing
Ġp s
Ġp y
Ġf lex
Ġo ct
Ġd read
Ġin cap
Ġre venge
Ġl ift
Ġl oving
ĠT urn
ĠT ips
Ġg ains
Ġnot ation
ĠA le
ĠW arning
ro it
am mer
ch t
Ġst ro
ĠC ann
Ġde leg
ĠB ias
ĠM ill
ĠM AR
Ġus able
ĠF asc
Ġr aw
ĠN l
em in
ĠR ot
lo id
ra j
um i
ĠK ings
Ġthem es
ĠĠĠĠ ĊĊ
Ġread able
ac re
Ġrel atives
Ġover lap
Ġ19 0
Ġ19 67
arn er
gg ed
Ġcl ip
Ġcl ients
Ġrequ iring
Ġreg ulations
ob ile
rat her
Ġinf ect
Ġdec re
the m
ST R
Ġmis er
Ġmis guided
ues day
OM G
ĠUS ER
Ġprom ised
ric a
Ġfl ash
Ġleg s
Ġrefer ing
IC T
Ġbas ics
Ġopp onent
Ġstat istical
Ġhead ed
Ġpast ing
Ġsl ip
Ġrespect fully
und o
ĠNor way
rain ing
Ġlove ly
Ġrev is
pro ject
pro of
Ġhom es
Ġadm its
Ġpract ition
alle us
ĠGerman ic
Ġperm issions
Ġfan boy
sex ual
ĠMc K
Ġobser ve
Ġstraight forward
Ġinn ov
Since rely
Ġodd s
ĠBen j
ĠRober ts
Ġunfair ly
ĠJo han
Ġswe ep
Ġclue less
Ġvehic les
cell any
ĠMem bers
ĠFore ign
YY YY
Ġverb atim
Rel iable
Ġmiscon ception
ĠLin ux
Ġentertain ment
ĠBlo feld
ĠChild ren
ĠCENSOR SHIP
Ġabandon ed
Ġdil ig
Ġjur isd
uccess ful
Ġfeat uring
Ġtestim ony
Ġsusp ended
C a
C ase
J oe
J eff
P ut
S am
S oc
T ony
] )
_ .
d am
h ill
n is
w ick
w rong
y ahoo
Ġ ive
Ġa while
on ed
on ing
Ġb ore
Ġc ab
Ġc ash
an ian
Ġto xic
Ġf la
Ġd ot
ĠT M
ĠT ower
ĠT eahouse
Ġg g
id ges
ĠS or
ĠS il
ĠS aying
ere rs
un c
if ier
ĠP rom
Ġsu e
ĠM ans
ĠM AD
ĠM erry
et e
Ġab road
ĠH AD
ĠF le
ĠD ue
Ġex cer
Ġun ex
Ġr amp
ĠR C
ĠG un
Ġj ealous
Ġpo em
ure au
Ġev olved
ĠK ey
ĠK urt
int o
ĠâĢ ¦
Ġunder min
ac o
ac ist
ac owboy
Ġgood ness
ĠSt ation
RE SS
Ġsp here
Ġver se
Ġref ute
Ġconf ess
Ġlong est
ale nce
not iceboard
ĠUn block
Ġbit ter
Re cent
Ġexp ose
Ġ5 8
Ġrest riction
sp am
tion ary
Ġtest ed
Ġret al
Ġret ract
Ġcompl ies
ĠLe on
SS SS
sel s
ĠNor man
Ġmed ieval
Ġkill ings
add am
Ġsepar ately
ION S
Ġhy dro
Ġdr astic
Ġve ter
au der
Com ments
Ġment ality
men ian
Ġlat in
Ġcivil ization
str ong
Ex cellent
Ġcirc ular
De ath
gen eral
Ġapproach es
Ġvers es
Ġdiv ide
Ġinterview ed
Ġimag ination
fact s
Ġtar gets
amil ton
Ġrank ed
Ġachieve ment
aur us
ĠCur rently
ĠID F
Ġadvoc ates
Ġstre ets
cific ally
ĠDel hi
Ġprohib its
ĠAsso ci
Ġobs essed
":::::: ::::
Ġrum or
urs day
Ge org
Ġswitch ed
bon ics
Ġsuspic ion
Ġoblig ation
pop ular
crip ts
Ġcart oon
Ġarrest ed
Ġâľ ī
Ġreser ved
Ġtheore m
Ġchron ology
count ry
WWWWWWWWWWWWWWWWWWWWWWWWWWWWWWWWWWWWWWWWWWWWWWWWWWWWWWWWWWWWWWWW WWWWWWWWWWWWWWWWWWWWWWWWWWWWWWWWWWWWWWWWWWWWWWWWWWWWWWWWWWWWWWWW
Ġtort ure
Ġbud get
ĠTW O
Ġrecre ate
itzer land
ici ency
ĠDocument ation
Ital ic
ĠFinn ish
Upd ate
Ġdictators hip
Ġperce ive
! ),
E p
K ar
M al
M ac
M ON
P oint
_ ^
b ay
c en
c ru
d et
h aw
p ushing
r v
t oo
v ote
y t
Ä į
Ï ģ
Ð ¼
Ġ à¤
Ġt ribute
re b
or ous
Ġp a
Ġp ink
Ġh ockey
ĠI gn
Ġn ic
Ġin advert
Ġre organ
"" (
Ġl iqu
ĠT ro
Ġg ee
Ġg rey
Ġar ab
ia k
ĠS M
ĠS ud
ĠS ER
se a
se ason
un es
ip her
ĠC ensus
ol s
ĠB illy
ĠP unk
Ġsu ited
ĠM om
ĠM ap
ĠM innesota
ĠH IM
ore an
Ġsh ove
ĠD ear
ĠD aw
ĠD anny
Ġun protect
Ġr ide
ter y
Ġany time
ĠG DP
ĠL ater
ĠL ets
um ably
ĠJ en
ud ed
Ġup hold
ear ing
Ġman ually
Ġman ners
act ers
Th ough
itt en
Ġpr ices
ĠAl most
Ġafter noon
red irect
Ġview ers
ĠAn onymous
Ġcount ies
Ġte leph
Ġbl unt
Ġinter fere
Ġbr ut
ĠSh ab
Ġstr ings
Ġentire ty
ĠSp read
200 3
Ġtra il
Ġpass ive
Ġintern ationally
Ġtyp ed
ĠFA ILE
Ġcar rots
Ġund oubt
ĠLI F
Ġban ks
ĠEurope ans
ĠPe er
ĠBr and
Ġcamp us
ĠCar ter
Ġperform ing
Ġlo an
Ġsatisf action
ĠIran ians
Edit or
ĠCy pri
Ġcompar isons
Jew s
Ġri ots
ĠBill board
Ġpoll s
Ġdemand ing
ĠAp art
ĠJeff erson
ĠBer lin
Should n
ĠLE AVE
Ġincred ible
ĊĠĠ Âł
ĠMess age
Ġinteract ions
ĠBang lades
Ġendorse ment
uis ine
cript ions
Ġprofession als
Islam ic
Ġinfl ammatory
Ġchoo sing
ĠOcc up
Altern atively
Ġcertific ate
Ġfing ers
nost ic
Ġpomp ous
acom mand
conspir acy
ĠOsw ald
ĠFAILE PIC
) #
. ?
A F
D an
I mp
L ESS
M ag
N at
N ext
S BS
c ulture
d ont
f y
g j
m ons
m ont
n l
n ar
o ons
s l
Ù Ī
ð Ł
in ces
Ġw alking
at able
it is
it ual
Ġb ible
Ġm arch
Ġh orses
al ion
al ities
Ġyou re
ar ma
Ġis rael
ag ine
Ġe ars
ĠT el
Ġnot ably
im ed
ĠW y
ĠW es
he w
he im
ig nty
ĠC am
ĠC ard
ĠB ot
ĠB og
and em
Ġat least
ĠH U
ĠH us
ri ors
Ġne vertheless
Ġr hy
let on
em ale
ĠE P
ĠE qu
ĠO ffic
iv ist
Ġno ise
ab is
Ġspe cially
int erest
Ġuser names
ĠCh ronic
Ġpla usible
Ġsp ons
ob ody
ĠAl t
Ġ3 4
be fore
Ġmis spe
Ġsc ores
Ġinc ivil
sh ot
ĠDo om
Ġav iation
Al pha
}} ,
AS H
Ġloc ate
Ġhum ble
Ġpat ron
Ġocc ured
ĠCon st
oph ilia
ĠEx pl
inc ent
ĠSc andin
ĠCont roversial
Ġmoder ators
Ġjud ged
Ġpers pectives
Ġhonest y
gen der
dis ruptive
Ġdri ves
ĠArab ia
Ġstruct ures
Ġcompet ing
Ġinsist ed
ordin ary
Rem ember
ĠEv olution
Ġfasc inating
ĠNY C
ĠTechn ology
ĠWal ter
Ġflaw s
ĠAzer i
Ġprem ise
keep er
Ġmount ains
Mus ic
Ġdoll ar
nos is
Ġscen es
ĠLin coln
Ġwikil ink
othe tical
ĠMonten egro
Japan ese
ĠCONT IN
ĠGam aliel
Ġparan oid
Person ally
hov ah
nox ious
) !
) "".
B ook
F ar
G oogle
J ud
R Y
R oll
S earch
T ING
U sing
W atch
W olf
Z Z
c ue
f i
f ollow
i let
i ya
j un
k an
m id
m ake
r in
u rop
w ould
w hether
w riting
y et
y eah
Ã £
Î ·
Ñ Į
at ics
it us
Ġb ent
Ġb out
Ġp g
Ġp ian
Ġd ys
ĠI mm
ic us
Ġy ield
Ġre lax
ag u
id ers
im ation
st a
ay er
Ġst adium
ĠC S
ĠC itation
ol ph
ĠB ond
ĠB CE
ĠP ASS
ĠM u
ĠM aking
et ime
ill ery
ĠD M
Ġex pelled
Ġun pleasant
Ġr ub
Ġv iable
Ġv irgin
ĠY outube
Ġcom edy
Ġcan ce
em ason
Ġso ccer
ĠG ill
lo ved
ĠL uke
ĠE vil
ĠJ ohnny
ĠO d
Ġam ended
Ġac commod
ĠK ashmir
ov an
ci o
ens ical
Ġperson nel
Ġover r
Ġcl erk
ĠAl ways
ĠAl pha
ĠRe ading
ne ath
ĠAr m
Ġcur iosity
Ġreal istic
Ġexam ination
Re al
Ġconc ert
ograph ics
Ġsm ooth
ier re
Ġhard core
Ġshort ened
Ġdem ol
Ġqual ification
Ġrespect ful
That s
Ġequ als
aged y
Ġcar ries
ĠRep resent
Ġhon our
ĠBlock ed
Ġmar ry
af ia
work ing
Ġoper a
Ġprofess ors
Ġactiv ists
Cont act
ĠRes p
ĠSy dney
Ġfund s
Ġfund ed
ĠRem oval
Ġcapital ization
chan ged
chan ges
Ġrecommend ation
Ġrandom ly
First ly
Ġpun ct
Or iginal
Ġredu ction
Sm ith
Ġbul k
Ġplain ly
Ġremind s
sch ool
ĠEv idence
pre v
ĠMor oc
ĠMel bourne
Ġarri ve
ĠVol ume
Ġburn ed
ĠDef in
Ġbeaut y
Will iam
Ġsec ure
Second ly
Ġexer c
Ġretain ed
west ern
Ġconstitution al
edd ed
Ġju ice
HHHH HHHH
Ġreinst ate
Ġreser ve
Af rican
ĠJon athan
Cle arly
Ġenfor cing
ĠOlymp ics
emp loy
ĠIl ly
1111111111111111111111111111111111111111111111111111111111111111 1111111111111111111111111111111111111111111111111111111111111111
ĠEngine ering
ĠContribut ing
Bi ographies
Ġabbre v
Ġbes ide
Ġtradem ark
ibber ish
ĠLIF ETIME
. ''
C ool
C IS
C ategories
G reen
I rish
K h
M iss
N azis
O F
R on
S elf
S YN
b usiness
c f
j ani
s or
t ra
Å Ł
É Ļ
Ġa kin
Ġth o
on om
Ġs oph
Ġb a
Ġb ang
Ġh eter
Ġin app
Ġin ability
Ġg rab
ĠW TF
he ld
Ġha vent
ig ate
am ation
Ġst er
Ġse men
out ed
ĠB M
ore n
Ġsh ots
Ġsh ift
Ġsh arp
Ġbut ter
Ġv oices
ĠN u
ĠN OR
em e
em ike
ĠR ab
ie th
Ġ1 23
ĠL anka
ĠL td
ĠE ar
ĠE mm
Ġthere of
art a
Ġunder neath
Ġcre atures
ĠSt ep
ĠCh ile
Ġ19 15
Ġref uted
ĠHe len
be ck
Ġstop s
Ġdesc ended
Ġshe ll
Ġru ining
Ġ4 6
ĠDe al
Ġcour ses
ĠFor bes
Ġ8 9
Ġmem ories
Ġadv ent
ĠInd ust
Ġhand y
IC A
my th
ĠAf ro
ĠZ ionist
Ġsuck ing
Ġest ate
ĠCon nect
Ġra ises
Ġdevelop ments
Ġsk etch
Ġrev ise
ĠAgain st
ĠNe g
ĠNe o
Ġmeet ings
Ġfight s
Ġmom ents
spe cified
ĠCH OC
OB OS
ĠEd ition
Ġprogram me
ps ons
Ġobser ver
Ġlik ing
ĠMo S
Ġhop ed
miss ions
Ġasser ting
ĠAnn e
Ġadvoc ating
ĠPo les
ĠEDIT ING
Ġque er
ĠWOR LD
Ġic on
ĠCast le
ĠIll inois
ĠGib son
Ġgoo g
Ġlegis l
ĠCE O
ĠAW B
Ġgrav ity
ĠAssy rian
ĠLear n
ĠIndones ia
ĠEnter tain
Ġconced e
ĠNR HP
Ġcondesc ending
ĠCHOC OBOS
. }}
D oc
F inal
L P
M ah
N one
R T
Y et
c or
f ers
f ont
o so
o les
w riter
Ġt ire
Ġt rem
Ġs ons
at hetic
or ia
Ġb atter
an tic
Ġp oo
Ġto wer
Ġm ic
Ġo cean
Ġan ticip
es p
as an
"" !
Ġg athered
ow ered
ĠA ld
ay ne
ĠS IM
ĠC ALL
Ġse ats
ĠP ap
ome t
Ġsu ed
ĠĊ ĠĠĠ
ĠH ouston
ĠD il
ul u
Ġun protected
Ġun registered
ĠN elson
em bered
ĠG IVE
Ġall ies
ĠE arl
Ġfa ces
art ers
Ġam m
Ġch ess
per anza
Ġcomp ound
Ġatt ach
ac cess
Ġbel ive
con flict
ĠSt ef
oc cup
Ġcopy editing
ĠHe aven
igh th
Ġform ation
Ġte le
Ġte ch
Ġguid es
ang a
Ġcour age
Ġ6 3
ĠFor ces
Ġrest atement
Ġcommun ism
ĠSe attle
Ġtrans parent
Ġ20 7
Ġfil ing
Ġ18 00
ĠAll ah
de c
St art
Ġdel ivery
Ġident ities
Ġkill er
Ġrev oked
Ġcharacter ization
Ġter tiary
ĠBy zant
Ġdr inks
puppet ry
atic an
Ġphys ically
Ġ197 3
dis c
ĠCent re
Ġresol ving
Ġrad iation
ĠSim ilarly
Ġnear by
Ġsold ier
Ġho ly
Ġfool s
ĠTR UTH
gn b
Ġremind ed
Ġcriminal s
Ġimplement ation
Ġtoler ance
Ġ'''' ''''''
Ġmach ines
BI O
cap ital
ĠLE G
Ġvan ity
ĠBudd hist
ĠAh mad
Ġgold en
Ġneigh b
Ġquant ity
ĠUr ban
omp son
ĠFact s
Ġjack ass
Ġsom eday
Ġsoci eties
Ġenfor ced
Ġshop ping
Ġscreens hot
++++ ++++
Ġpurch ase
angel ical
Ġvend etta
kb one
Ġsympt oms
Ġacr onym
ĠNorwe gian
Rober t
ĠLOV ES
Ġboiler plate
Ġsimult aneously
Ġpunct uation
% ,
B ro
B UT
B oy
D a
D AY
E ast
F ound
G ot
P LEASE
W ait
b et
b ies
c les
c opy
f all
f unction
g reen
m ill
m ight
m ajor
m ilitary
o is
re nd
Ġh em
Ġh unting
Ġd ictionaries
ĠI E
as se
as ive
Ġre new
Ġl over
ct ory
Ġe ager
ut a
ĠA V
ĠA w
ĠA IV
Ġas ian
ĠC re
ĠC aucas
ĠP ill
ĠP ER
ĠP rad
ĠM alleus
Ġme l
Ġme me
edit ed
ĠH ELP
ĠF light
ĠF ederation
Ġne uro
ĠD allas
Ġad ress
Ġun balanced
ĠN ep
ĠR an
ĠR ES
ĠG ab
Ġj er
Ġpo etry
ĠO thers
Ġfa cil
ĠK ur
Ġcomp ens
Ġcomp osition
Ġinform al
ac adem
min or
ĠSt ock
ĠSt even
ĠSt arted
Ġover se
Ġ19 63
ach us
Ġsp ir
Ġob noxious
cy cle
AN CE
ob s
Ġcontin uity
Ġplace ment
old s
IG N
Ġexp ense
Ġ5 2
Ġworld s
Ġ6 00
ĠFor um
Ġca ptions
oh en
Ġ9 7
ĠInd ividual
Ġdist orted
Ġsur names
Ġqual ifications
ĠBE ING
Ġrespect ively
amm a
amm ers
oph ren
Ġchild hood
Ġdel usion
Ġcar bon
ĠEx ec
Ġart ificial
Ġadm itting
Ġtransl ating
Ġmusic ian
Ġintrodu ctory
]] .
Ġbelong ing
Ġfight er
ĠCol on
Ġill ogical
ĠTe levision
Ġfore skin
Ġpress ing
Ġcreation ism
ĠWik is
ĠEn cyclop
Ġoper ate
Ġ197 8
Ġfocus es
Ġcor ro
99 9
ĠSm ile
Ġdesign er
Ġdesign ated
ĠBar ry
ĠWould n
Ġhost ility
Ġinsist ence
Ġpsych ological
ĠCour iano
Con flict
Ġunne cessarily
Ġdumb ass
Ġlos ers
Ġintegr ated
yp ical
Ġconserv atives
ĠGovern or
ĠAtt ribution
Ġemphas ize
Look ing
Ġste pped
ĠBell amy
ĠScient ific
Ġhur ts
Ġdistrict s
ĠEm peror
Ġmassac res
Br own
ĠWOR K
Red irect
Ġdial og
Ġprem ature
Ġcong ratulations
Ġdefam ation
ajaj ajaj
Ġfif th
Ġcod ing
ĠLad en
ĠAF TER
kf nj
ĠCapt ain
Ġcher ry
Ġinhabit ants
Ġinsuff icient
Ġincap able
Ġfacil ities
kfnj b
A sh
E nd
G erm
H y
J on
L ong
L ife
O p
P ak
S em
V andal
W AYS
W ORD
a ire
h our
h ra
h ots
m c
m are
m essage
n osed
o ir
p ov
r ig
r ays
Ã ±
Ã ¸
Ð ¿
Ġs ig
Ġs ab
is ans
Ġw et
Ġb la
Ġc ul
Ġo xy
Ġd ust
ic ulous
ic iously
Ġin ner
us a
Ġl udic
ag h
Ġe min
Ġe urope
ow ski
ĠA I
ĠA gree
ik o
ay an
ĠS um
ad ers
ĠC ost
ĠC laim
ĠC ris
Ġor thodox
ĠP in
ĠP and
ĠP lace
ĠM it
ĠM ESS
ĠM orning
ir i
il and
ur ity
Ġsh ed
ĠF Ã©
ĠD J
ĠD umb
ul sion
Ġex empt
Ġun official
Ġv icious
ĠN I
ĠN as
ĠN ATE
Ġcom pelling
ĠR D
ĠG ulf
ra pped
Ġpo ck
ĠE st
ĠE vent
Ġthere s
ish es
Ġint act
ab ilities
Ġmo du
Ġout put
... "
ĠK EEP
ĠK irk
Ġch apters
Ġres ub
ĠV fD
Ġback wards
itt o
Ġ19 65
Ġrec ur
Ġsp okes
Ġright ly
Ġver ifying
ne tic
lic ation
Ġour s
Ġmis placed
Ġbi os
Ġsc ored
Ġprop het
any a
Ġ4 2
ang le
Ġsm oke
ĠSh ame
EN IS
Ġfil thy
ins ula
AS ED
Ġcr ush
Ġsystem atically
ĠGo ing
Ġdeb ated
add s
Ġcontext ual
Ġenjoy ing
ĠX X
ĠDon ald
ĠBr others
ĠAb use
Ã© sk
Can ada
Ġvot ers
Ex actly
Ġinvestig ated
ĠSw itzerland
Ġtotal itarian
Ġoccur ring
Ġcompet ent
Ġhost ed
Ġfem ales
Or phaned
Ġdecl aration
Ġsyn onymous
Ġconvers ations
mon th
bel ow
Ġaffect s
ĠEv ans
Ġdia c
Ġsup reme
Ġmechan ics
ĠâĻ ł
Ġduplic ated
Ġcustom ers
atter ing
Ġexec uted
group s
burg h
ĠBudd ha
Ġhighlight ed
ĠFore st
edd ing
Ġhyper b
Chan ging
ĠBrazil ian
Ġchron ological
ĠCub a
ĠMot or
prom otion
cour se
ĠBB B
Ġmyst ery
Ġpromin ence
âľ ī
rapp y
ĠBulgar ia
ĠNap ole
Ġinconven ience
ĠConn olley
ĠYep es
Ġfranch ise
Ġjar gon
ĠCONTIN UE
Ã£ o
Ã©sk Ã©
1 000
B W
E th
F red
H D
J Ã©skÃ©
S uper
b ull
d ia
d ouche
f ile
i han
j orative
k t
m ate
n so
o qu
r iment
s an
s un
u w
u ments
v ol
w p
Ã ¢
Ġt eeth
in sert
or us
Ġb ush
le ased
an other
ing en
Ġm ac
Ġm asc
Ġf et
Ġd ual
ic le
ar ians
Ġre lying
Ġl un
ĠT rib
ĠT ajik
ĠT uesday
ĠA the
ĠA venue
tic ism
ĠP ledge
Ġsu its
ĠM ul
ĠM AY
ĠM arsh
our ney
Ġus ur
and ra
il ot
edit er
ĠF alk
ĠD est
Ġv es
ĠN iger
ĠN CCC
Ġal beit
ĠR andom
ĠR ules
ĠG rey
Ġj ail
Ġ1 20
Ġ1 10
ĠL uther
Ġle an
ect s
ĠU FC
ĠTh ursday
Ġen comp
ub ns
ew s
Ġres ur
ict ive
ac hel
Ġsub sc
act s
ĠSt ew
Ġdes irable
av ian
Ġreason ed
Th us
Ġ19 48
Ġ19 68
Ġrec ieved
arn ings
oc y
Ġreg ulars
Ġgen ius
aa a
Ġph il
Ġcontin ent
Ġcontin uous
Re ference
Ġsc ar
Ġprop onents
aj i
Ġsch eduled
omin ations
ĠUS E
Ġmon ster
Ġclo sure
Ġoffic es
uc ci
Ġeas iest
Ġuns al
LE AD
de v
Ġgovern or
Ġdep ression
Ġdisagree ing
Ch ina
Ġsol ar
Not iceboard
ĠRep ly
Ġadm ission
Ġdr inking
Ġration ales
Ġment ored
Ġhell or
ĠUN DER
Ġ197 1
De lete
Ġvol t
Ġsubstant iate
ene z
Ġhyp othetical
ĠSim plified
ĠRem ove
Ġlow est
Ġglad ly
Ġbull ies
Ġreject ion
IR ST
ĠPort ugal
Ġlicens es
ĠAS IAN
phas is
ĠCr ime
Ġsignature s
Ġcomplex ity
Rem oval
ĠBro ok
Ġfasc ism
Ġhot el
Ġste am
Ġpull ing
Sc ott
ĠâĻ £
Ġremark able
Ġdiscour se
Ġgraph ics
Ġpattern s
ĠDef ense
ĠSen ator
olly wood
oooo oooo
Ġsimpl ified
Ġfirm ly
ĠColl ins
Ġtrick y
Ġmiscon duct
Ġvac ation
ĠFACT S
Ġfabric ated
ĠGib raltar
Ġunilater al
Ġevid enced
ĠTrip le
Ġtempt ed
Rf C
! ,
B attle
D ue
F ull
G ET
J o
L iber
L ondon
M el
N ick
N ING
R y
S F
S ounds
^ ^
d ri
d ue
e ida
h at
k ed
l ance
m ult
m ony
w oman
à ®
Ġs ciences
or f
or age
Ġb ond
Ġd iversity
ĠI van
Ġn ur
Ġn erve
ar o
ion e
as hell
ot ional
Ġbe ating
ent ric
Ġe uropean
Ġg ear
id ae
im ming
ro e
st ill
ĠS ac
ĠS ING
ck ing
Ġcon ject
ĠC BS
out heast
op inion
ol ving
ist ance
ĠB ed
ĠB tw
Ġor ange
et ts
ĠH il
Ġpro g
ĠD anish
Ġun p
ĠN ag
ĠN FL
ĠN ixon
ĠN intendo
Ġj un
ra ud
ĠE tiquette
ĠJ ake
ry ant
so le
ĠU C
ge bra
pl ane
ell a
ĠK l
Ġatt orney
com mercial
Ġgr ading
Ġpl ate
Ġob it
Ġref resh
Ġco ins
Ġprov ider
ĠAr n
gr and
ran ger
ĠAn at
az ing
Ġshe er
Ġexam ined
ĠDe utsch
ĠâĢĶ ''''''
pr ising
ey er
Ġsm oking
Ġopinion ated
Ġcontro lling
att i
Ġsing ing
There fore
ĠChe m
Ġbehav ing
ĠBE T
Ġprof ound
Ġident ifies
CH E
comm ons
que ak
Ġvis its
ĠBlock ing
bs olutely
IST S
ĠMe g
Ġment or
Ġ198 1
Ġsubm issions
Ġpropos ition
ught y
Ġport rait
Ġemp ir
Cont ested
light grey
Ġimpl icit
Ġcampaign s
Ġbroad ly
Ġdisplay ing
Ġexc ited
she ll
ĠPers ia
face book
ĠTw itter
ĠLike wise
ĠPhil adelphia
iqu ette
Rem oving
ĠNY T
ĠAT TA
ĠAp ollo
ĠUs ually
ĠMil ton
Ġhol idays
Ġprev alent
ĠJeff ro
ugg le
âĺ İ
sm all
Ġdistingu ished
Ġlibel ous
Ġaffil iation
ĠMem orial
Ġbutt ons
Ġpan el
trans parent
ĠMur ray
Ġoccas ional
Ġsovere ignty
ĠSlo vak
Ġdouche bag
Ap ologies
ĠOlymp ic
Ġdece ased
ĠKn ox
Pol ish
Ġinqu iry
ĠSlim Virgin
Ġdistribut ed
Ġfut ile
Ġoverlook ed
Ġlegitim acy
achus etts
" |
" {|
. _
4 00
A w
B ad
B esides
D UST
F av
F ollowing
I gn
L ol
M ove
R FC
a ic
b ab
c ia
h ind
l ists
m ot
s i
v d
Å į
ģ âĶ
Ġa int
in as
is i
or ne
Ġb er
Ġb apt
Ġc atholic
Ġp ix
Ġm r
Ġf ratern
Ġd iver
ĠT ext
ut ies
ĠW ald
ĠW alker
ĠW atson
ik hoi
st able
ere nt
ere my
Ġcon j
am us
ch man
Ġst ack
Ġst yl
ĠC as
ĠC UR
ĠC raig
ĠB art
ĠB uk
ĠP ed
ĠM ON
ain ted
ĠH ann
ĠH amilton
ĠF ellow
ĠF REAK
Ġne c
Ġne olog
ul um
Ġex cluding
Ġun happy
ĠN air
ĠY ank
let es
pe ated
Ġj an
lo d
Ġpo d
ĠE bonics
ĠJ ar
Ġfa cing
Ġag ents
od a
od us
Ġsub set
ser vice
Ġrep air
11 85
ĠSt upid
ick er
IN AL
Ġ19 11
Ġ19 20
cept ive
Ġfe ud
blem s
the ory
Ġel igible
Ġpersonal ities
Ġcheck s
Ġcorrect ness
ĠDe vil
Ġrest oration
Ġ8 00
Ġchar ity
box es
Ġdet riment
Ġwish ed
ĠSp y
St ate
bo ards
par ticularly
leg raph
ĠReg iment
Ġ17 3
Ġmod ification
inc ip
pro v
Ġexcept ional
ĠCont roversy
Ġunc le
Ġlight grey
Ġperm it
Un specified
Ġdam aged
US IC
Ġdifficult ies
ĠGen ocide
Ġtend entious
ĠChurch ill
Ġnet works
ĠAdd itional
Ġshare s
ho ikhoi
Ġimag inary
ĠFre ud
ĠCro ats
Ġdetermin ing
Ġmotiv ations
ĠNE ED
Ġgrand father
HE Y
Le ave
ĠJo in
Ġcru el
âĺ ħ
ĠJay jg
Ġbudd ies
inv est
Ġemot ion
Ġreb els
Ġgross ly
Ġsymp athetic
Ġimmig rants
ĠMur phy
eeee eeee
ĠTre k
ĠMount ain
riter ia
Comm un
ĠAsk ed
EEEE EEEE
cuss ions
ĠRom ans
Ġles bian
qual ified
Ġdipl omatic
inos aur
ĠBey ond
Iran ian
Ġcatal og
Ġenthus ias
Ġclos est
Ġcrus ade
ĠMedic ine
Ġcloth es
ĠFIL TER
Ġrud eness
Ġdesper ately
Ġfoss il
ĠNAT O
Ġdisclaim er
cou ver
Ġexcer pt
Ġunsal vage
% )
, _
B ul
C are
C orrect
D oug
F ive
G ay
H istor
H aha
I OUS
M B
M G
M ad
M other
N B
O ops
P ub
P olit
S ame
a is
b ott
c oll
d ata
h en
k it
l ia
l iving
n umber
r ising
u ction
u its
v als
Ù ĩ
Ġ É
Ġt ast
Ġt rib
Ġa ston
Ġa esthetic
re ferences
en et
Ġp ound
Ġp uff
Ġf er
ar ification
Ġl ion
ent ive
Ġnot orious
ĠW he
Ġha v
ĠS inn
ck er
ad ia
ith ic
Ġst ored
Ġst umbled
ĠC os
ĠC itiz
Ġse vent
ol and
ĠB u
Ġsu cc
ir ts
ĠH ack
ĠH IST
ĠF estival
ĠD ont
Ġun lock
Ġun ited
Ġr ants
ment ed
Ġv ile
ĠN i
ĠN am
ĠN ature
ĠY am
ĠR ing
ĠR ain
ĠR AC
ĠG OT
Ġ2 20
ĠL ingu
ĠE ve
ĠJ ama
ĠO P
ĠO PIN
now ned
Ġdon ations
Ġgo v
iz za
... "".
ĠK in
ĠK yle
ĠK shatri
Ġtr ading
ans ing
Ġsub head
ser ving
Ġnow adays
Ġrel ies
act or
ĠV ir
oll a
Ġ19 39
Ġgen es
Ġ3 7
rop he
ĠAr ms
ug o
ern et
ring ing
IG H
Ġdifferent iate
In stead
Ġ5 1
Ġ5 7
ĠDI SC
Ġbad ge
Ġeff icient
Ġtri als
Ġhard ware
IC H
Ġappreci ation
Ġstat ic
Ġphot ography
ĠZ ero
Ġfix es
Ġsystem atic
ĠNot es
Ġfal len
Ġnotic ing
Ġclass ify
Ġident ification
Ġkill s
head s
Ġpurp orted
ĠWH ERE
reg ation
Sh are
au ge
Ġjud ges
Se ashell
Can adian
Ġinvest ment
rest le
ĠHis panic
Ġprevent ed
Ġvol umes
Ġborder line
ĠMc G
Ġpain ful
Ġdiv orce
Ġmix ing
Ġdig ging
ĠMedia Wiki
ĠLa ure
arm ila
à¤ ¾
ĠAL WAYS
pre ting
Ġgrad uated
Ġcatch ing
Ġped ophile
ĠRob inson
Ġweak ness
ĠTechn ocracy
Ġexec ution
Ġlingu istics
Ġinser tion
Ġna ive
ĠProfess ional
sim ple
abs adds
Ġconven ience
ĠEp isode
ĠOs set
ĠRet rieved
lab ama
Ġdiffer ing
ĠPolit ics
Sockpuppet ry
ĠDen mark
Ġax e
ĠCub an
Ġimproper ly
Ġmilit ant
Ġscreens hots
ĠShan kbone
Ġbird s
Ġmagn itude
ĠMach ine
Ġvag ina
Ġdram atic
ĠDemocrat s
Ġdun no
Ġnons ensical
Ġinteg ral
ĠChal uk
Ġprote in
ĠSTE AL
ĠPASS WORD
ĠEntertain ment
enez uel
% ""|
. ]
A ir
A FD
C oll
D own
I ANS
L aw
L ittle
M ult
M uch
O pen
T er
T ell
Y ING
c d
f our
m ap
n ormal
r ans
t est
w at
z ed
Ġt err
Ġt icket
Ġa pt
in ux
Ġw ine
at he
ed nes
Ġb is
Ġb one
en berg
Ġp ope
Ġm ul
Ġf t
Ġd iverse
Ġd uration
ic ity
ic ode
ot te
Ġre con
Ġre semb
Ġbe le
Ġbe ach
ent ed
ag ic
ĠT otal
Ġg absadds
ĠA irlines
ĠW ant
ĠW inter
ik er
ce p
th read
ĠS el
ĠS elf
ig ration
ad ians
ĠC ir
ĠC ole
ol ves
Ġde gener
ĠB os
ĠB ryan
ĠP BS
ĠM ann
el and
Ġab ol
oo h
ĠH alf
ĠH erald
ĠF el
ĠF REE
ĠD ian
Ġk il
Ġr v
Ġcan n
Ġcont end
ĠG and
ĠG AN
lo cal
ĠL ud
ous es
Ġag gress
for um
Ġout lined
ood y
ĠK rish
ap edia
Ġtr icks
ĠâĢ ł
Ġunder t
Ġi F
Ġimp ress
ser ver
ass uming
Ġrep rint
com b
Ġbel ated
Ġsa v
ĠSt u
ĠSt ub
ĠSt ev
Ġback s
Ġover come
ĠCh ampion
Ġ19 18
Ġgr ay
Ġgr ain
RE D
RE AD
Ġtw ist
Ġtw elve
Ġcl own
ĠTH ANK
ru les
Ġco herent
Ġweb pages
Ġinst antly
Ġinst alled
Ġhapp ily
Ġshe ep
ED IT
Ġwar rior
Ġbl ast
Ġposs ibilities
Ġlast ed
Ġins piration
Ġinter face
Ġbr ains
Ġpos itively
Ġprodu cers
Ġstat istic
Ġhead line
AS C
AS ON
Ġorgan ize
Pro bably
ĠIN TER
Ġdeb ut
ĠPer iod
Ġ17 4
Ġmet ro
For mer
AM A
Ġcontext s
ĠCont act
Ġconv iction
Sh ut
Ġaff ix
ev idence
Ġgl ass
Ġ198 3
ĠAust in
Be ing
enn es
lement ary
Ġbusiness es
Ġer asing
Ġ197 7
eter min
Ġacadem ia
ĠSP LC
ĠSy rian
pir acy
br id
Ġencour ages
ĠRem oved
ĠSchool s
Ġcompet e
Ġlabel ing
Ġevolution ary
ĠSing le
asp ian
ĠRaj a
Ġult ra
Ġgenetic s
ĠArch itect
Ġprep are
ĠPo or
Ã¼ r
Ġcapt ure
":::::: :
":::::: ::
Ġcategor ization
Ġwithd rawn
Ġinj ury
Ġinj ustice
Ġmurd ers
Ġemer gency
Ġparaphr asing
West ern
ĠFil ip
guy en
ĠBuild ing
Ġvow el
Ġmedi ator
ĠHur ricane
Des pite
Ġvig il
Ġenlight en
Ġbom bs
Ġpractition ers
Ġcorro bor
ģâĶ ģâĶ
ednes day
6 00
A cc
C itation
E mail
F OUR
F amily
G lobal
M od
S hip
S ection
T E
T a
W al
Y S
f ind
g irl
i u
l iv
m atic
o or
p se
p son
v est
á »
á ĥ
Ġ ×
Ġt ap
Ġt ale
Ġt orn
on z
Ġs ilver
Ġw olf
at io
it ably
Ġb read
Ġb ugs
Ġc rop
an cies
Ġan ec
Ġd inner
Ġn aked
om on
us ually
Ġbe e
Ġl oo
Ġg host
Ġg arden
ĠS aw
ĠS erer
ĠS addam
am as
am ics
Ġ( '
ĠC P
ĠC ite
ĠC orrect
ĠB ureau
ĠP ast
el ia
ĠH og
ĠH ospital
Ġsh adow
ĠF ly
ĠF IRST
ĠD S
ĠD one
ul ator
han g
ĠG er
ĠG ard
ĠG reetings
lo ver
Ġhe ars
ra pe
ĠL abor
ĠJ oy
iv an
oug e
ĠTh er
ĠTh rough
Ġac id
Ġrem embered
Ġpre sc
Ġres ume
). "
Ġunder mine
ĠĠĠĠ ĠĊ
Ġcomp onents
Ġcre ature
ĠV i
ĠV eg
Ġdes p
itt s
oc aine
Ġsp oil
Ġsp otted
gg gg
ĠTH ING
ĠAl leg
Ġco h
Ġprov oke
Ġpolic es
ne g
Ġph on
Ġph ilosopher
ĠAr ist
oy s
ather ine
ĠSo on
Ġnum bered
ath on
Ġform ing
Ġwar fare
lete ly
Ġet iquette
ĠĠĠĠĠĠĠĠ Ġ
app ointed
Ġsm ile
Ġauth orship
Ġcol ours
Ġclear ing
Ġcommun ists
Ġ9 1
Ġupload er
Ġauthor itarian
ĠSp orts
ĠAny how
ax y
oss i
Ġsound ing
Ġdep loy
Ġmod ifications
Ġhy phen
]] ,
alle st
ĠST ATE
Ġfan atic
ĠGu ard
iam i
ĠAdmin istration
Ġz one
Ġpublish ers
ĠBar on
Ġdog ma
ĠEl onka
Ġcast ing
Ġland ing
tr ue
ĠCo oper
199 7
Ġregist ration
Ġang el
ĠAng ela
ĠAS AP
Ġtax es
Ġcry stal
ĠJud ge
Ġegg s
ĠEgypt ians
Ġprev ents
cre ated
Ġdiscour age
Ġmanip ulate
Ġcapt ain
Ġwall s
ĠPet e
ĠVan couver
ĠLeg end
Ġque en
met al
ĠColl aboration
ĠDELET ED
Ġic ons
Sure ly
Ġwitness es
Ġimmig ration
ĠMS N
ĠOl iver
Ġcolle ges
Ġsevere ly
Ø§ ÙĦ
ĠExt reme
Ġsarc asm
Ġunver ified
ĠConserv ative
Ġarrange ment
Ġturk ish
ĠMoh ammed
Ġdisrespect ful
ĠMonten egr
ĠCharl ie
semit ism
Ġparad ox
ĠEdd ie
oen ix
ĠFant asy
Ġinadequ ate
Ġundoubt edly
onom ous
Ġtrem end
Ġludic rous
Ġunsalvage ably
A W
B ased
C e
C op
H I
M I
P ark
P ublic
R F
S emi
V A
Y o
c z
e zy
f old
g ie
g iving
g mail
i ots
j s
k al
l ly
l ies
m ale
n an
p es
p res
p icking
r il
r ations
r ific
t f
t roll
Ø ±
Ĳ âķ
re ally
at z
at ism
or ps
le ngth
an ied
Ġp m
Ġm ask
Ġf est
ic ut
ar ity
us c
Ġwh ine
ĠT NA
ĠT ropical
Ġg ibberish
Ġnot or
id y
ĠW ERE
ĠW onder
ĠW itnesses
he art
ro le
ĠS ina
ĠS AME
ĠS ilver
ĠS VG
ck s
Ġcon gress
un i
un like
Ġst em
ĠC andid
ol an
ist alking
Ġde le
Ġor th
ĠP ack
ĠM C
ĠM ick
el ing
ak ota
ĠH orse
Ġpro stitution
ĠF all
ĠF av
ĠF ollowing
ĠD ate
ĠD uck
ĠD odo
Ġv ested
ĠR oute
ĠG allery
Ġpo verty
ĠL IT
ĠL ET
ĠL iter
ĠL DS
ĠL OOK
ĠE t
ĠE ye
um a
ĠJ W
ĠJ ude
Ġim per
ĠTh ing
og o
ab i
Ġgo sp
Ġout standing
Ġpre mi
ĠK ill
Ġtr oub
Ġtr agedy
Ġch op
ans w
ac les
Ġcre ators
ex ual
ex istent
ph ic
Ġoff ical
ĠCh ad
ĠCh art
Ġpl z
Ġsp an
Ġcomm a
Ġcomm ander
ĠRe ich
ne th
red ited
ug en
OT E
we ep
Ġ. "
ars on
Ġbl urb
angu ages
ok a
Ġdefin ately
ĠSh adow
IS E
Ġmin istry
Ġ20 9
Ġdisc ount
Ġcr own
Ġ10 9
Ġtra ced
Ġsimilar ity
ĠNor m
Ch inese
ĠPh ilosophy
ĠWikiped ias
ĠEx per
Ġ12 8
epend ence
lu x
Ġann oun
itch en
Sh ow
ĠCol lect
ĠAust rian
Ġmass es
Ġdeser ving
Ġrew rote
ĠDr mies
Ġanal og
ĠAss ad
Ġcontrol s
Ġface book
ĠRes olve
Ġwilling ness
Ġargue ment
Ġsal iva
ĠAdd ress
tr uth
Ġtrack ing
Or ig
ĠJe hovah
oca bul
ĠCy cl
Ġtarget ing
Ġincomp at
ĠOff ensive
ĠAnth rop
Ġobjection able
Ġinnoc ence
Ġmechan ical
Ġbuy ing
Ġroad s
Ġacknowled ging
ĠBet acommand
elf are
Ġmeasure ment
Gen er
ena issance
Ġharrass ing
ĠNat ural
Cons ensus
ĠClass ic
rane an
Ġfabric ation
Ġglo ss
Ġcommit ment
ĠRus sell
ĠAltern atively
MMMMMMMM MMMMMMMM
ĠOT RS
Palest inian
Ġendors ed
ĠSuggest ions
Ġvolunt ary
Ġcollaps ed
ĠNaz ism
Ġscrip ts
believ able
ĠExpl ore
Ġanec d
B ush
C amp
D en
D ATE
F ree
F UL
H mmm
J ay
L inks
M ajor
N a
N AME
O OL
P resident
S up
U h
c ited
c amp
e pt
e ath
e tical
f ringe
g ence
h ate
i ets
m ates
o ks
s cale
Ã º
Ù Ĭ
â ĨĲ
Ġth resh
on ese
it ious
ed i
Ġb rit
an ion
Ġp pl
Ġp alest
Ġf ib
Ġo we
al is
al ist
al ong
Ġg ate
ĠA labama
im ension
im acowboy
ĠW a
ĠW or
ik oku
Ġha bits
th al
ĠS la
ĠS ide
ĠS oul
se min
ch oice
Ġst ead
ĠC row
op tion
Ġdo s
ĠP el
ĠM CC
Ġat rocities
ĠH oo
ĠH em
ĠH ER
ĠH ond
ĠF E
ĠF ine
ĠF ollow
Ġex it
Ġex empl
Ġun educated
ĠN J
ĠN ad
ĠY a
pe er
ĠR ud
ĠG i
ĠG ON
lo sure
ĠL ost
Ġle ar
Ġle ap
ĠO il
ĠO rang
ous y
ong e
ab a
ial ity
Ġev ade
able ezy
Ġen able
ĠK or
ĠK el
ub an
ov ies
uck ing
uck et
Ġres idence
feren cing
ac ock
Ġsub sid
ser ting
min s
con serv
Ġuser pages
ĠIn st
ail able
Ġ19 00
Ġind igenous
Ġcomm end
Ġsupp ressed
ĠAl ber
ĠRe ason
Ġprov ision
view s
ne eds
ee z
Ġinv aded
Ġreal m
Ġel it
Ġboth ers
Ġencyclop aedic
Ġconsider ations
Ġprob ation
Ġins urance
me tic
Ġmon etary
Ġdisp ro
Ġtrans ition
box ing
Ġdet ract
Ġsing h
Al ban
Ġsl anted
Pro v
ĠNot able
Ġnecess ity
Ġdiff ers
ĠSome body
Ġtyp os
Ġaware ness
Ġrepresent atives
Ġrac ists
Ġdr um
Ġmeet up
Ġsw ord
ĠIT S
ĠGr ant
spe ak
Ġ197 2
Ġplan ets
Ġbreak down
Ġexpress ions
Ġlo op
Reg ardless
Ġincident ally
Ġconduct ing
Ġbull ied
bor ough
199 5
some one
Ġimm ense
Ġredu cing
Ġanim ation
Ġnigg a
Ġwind ows
rie ve
Ġpeace ful
ĠMat erial
fa ced
vi os
Ġopportun ities
ĠEr n
ĠSal vio
Ġnewcom er
Ġmistaken ly
Ġtim ing
ĠEX ACT
ĠInf obox
ĠRam d
Ġcoordin ate
Ġconcent ration
ĠMass achusetts
ĠHead line
Te chn
Ġdishonest y
ĠOp inion
Ġdisturb ed
Ġdiscred ited
rac ist
char acter
Ġital ic
ĠGener ally
ĠMos cow
ĠRoll ing
Ġassign ment
Ġpersec ution
Ġexagger ated
Ġfulf ill
Ġethn ically
iche ver
ĠBalk an
ĠOrig in
ĠDyn asty
ĠAnton io
Ġenhan ce
Ġscream ing
ĠArgent ina
Ġbarn stars
Ġliqu id
ĠOPIN ION
ocabul ary
) |
* .
: Â·
D ick
E lect
K now
P ER
R en
R oyal
S now
W ind
Y up
b ing
c ard
c ategory
c ury
d ie
f u
g s
h ir
l ie
o om
p ush
t ag
w l
w il
w olf
Å «
Ġ ??
Ġa ster
Ġth rew
in ction
re qu
re lla
is ch
is ive
Ġw inter
Ġw aves
Ġw reck
it les
Ġb ath
Ġp or
Ġp atch
Ġm ouse
Ġf ran
Ġf lav
Ġo d
Ġh ired
Ġd ign
ĠI RS
Ġin ject
ar u
ot ally
Ġbe loved
ent ry
ĠW restling
ĠW aters
he alth
Ġar ise
Ġar ranged
ig al
if ting
ĠC abal
Ġde gr
ĠB ast
ĠB log
ĠP ract
ĠM M
ĠM iles
ĠM erk
ĠM organ
ĠM TV
ĠM unicipality
and ed
ĠH es
ĠF ood
ri um
ri ev
Ġun anim
Ġun comfort
Ġun employ
ĠN W
ĠN ancy
ink imacowboy
ĠR F
ĠR T
ĠR ex
ĠR ico
ie u
ĠG L
ĠG M
Ġj ury
Ġj apan
Ġdis gu
Ġall iance
ard y
ish ops
Ġadd iction
Ġ- (
end i
ĠTh ompson
Ġrem edy
Ġen abled
Ġspe ct
Ġneed lessly
Ġres erv
Ġinform ations
ac ular
ĠV P
Ġrec ruit
Ġgr ass
oc he
Ġpar ks
ĠAnd erson
ĠAl b
Ġfuck s
Âł ĠĊ
Ġdec ency
be y
Ġinst ruction
ĠUn like
ys pace
ath inkimacowboy
Ġfound ations
Ġsc roll
Ġru ined
Ġwar rants
Ġbl ur
ang o
Ġaccept s
Ġinter change
Ġmin i
EN SE
ĠSe ven
Ġhigh way
Ġdirect ions
Ġsex y
Ġsex ually
Ġdist ortion
Ġbas es
Ġvar iants
iet ies
uk i
uk u
ĠPer ry
ĠPh oto
ĠEx cept
ĠEx ample
Ġhy ster
Ġep it
Ġpract iced
ĠIsrael is
eal ously
sc ar
sc reen
Ġparticip ant
eral a
Ġmoder ate
Ġsw astika
OP E
Ġcivil ized
Ġsuc cession
Ġfan cy
ĠGu ess
Ġcoll oqu
ĠOb ject
ĠFirst ly
Ġcoun sel
ĠSm ack
ĠAfD s
ĠÂ· :Â·
Ġprot o
ĠIndian a
199 6
Ġappe als
Ġanonymous ly
Ġsett ings
Ġten sion
Ġengine er
ĠHer itage
Cl ick
ĠAL SO
Rem ove
ĠRequest ed
Ġchalleng es
des ign
ĠGeorg ian
pub lish
Ġspell ings
Ġlif etime
Ġmisrepresent ed
ĠEDIT S
ĠKnow ledge
ĠJul ian
Ġmail ing
Ġarm ies
ĠUr du
Cons idering
plain ed
Ġeg reg
ĠRet urn
Ġeval uate
ĠFire fox
main stream
???????? ????????
Ġfemin ism
ĠSlo ven
Ġsac red
mmmm mmm
Jim bo
ĠRy ulong
ĠAssy rians
ĠMAN Y
ĠDet roit
dep th
ĠPicture s
NNNNNNNN NNNNNNNN
Ġunambig uous
Ġsatell ite
Ġresub mit
ĠArn old
Ĳâķ Ĳâķ
Ġlear nt
C ity
D ream
F uture
L ear
M essage
P rim
P NG
R ad
U krain
U ntil
W hether
c ool
c alling
h in
h im
h aul
n othing
p ossibly
s cient
w it
w ern
Ġ Ñ
Ġt ed
Ġt ennis
in ch
Ġw ire
ed ing
Ġb ibliography
Ġc rappy
Ġm all
Ġf u
Ġf uss
Ġh oney
Ġan x
Ġan ch
Ġd edu
Ġd ancing
al most
Ġe cho
ĠT on
ĠT ru
ĠT itan
Ġg al
Ġg ut
Ġg eek
ĠA A
ĠA y
ĠW ait
ĠS aid
ĠS onic
ig a
ere s
ch ant
ĠC ut
ĠC LE
op t
ol ithic
ĠB old
ĠB lu
ĠP U
ĠP ain
ĠP ENIS
ĠM aj
and i
Ġedit ting
ĠH yp
ĠD ance
ĠD raft
Ġex clusion
Ġun important
Ġv it
ĠN um
ĠN ord
ĠY O
ĠY u
pe ak
ĠG ov
ĠG REE
Ġj oking
nt own
Ġhe ated
ĠL ot
ĠE R
ĠE agle
ĠJ erry
Ġthere in
Ġqu ad
ong o
ge on
Ġam endment
pl ied
ĠK al
Ġcons olid
Ġunder ground
ser ies
ĠV atican
gu ide
ach i
Ġsp ark
Ġass im
Ġver dict
Ġevery time
Ġiss uing
Ġco ined
Ġcontin uation
ĠAr c
ĠAr gu
Ġinf amous
be hav
Ġfound ing
19 80
Ġinter wiki
man ia
Ġmon op
ĠNo ah
vern or
ĠPro per
AR B
ĠAll iance
Ġprocess ing
most ly
Ġdeb unk
Ġabs or
Ġmet ric
cont ributions
umb ai
ĠEx cellent
Ġstrong est
Ġart istic
Ġund is
pro per
Ġ14 2
Ġbelong ed
Ġdoubt ful
ev olution
ĠAust ria
ĠIT N
ĠAm ong
Ġpriv ately
ĠSpe cifically
Ġwik imedia
ĠIM Db
ĠSim pson
Ġhor ror
cel ona
Ġdemonstr ating
Ġcomb ine
ĠItal ians
Ġrecommend ations
Ġdecl aring
Ġtouch ing
ĠSam oa
ĠSov iets
Ġdetermin ation
Ġrul er
ĠRec ord
Ġasser ts
ĠShould n
Ph one
ĠCON S
ĠCoun ter
Ġhomosexual s
Tr ue
Int roduction
Ġpurs uing
Ser b
Ġarri val
ĠTry ing
Ġlif estyle
blog s
ÑĢ Ð°
ĠEth nic
Ġcorpor ation
Ġemer ged
Ġframe work
PE CT
Ġsymp athy
Ġrepublic an
Ġscrew ed
ĠPut in
ĠFin ancial
Ġwitness ed
Ġeval uation
po or
Ġgather ing
Ġacqu ired
isc rim
ĠFil ms
Ġintr ig
ucker berg
Ġrecre ated
Ġdim ension
Ġvary ing
Ġbigot ry
Ġacceler ation
Ġindirect ly
ĠGriff in
ĠMalays ia
Ġprovoc ative
Sus pected
ĠColor ado
Soc ial
Ġteleph one
ĠExec utive
ĠFÃ© in
Ġconject ure
Fav onian
ĠGON NA
) "",
A IV
B AN
B ull
B etter
C ry
C alling
E xt
F T
F unny
H ol
L ou
P an
P ages
Q uit
S emitism
d one
f b
f iles
g as
g lobal
i enced
l iter
m g
m os
n onsense
s ory
s uper
t il
t ered
v s
v id
z on
Â ®
Ã «
Ð ±
ä ¸
ç «
Ġ ]]
Ġ ÂłÂł
Ġt ant
Ġt ick
Ġw ann
ed e
ed ral
Ġb ol
Ġb ones
Ġc ad
Ġc ure
Ġc ath
Ġc ogn
le an
Ġp ist
Ġp df
Ġm udd
Ġan om
Ġd ensity
ic op
Ġin active
ar in
Ġre set
om ical
Ġe ase
ĠT ob
Ġnot ifying
id al
ĠA FA
im ir
ĠW riting
th ird
ĠS ue
ĠS ida
se cret
un ks
Ġst ir
Ġse al
ist ence
ĠB la
ĠB auder
ĠP oll
ĠP ossibly
ĠM oney
alk e
Ġr itual
Ġv ocabulary
ĠN in
Ġal ike
ĠR PG
ie ves
ĠG lo
ĠG len
ĠG amer
Ġdis ingen
ĠL INK
ĠL anc
Ġwould nt
ud os
end as
Ġint oler
Ġev asion
form atted
ĠK ay
ĠK erry
ov ic
ov ich
Ġch ip
Ġch ill
Ġres ent
ens ing
Ġrel ief
ĠV incent
Ġgr ind
!!!!!!!! !!!!!
Ġpr ince
Ġfe ces
Ġver bal
Ġref ern
ib an
lic an
Ġcur se
Ġstart ers
Ġmis read
Ġmess y
Re f
Ġbl own
land ers
Ġ4 1
app ro
Ġcol ony
sp ring
ier ce
Ġpos ed
Ġlog in
Ġval ign
Ġ9 3
Ġorgan isms
Ġdem ocrat
Ġpat rolling
ĠMar ia
ĠMar ie
rel igion
Ġmet ers
CH R
ĠJun ior
Ġmod s
Ġsepar ation
Ġhom ophobic
Ġcharacter ize
Ġcharacter ized
ĠTr ade
ĠGod s
Ġ# ;
ĠShe ll
af ford
iff s
Ġlab our
Ġben eath
spe ed
Ġaccess ed
medi ate
ĠAfric ans
do ing
ĠRes olution
rant ia
ke ys
ĠMU CH
ĠEvery body
Ġreject ing
inent al
ĠDE F
IR A
Ġregist ering
Ġho les
Ġcomprom ised
Americ ans
Ġfac ility
Add itionally
Res earch
Ġcompreh ension
Ġrout es
Ġfood s
Ġsummar ized
Ġload s
Ġvague ly
ĠStud y
ĠLiber ty
Ġhur ting
Ġswitch ing
Ġadmitted ly
Ġexplo s
ĠRon ald
ano ia
Ġprompt ed
Cur rently
ĠSystem s
Ġdiscover ies
ibl ings
ĠLouis iana
Ġautob iography
ĠAzerbai jani
ĠPD F
Ġannounce ment
Ev idence
Ġrend ered
Ret rieved
Ġham mer
ĠSOUR CES
Ġresign ation
Ġretire ment
ĠJosh ua
Ġgest ure
Ġdip shit
ĠCorpor ation
Mart in
Ġmyster ious
Ġrestaur ant
Ġfles h
ĠDy lan
ĠBirth day
Jose ph
Croat ian
emason ry
Ġuncomfort able
ĠSida way
B er
B udd
E urope
F rench
F CC
H en
L ady
M AN
M att
S on
T itle
W rong
W onder
b uild
c ott
c opyright
d umb
e enth
h it
i ology
k am
m embers
o ft
p ent
s upp
t ell
w art
á ĭ
Ġt u
re ll
re ction
Ġs lo
Ġs ikh
Ġs iblings
er ves
Ġw aters
or ian
Ġb id
Ġb uff
Ġb ald
Ġc uisine
Ġp ipe
Ġm aker
Ġf urn
Ġf uk
Ġh al
Ġh itting
Ġd an
Ġin ch
ar us
Ġre fered
Ġre nowned
Ġl ump
Ġl ousy
ĠT erm
ĠA OL
ĠW ard
ĠW ah
ĠW orks
ĠW OULD
st atus
th m
ĠS andy
ip es
Ġst ems
ĠC ob
ĠB ishop
ĠP ass
ĠP rison
ĠM ig
ir ms
Ġwas h
oo o
ĠF M
Ġne p
Ġk a
Ġk in
Ġr ural
ĠN ON
ĠN PA
ĠN BA
ĠY ES
Ġsome ones
ĠR SS
ĠR enaissance
Ġj azz
lo cation
ra cial
Ġdis l
ĠE SP
Ġno one
ĠU rantia
Ġam use
ree ks
pl ing
Ġrem ed
os ity
ear th
od ing
Ġch inese
Ġcomp let
Ġsub pages
ĠYOU C
ph oto
act ing
ĠV enezuel
ĠCh air
Ġ19 41
Ġpl ots
Ġsp elt
Ġfe e
Ġcl ique
Ġadmin ist
ope z
ĠHe avy
ale n
ĠIs a
Ġel ite
ond e
az ette
ING E
Ġro lling
Ġ4 9
ĠDe leting
ĠDI P
rip tion
ĠCom par
Ġmin us
Ġaw aiting
Ġ9 78
te ch
Ġret rieve
Ġbig oted
Ġobject ing
Ġuns uccessful
Ġvar ies
Ġaut ism
Ġsl ur
Ġsl ide
Ġassum es
de ath
Ġuseful ness
Ġsol o
Not able
Ġcar ing
ĠPr otection
Ġla pt
ĠBr un
Ġill usion
Ġill iterate
ĠTe a
arth y
Un iversity
cent ury
Ġfre aking
ĠWik ia
ĠWik inews
spe edy
ĠEn ough
Ġelect rons
Ġbot an
Ġoppos es
Ġscientific ally
Ġbott le
Ġinvestig ating
67 8
Ġfamiliar ize
Ġsuccess or
well er
ĠBel ieve
link ing
Ġbull do
199 1
199 2
Ġhost ing
Ġalleg iance
IR C
law s
Ġpred icted
sub mit
inf obox
ĠVANDAL IZ
Ġmal iciously
Ġreveal ing
ĠMor ris
ĠLib ya
acc ount
Ġtim estamp
Ġdise ases
Ġprohib it
Ġcustom s
Ġcustom er
âĺ º
Ġhur ricane
Ġwalk ed
Ġconsult ing
Gu ideline
Ġathe ists
Ġporn ography
ĠBoy s
Ġneigh bour
cell aneous
Ġopt ional
ĠPop ular
specific ally
Every thing
Ġimmig rant
ĠCare y
ĠId ent
Ġbureauc rats
Ġportray ed
ĠRick K
ĠKind ly
olk ata
Review er
Ġincompet ence
Ġchoo ses
(((( ((((
Ġirrit ating
rif ugal
Ġaccomp anied
WI W
Austral ian
ĠFriend s
ĠAbd ul
Ġlibr aries
ĠDj athinkimacowboy
Rich ard
ĠBatt alion
ĠOak land
ĠLen in
Ġrebutt al
ĠSoft ware
ĠREF ER
Ġjurisd iction
SYN TH
editer ranean
/ ~
C or
C ED
C ivility
D et
D ave
G ive
G MT
H itler
K S
M id
M ilitary
O fficial
R C
S ov
T est
b un
b red
b ird
b reed
b ias
c ock
h or
h att
j ad
k el
k ipedia
l ord
m aker
n u
n ership
r ust
u ent
v on
Å Ħ
ĩ âĪ
re levant
ou x
is se
is ition
Ġw id
Ġw ipe
at al
at isf
it ational
Ġb um
Ġb ishop
Ġb rave
Ġc rank
Ġc ache
le ans
le br
en cyclopedia
Ġp as
Ġp ile
Ġp ale
Ġto ilet
Ġm ah
Ġm akers
es la
Ġd ic
Ġd rew
ot le
Ġbe ars
Ġe rect
ĠT C
ĠT Y
ĠT ree
ĠT iger
Ġg ro
Ġg rief
ĠA in
ĠA mer
ĠA aron
ĠW ic
he arted
st s
st ed
st ates
ia o
ĠS aints
ĠC T
ĠC oul
ol ia
ist ant
ĠB in
ĠB orn
ĠB oe
ĠB aker
ĠM ol
oo f
ĠH amp
ĠH unt
Ġsh ield
ĠF T
ĠF er
ĠF ab
qu er
qu ake
ri ving
Ġne at
ĠD ad
ĠD OU
ul ates
Ġmy space
ĠN BC
em por
ĠR U
ĠR u
ĠR ow
Ġany how
ĠG or
ĠG ut
ĠG all
ĠG ran
lo go
Ġdis contin
ĠL it
ĠL iving
ĠE ff
ĠJ ad
ĠO z
Ġno b
ĠU pd
Ġint ense
Ġam ple
Ġpe jorative
iz able
ber ger
Ġcons cience
ans ki
com es
Ġgood bye
ĠV ik
ĠV el
ĠV erm
Ġbet ray
Ġpl s
Ġpl ug
Ġsp y
Ġver acity
AN GE
ĠAl aska
Ġ3 60
ĠRe agan
Ġche er
Ġser v
Ġcur sory
ĠUn it
Ġem peror
In formation
Ġ4 7
ĠDe an
Ġ[ ].
of ten
ĠĊĊ ĠĠ
als a
Ġprom o
otect ed
ĠCan adians
Ġfurther more
uss ie
Ġstat ue
ĠQ U
Ġorgan ic
Ġorgan ised
de b
ĠIN DI
arl ow
Ġtra iler
Ġrespect s
Ġcritic izing
Ġâ Ĥ
ĠCon stant
go vernment
Ġdeb atable
ĠMar g
Ġsound ed
Ġdep os
Ġdep icted
Ġfr owned
Ġabs ol
Not es
Ġdevelop er
omen cl
put able
Ġexperiment al
ĠSc ar
ĠTr uman
IL Y
raw l
ev il
Ġgl or
Ġjud icial
Ġsw ing
Ġneg lected
yn ch
Ġtem p
Ġpay ment
Ġlo vers
br idge
Ġbar rier
Ġce ased
ĠPR OP
Ġvers a
Ġcast es
Ġstruct ural
199 3
199 4
Ġsens es
some times
Ġmix ture
Con f
Ġattribut es
efin ition
Ġgain ing
à¤ °
ĠVer bal
Ġilleg ally
Ġilleg itimate
Ġlay er
Ġextra ordinary
ĠSoc cer
Ġaccident al
Ġcollect ing
Add ing
Ġbill ions
Ġnetwork ing
ĠQue bec
Ġliberal ism
Ġshame ful
UL T
ĠâĻ ¥
Ġamer ica
hemat ics
Ġbeat en
Ġom ission
ĠUp load
ĠMah ar
Ñģ Ðº
ĠAcadem ic
ĠMcC ain
ĠBal tic
Ġcelebr ate
Ġcook ies
Ġdream s
Ġju ven
ĠOs ama
ĠClass ical
ĠWay ne
Ġpersist ently
Ġfemin ist
ĠSqu ad
Ġcir cuit
ĠMod el
Ġvow els
Ġtrim med
Ġantis emitism
Ġrepet ition
Mis cellany
Palest ine
à¥ į
ĠBalk ans
Ġdepart ure
Ġpregn ant
Ġrect ify
ĠMast ers
Bas ically
Ġprest igious
ĠBase ball
Ġtransliter ation
Pers ian
Ġiniti ative
Wikiped ians
Ġvoc als
ĠShab azz
ĠCypri ots
ĠDISC USS
ĠGand hi
Ġgosp el
ĠMCC AIN
ĩâĪ Ĩ
. |
. ]]
: "
D ON
F a
F il
F ixed
H ome
H ung
H oly
S B
U mmmmmmm
_ %
b rain
c ribed
d ude
e ffic
j ournal
m ac
m uch
n ever
n ext
o ffic
r ak
r ina
t an
t able
t ools
u ana
v iv
y ering
ª âĻ«
Å Ľ
Î º
Ï ĥ
ï ½
Ġth ier
Ġs tic
Ġw elfare
at ant
Ġb ait
Ġc ig
Ġc yn
an che
Ġp our
Ġm it
Ġf ond
Ġh orn
Ġh indu
Ġn an
ar ms
Ġre nt
Ġre work
Ġbe gging
ve t
ag av
ĠT K
ut ers
ĠA j
ĠA ce
st y
st at
st ernet
th us
th reat
ĠS AD
ĠS ounds
ad ows
Ġcon sec
ĠC ad
ĠB ak
ĠB ron
ĠB urk
ĠB ask
Ġdo om
Ġdo ors
ĠM ik
ĠM ack
ĠM ills
and ing
ĠH orn
Ġsh irt
ĠF en
ĠF un
ul er
Ġr ising
ĠY ellow
Ġal ias
Ġal gebra
Ġpo et
Ġpo inter
ort ions
ĠL ess
Ġwor n
ĠJ ess
ĠJ enn
ĠJ ava
ĠJ esse
ĠO ri
ĠO dd
Ġ- ''''''
ĠU nd
ĠTh ai
ast ro
Ġpe ak
Ġsee ks
iz ophren
... ]
ub a
ove l
Ġch ap
Ġch ick
Ġch au
uck le
Ġsub div
Ġsub sections
com ments
ĠV oy
ĠV ern
ĠV oice
Ġacc um
Th ought
Ġgr udge
Ġpr one
Ġcomm itting
ru its
Ġop ens
ob ia
ĠAl ice
Ġmight y
ident ly
not ability
ĠThank you
Re illy
Ġinc arn
sh ort
Ġstand point
Ġbr idges
Ġsm iling
Ġcol leg
Ġmon archy
Ġdirect ors
AP P
AP S
Ġhead ers
Ġorgan izing
Ġgay s
Ġcent ered
Ġline age
Ġqual ities
col m
uk a
Ġpri est
ott a
Ġpass port
oph iles
Ġfin ite
Ġweek ly
Not ifying
Ġ17 2
cont rol
Ġmark er
]] )
ĠMe thod
ĠMe chan
Ġpers ian
Ġsw ift
Ġhome opathy
ĠAb u
Ġmot to
Ġneg lect
spe cies
Ġoper ates
Ġtreat s
Ġrele asing
ĠSpe ak
ĠBl ues
UM B
Ġformer ly
Request ing
Ġnegative ly
Ġincre ases
ĠÐ ½
ĠAdd ed
Ġbast ards
Ġcompet itive
ho ly
Ġredu ces
ĠFre der
Ġsyn onym
Ġord inal
ĠMag ic
Ġforget ting
ĠRich ards
pled ge
Ġfac ulty
ĠChan ges
Ġdamn ed
Ġhat note
Ġintegr ate
UE ST
vi ations
ĠAtt acks
Ġmiss ions
ĠSal v
Ġmechan isms
ĠâĻ ¦
ĠMad rid
Ġprev ail
Ġmut ually
was hing
Ġhur ry
check ing
ĠProp osed
Ġnick names
Ġcalc ulated
keep ing
ocol ate
Ġmanufact uring
Ġhumor ous
Ġvac uum
ĠSikh s
ĠTag ging
ĠAmb assador
ĠGar rison
Ġloose ly
ĠBab a
Ġintimid ate
Ġconfront ed
ĠGener ation
ĠStan ley
Ġbab ies
Ġembarrass ing
Ġcondem ned
doc ument
uuuu uuuu
Ġreck on
ĠWeek ly
ĠRail way
Ġpromin ently
hol m
ĠIce land
ĠSOUR CE
Ġmetaph ys
rif ice
ĠFish er
Ġelectric ity
Ġroutine ly
Ġoverturn ed
ĠBarbar o
commun ist
Ġâī Ī
Ġlad ies
Cap ital
Ġconqu ered
ĠCamer on
format ting
pher d
rill ic
ĠHugh es
Ġmiser able
Ġmodu le
ĠNapole on
Ġneolog ism
ĠOsset ia
Ġted ious
ĠDIP SHIT
Sov iet
) -
- >
? ...
B D
B osn
C our
D ar
F ox
G M
G lad
J acob
L O
R ouche
S han
b io
b ishop
c ip
c ode
f ocus
h az
h orn
j ob
n ch
r ik
t m
t ask
Ċ ĠĠĠĠĠĠĠ
Ġ Ê
Ġt il
Ġt ropical
Ġth y
in form
re z
Ġs ht
Ġs izes
Ġc unts
Ġto w
Ġm unicip
Ġf itting
es ar
Ġd ivid
ĠI b
ĠI ve
ot ype
Ġre iterate
"" âĢĶ
Ġl oses
ĠT S
ĠT OO
ĠT erry
ow ed
ĠA ryan
ĠA riel
ĠW ednesday
ĠS R
ĠS em
ĠS ie
am o
am ount
Ġ( :
un us
if ts
Ġst ones
ĠC W
ĠC reek
ĠB ud
ĠB ald
Ġor phan
ĠP P
ĠP USS
ĠM end
ĠM ine
ĠM AT
Ġme lan
ĠF ail
ĠD ac
ĠD uk
ĠD ipl
Ġk itten
Ġr ally
Ġr idd
Ġr abb
ter ior
ant ry
ĠN av
ĠN ames
ĠN HL
Ġcom pelled
pe ll
nd um
Ġj ealously
Ġdis orders
Ġdis semin
ĠL one
ĠE ur
ĠE mer
ĠE CW
ĠJ a
ĠJ ob
ud io
Ġag endas
ind a
ab ove
Ġout lines
pt o
ber y
ĠK ab
ĠK olkata
ap or
OU GH
ens en
Ġatt raction
ass y
Ġgu ards
Ġrep os
Ġlist ened
ĠV ed
ĠV ice
Ġ19 58
Ġind ivid
Ġsp ade
Ġfe as
Ġpost al
cess or
ob viously
Ġgen eal
."" ,
orre nt
orre ction
ne ed
vel t
Ġprop ri
Ġconc er
Ġide als
Ġro de
Ġro gue
Ġexp ire
Ġ5 9
OR RECT
ang ar
Ġinter ference
app arently
ĠSh ar
ĠSh ikoku
ĠAmeric as
Ġexist ance
ĠBe aut
Ġ18 4
Ġap artment
Ġpur ple
Ġaccus es
St rong
Ġtra p
ĠLe v
Ġcritic ised
Ġprof iles
Ġprof anity
Ġmed als
ĠReg ion
Ġ15 00
ĠWH ICH
Ġworks hop
ĠX box
reg ular
Ġproof s
ĠMa o
ĠMa ur
Ġcomput ing
ĠAm anda
Ġoper ators
ĠDr ag
play ing
help s
Ex p
Ġz eal
Ġinit iate
ĠSw iss
Ġtrouble s
Ġblank et
Ġsatisf actory
ĠQu ack
ĠBel g
ho chman
Ġlength s
Ġemploy ment
ĠSup erman
Ġassist ant
ĠCommun ications
ĠMal ay
ĠCatholic ism
ĠAc cus
Ġdelay ed
ATION S
Ġri ot
IF IC
Ġencourage ment
ĠTAB TAB
Ġforth coming
Ġsup ers
pan sion
Ġvast ly
mark et
More over
Ġmanip ulated
ENS US
FR INGE
Ġran ges
Ġemb edded
Ġcolon ies
Pl ay
Ġbound ary
Ġdiag nosis
Block ing
Ġfant as
Ġcert ified
ĠTer rit
Bl ue
Ob ama
sign ature
Ġoverwhelming ly
Ġwel coming
Ġpil ots
ĠPasht un
ĠCorn ish
Ġital ian
ĠLim ited
Ġscrut in
Ġantis emitic
ĠPlan et
Ġrepet itive
Ġreprodu ce
Ġskep tical
thes es
Ġmetaph or
spons ible
Ġwa ited
Ġrefuge es
found er
Ġprepar ing
ĠLuc as
ĠSiles ia
Ġvind ictive
Ġexha ust
Ġdimin ish
Ġvo iced
Ġlone ly
Ġobsess ive
Ġencyl opedia
ĠTreat y
cru ft
ĠYOUC ALTLAS
Ġstic ks
B rian
C ite
C reation
D ont
E astern
F ort
H ot
M ind
M ary
O s
P olicy
R ay
R yan
R OBERT
S a
S ad
S un
W TF
b ast
c ult
e o
f eed
f ounded
h ook
r ub
t k
t le
v ian
Ċ ĠĠĠĠĠĠĠĠĠĠĠĠĠĠĠĠ
Ġt une
Ġthe olog
Ġthe atre
Ġs way
Ġw ore
Ġw iped
at abase
Ġb aiting
Ġc m
Ġc able
Ġc inema
le b
le z
an mar
en cer
al p
Ġn ail
ar med
ar agua
Ġre lent
Ġre venue
om bo
Ġbe ats
Ġe leg
Ġwh ichever
ĠT ab
Ġg reet
im on
ĠW A
ĠW restle
Ġar c
ĠS uck
ĠS ITE
ĠS ummary
ĠS queak
ĠC ell
ĠC onse
ĠC OULD
ĠC ultural
ĠP ure
ĠP ale
ĠP ok
ĠP retty
ĠM b
ĠM OR
ĠM iami
our i
ĠH old
Ġpro l
ĠF alse
ri ved
ĠD ES
ĠD ouble
ĠD erek
ĠD igital
Ġad verse
ust ers
Ġun controversial
ĠY ale
ĠG B
ĠG PS
ĠG host
Ġj et
lo on
ight s
ort ant
ĠL ance
ĠE B
la ch
Ġle n
ks h
ies el
âĢ ĭ
ud a
Ġint ensity
ge tic
ca u
ca ps
pt ure
... ).
ĠK lan
Ġmay or
ff iti
Ġres igned
per ian
Ġcomp ilation
ac ial
ac co
Ġnew bies
IN S
Ġfirst ly
ach es
ach ron
Ġcontribut es
Ġcop per
Ġadmin st
Ġprov isions
Ġche ating
ense iry
ĠAr k
ĠAr van
Ġcur ve
ĠThat cher
IT ED
Ġwar riors
ok an
ok ee
Ġins criptions
.... ""
Ġ7 00
ĠSh armila
Ġcol span
ĠĊĊ ĠĠĊ
sp orts
istrat ive
Ġext ract
Ġmon ument
Ġstr iking
ĠAd v
ĠBe g
ĠMy Space
ĠPOV s
Ġret ards
Ġless ons
ĠPro of
And y
res olved
Ġsystem ic
An th
An swer
Ġcent ers
amb a
DI CK
Ġsound track
Ġside bar
Ġart if
ET A
ĠSH E
ĠSc ots
ĠCl an
ĠCl ay
ĠRE ASON
Ġ13 0
Ġunc alled
Ġirre lev
ĠHar vey
Ġelect ro
ĠAss uming
off s
Ġmen u
Ġcor ne
ĠWith in
ĠList en
Ġdri vers
Ġpain ted
Good bye
Ġstruct ured
lin ary
199 0
ĠMo z
Ġsens ational
ĠMon th
Ġregist ry
Ġcommunic ating
Ass ume
ih ood
Ġbattle ground
Ġrock et
Americ a
ĠRec ently
boy s
Ġspend s
hh h
ghan istan
Ġfans ite
fa ces
ĠMed iation
lah oma
ĠRaj puts
Ġpiss ing
Tr uth
Ġfault y
Ġduplic ation
Ġdict ate
iling ual
Ġrelev ent
Ġalter ing
Ġmanip ulating
Ġattract ive
Ġbreed s
ĠWork ing
Ġfraud ulent
hot mail
ĠTy pe
Ġtab loid
Ġshock ing
Ġreb ell
Ġoblig ed
ĊĠĠĠĠĠĠĠĠ ĠĠĠĠĠĠ
ĠHall ow
Every one
Ġcart oons
friend s
Ġcolle ague
Ġhous ing
prof ile
Ġagg ression
Ġauthentic ity
Ġdim ensions
ĠLind a
allow ed
ĠInv est
histor ic
histor ical
Ġcompos er
Ġevid ences
ĠDub lin
ĠFal con
Ġgentle man
Ġ~~ ~
Ġcere mony
ĠHoll and
ĠUnivers al
Ġphysic ist
ĠRaw at
ĠLang an
ĠLithuan ian
ĠPublish ing
ĠLenn on
Ġretal iation
ĠMoroc co
Ġabbrev iation
ĠPrad esh
Germ any
ĠStew art
Ġvolt age
Ġbele ive
Ġthresh old
Ġegreg ious
ĠTitan ic
ç« ľ
' ""
7 00
A z
B UM
D in
D og
E V
F our
L U
L ISH
M ont
N ight
N obody
P od
S everal
Y ES
] :
b row
b ett
c riticism
c gi
e u
e ither
h on
h aving
i ates
l us
l ings
l ater
l ash
m n
m ph
n ice
s up
t rip
w arning
à ¦
Ġa rose
in ions
Ġs ou
Ġs ack
it ated
or ient
Ġb inding
le st
Ġp ir
Ġto oth
Ġto ken
Ġm ont
Ġd uties
ĠI A
ĠI ber
Ġn d
ar se
Ġl ip
Ġl ake
ent on
Ġe ternal
Ġwh ining
ĠT T
ĠT aking
Ġg ift
ow ell
id ered
ĠA qu
ĠA FC
ĠW ave
ĠW ool
ĠW rong
ĠW QA
st uff
st upid
ĠS N
ĠS ile
ĠS ense
ĠS ucks
ĠS outheast
Ġcon quest
Ġ( *
un n
ch us
Ġst rive
ĠC lim
ĠC REAT
Ġse per
Ġse ctor
Ġ"" {{
ĠB U
ĠB OTH
ĠB ugs
ĠP resent
ĠM ak
ĠM umbai
ĠH im
ĠH ip
Ġpro claim
Ġsh am
Ġsh out
ri ages
ĠD ab
ĠD oll
ĠD akota
Ġad oles
Ġun equ
Ġun delete
Ġr am
ĠN an
ink sternet
em y
ĠR andy
ĠG ust
ĠG ob
ĠG osp
ĠG raham
Ġj oy
Ġ2 13
Ġhas ty
um ed
Ġle ns
so lete
ack ing
ab ling
cl ick
rib ble
ĠYou th
Ġapp alling
ĠK un
ĠK az
ĠK KK
Ġch ase
Ġman us
Ġcomp iled
Ġimp osing
Ġcomment ators
ass ad
Ġpol ish
ĠSt ein
Ġdes ysop
Ġover la
ĠCh ap
ĠCh apter
Ġ19 66
Ġ19 62
Ġind is
Ġind ul
Ġob ey
Ġass es
LL O
ru le
Ġbelie ver
Ġph arm
Ġher ald
ĠAn on
Ġshe et
19 45
Ġcare d
ĠĠĠĠĠĠĠĠ ĠĠĠ
Ġfar ce
ĠCom ics
ĠSh aron
Ġkind ness
uff y
Ġdist ant
Ġdisc ern
ĠNOT E
Ġpret ext
And rew
Ġvar ieties
Ġmor ph
Ġset up
Ġsl urs
de velop
ax on
Ġdem ographic
ĠNot iceboard
ĠIN C
Ġcompl iant
ĠComm ander
Your s
co in
Ġmoron ic
Ġsk ip
lim ited
pro fessional
