{"<PAD>":0,"<UNK>":1,"!":2,"\"":3,"#":4,"$":5,"%":6,"&":7,"'":8,"(":9,")":10,"*":11,"+":12,",":13,"-":14,".":15,"/":16,"0":17,"1":18,"2":19,"3":20,"4":21,"5":22,"6":23,"7":24,"8":25,"9":26,":":27,";":28,"<":29,"=":30,">":31,"?":32,"@":33,"A":34,"B":35,"C":36,"D":37,"E":38,"F":39,"G":40,"H":41,"I":42,"J":43,"K":44,"L":45,"M":46,"N":47,"O":48,"P":49,"Q":50,"R":51,"S":52,"T":53,"U":54,"V":55,"W":56,"X":57,"Y":58,"Z":59,"[":60,"\\":61,"]":62,"^":63,"_":64,"`":65,"a":66,"b":67,"c":68,"d":69,"e":70,"f":71,"g":72,"h":73,"i":74,"j":75,"k":76,"l":77,"m":78,"n":79,"o":80,"p":81,"q":82,"r":83,"s":84,"t":85,"u":86,"v":87,"w":88,"x":89,"y":90,"z":91,"{":92,"|":93,"}":94,"~":95,"¡":96,"¢":97,"£":98,"¤":99,"¥":100,"¦":101,"§":102,"¨":103,"©":104,"ª":105,"«":106,"¬":107,"®":108,"¯":109,"°":110,"±":111,"²":112,"³":113,"´":114,"µ":115,"¶":116,"·":117,"¸":118,"¹":119,"º":120,"»":121,"¼":122,"½":123,"¾":124,"¿":125,"À":126,"Á":127,"Â":128,"Ã":129,"Ä":130,"Å":131,"Æ":132,"Ç":133,"È":134,"É":135,"Ê":136,"Ë":137,"Ì":138,"Í":139,"Î":140,"Ï":141,"Ð":142,"Ñ":143,"Ò":144,"Ó":145,"Ô":146,"Õ":147,"Ö":148,"×":149,"Ø":150,"Ù":151,"Ú":152,"Û":153,"Ü":154,"Ý":155,"Þ":156,"ß":157,"à":158,"á":159,"â":160,"ã":161,"ä":162,"å":163,"æ":164,"ç":165,"è":166,"é":167,"ê":168,"ë":169,"ì":170,"í":171,"î":172,"ï":173,"ð":174,"ñ":175,"ò":176,"ó":177,"ô":178,"õ":179,"ö":180,"÷":181,"ø":182,"ù":183,"ú":184,"û":185,"ü":186,"ý":187,"þ":188,"ÿ":189,"Ā":190,"ā":191,"Ă":192,"ă":193,"Ą":194,"ą":195,"Ć":196,"ć":197,"Ĉ":198,"ĉ":199,"Ċ":200,"ċ":201,"Č":202,"č":203,"Ď":204,"ď":205,"Đ":206,"đ":207,"Ē":208,"ē":209,"Ĕ":210,"ĕ":211,"Ė":212,"ė":213,"Ę":214,"ę":215,"Ě":216,"ě":217,"Ĝ":218,"ĝ":219,"Ğ":220,"ğ":221,"Ġ":222,"ġ":223,"Ģ":224,"ģ":225,"Ĥ":226,"ĥ":227,"Ħ":228,"ħ":229,"Ĩ":230,"ĩ":231,"Ī":232,"ī":233,"Ĭ":234,"ĭ":235,"Į":236,"į":237,"İ":238,"ı":239,"Ĳ":240,"ĳ":241,"Ĵ":242,"ĵ":243,"Ķ":244,"ķ":245,"ĸ":246,"Ĺ":247,"ĺ":248,"Ļ":249,"ļ":250,"Ľ":251,"ľ":252,"Ŀ":253,"ŀ":254,"Ł":255,"ł":256,"Ń":257,"Ġt":258,"Ġa":259,"Ġth":260,"in":261,"re":262,"on":263,"ou":264,"Ġthe":265,"Ġs":266,"er":267,"is":268,"Ġw":269,"at":270,"it":271,"ed":272,"or":273,"Ġb":274,"Ġc":275,"le":276,"an":277,"en":278,"Ġp":279,"ing":280,"Ġto":281,"Ġm":282,"Ġf":283,"Ġo":284,"Ġh":285,"Ġan":286,"es":287,"Ġd":288,"al":289,"ĠI":290,"ic":291,"Ġy":292,"Ġn":293,"Ġyou":294,"Ġof":295,"Ġin":296,"ar":297,"ion":298,"as":299,"Ġand":300,"ot":301,"Ġre":302,"om":303,"us":304,"Ġis":305,"Ġbe":306,"ve":307,"ly":308,"Ġthat":309,"ll":310,"\"\"":311,"Ġl":312,"Ġit":313,"Ġon":314,"ent":315,"ag":316,"ct":317,"Ġe":318,"Ġwh":319,"ĠT":320,"Ġg":321,"ut":322,"ow":323,"Ġnot":324,"id":325,"Ġfor":326,"ĠA":327,"im":328,"ĠW":329,"he":330,"ik":331,"ld":332,"ce":333,"ro":334,"ver":335,"Ġha":336,"st":337,"ay":338,"Ġas":339,"th":340,"tic":341,"Ġar":342,"ia":343,"ĠS":344,"ig":345,"se":346,"ere":347,"ck":348,"ad":349,"Ġcon":350,"am":351,"Ġthis":352,"ith":353,"Ġ(":354,"un":355,"ch":356,"ation":357,"age":358,"ticle":359,"if":360,"ĠĠ":361,"ip":362,"Ġare":363,"Ġarticle":364,"Ġst":365,"Ġhave":366,"ould":367,"ĠC":368,"Ġse":369,"out":370,"op":371,"ol":372,"Ġwith":373,"ist":374,"'s":375,"Ġde":376,"Ġ\"\"":377,"ate":378,"ĠB":379,"Ġyour":380,"Ġdo":381,"Ġor":382,"ĠP":383,"ome":384,"Ġsu":385,"ĠM":386,"ir":387,"et":388,"'t":389,"Ġwas":390,"edia":391,"our":392,"Ġus":393,"and":394,"ers":395,"Ġme":396,"!!":397,"il":398,"est":399,"ĠĊ":400,"ill":401,"el":402,"edit":403,"Ġat":404,"Ġedit":405,"ak":406,"ikip":407,"..":408,"Ġab":409,"ur":410,"ht":411,"ain":412,"oo":413,"ikipedia":414,"rom":415,"ĠH":416,"ore":417,"pp":418,"Ġpro":419,"Ġsh":420,"ĠF":421,"qu":422,"ri":423,"Ġne":424,"Ġpage":425,"ĠD":426,"ul":427,"Ġad":428,"ble":429,"Ġbut":430,"alk":431,"Ġk":432,"ust":433,"Ġex":434,"Ġun":435,"Ġr":436,"ment":437,"ter":438,"Ġv":439,"Ġmy":440,"ant":441,"ĠN":442,"Ġwe":443,"ase":444,"ĠY":445,"ally":446,"Ġcom":447,"let":448,"Ġcan":449,"Ġfrom":450,"pe":451,"Ġsome":452,"Ġby":453,"ink":454,"ĠThe":455,"Ġal":456,"em":457,"Ġcont":458,"ĠR":459,"Ġso":460,"Ġany":461,"han":462,"nd":463,"ĠWikipedia":464,"ie":465,"ĠG":466,"Ġj":467,"Ġabout":468,"nt":469,"ss":470,"Ġ2":471,"ther":472,"lo":473,"ive":474,"ight":475,"up":476,"Ġ\"":477,"Ġhe":478,"ra":479,"Ġ1":480,"ike":481,"Ġpo":482,"Ġdis":483,"one":484,"ces":485,"Ġif":486,"00":487,"ort":488,"Ġhas":489,"ity":490,"ĠL":491,"Ġall":492,"lease":493,"Ġwor":494,"ions":495,"ĠE":496,"ame":497,"Ġwould":498,"Ġwill":499,"la":500,"um":501,"ard":502,"ĠJ":503,"ich":504,"Ġthere":505,"Ġle":506,"Ġlike":507,"ry":508,"Ġwhat":509,"ish":510,"ĠO":511,"now":512,"Ġim":513,"ks":514,"Ġone":515,"ies":516,"ect":517,"Ġadd":518,"âĢ":519,"ite":520,"ous":521,"Ġdelet":522,"Ġfa":523,"der":524,"Ġ-":525,"ated":526,"iv":527,"oug":528,"so":529,"Ġjust":530,"Ġthey":531,"Ġno":532,"Ġbeen":533,"use":534,"ake":535,"Ġtalk":536,"Ġwho":537,"ian":538,"Ġknow":539,"ure":540,"ud":541,"Ġqu":542,"Ġag":543,"ack":544,"art":545,"Ġshould":546,"ind":547,"ĠU":548,"ong":549,"Ġup":550,"Ġdon":551,"end":552,"Ġint":553,"ge":554,"Ġwhich":555,"ĠTh":556,"Ġother":557,"Ġsour":558,"ue":559,"Ġam":560,"Ġmore":561,"ca":562,"og":563,"ree":564,"pl":565,"very":566,"Ġac":567,"ab":568,"!!!!":569,"Ġthink":570,"cl":571,"ial":572,"Ġgo":573,"all":574,"rit":575,"ĊĊ":576,"ast":577,"ide":578,"Ġrem":579,"Ġmo":580,"for":581,"os":582,"Ġout":583,"Ġev":584,"ĠIf":585,"pt":586,"Ġpe":587,"lock":588,"her":589,"Ġhere":590,"ĠIt":591,"fere":592,"cus":593,"ction":594,"Ġpre":595,"ess":596,"ople":597,"Ġhis":598,"ell":599,"able":600,"ime":601,"Ġdid":602,"are":603,"cause":604,"Ġsee":605,"ine":606,"ire":607,"ound":608,"Ġuse":609,"rib":610,"The":611,"ĠYou":612,"Ġen":613,"iz":614,"Ġspe":615,"ages":616,"ook":617,"Ġapp":618,"Ġthan":619,"'m":620,"ough":621,"...":622,"Ġpeople":623,"ary":624,"ood":625,"Ġsay":626,"Ġdoes":627,"Ġbecause":628,"ory":629,"ber":630,"sion":631,"form":632,"CK":633,"ign":634,"ĠK":635,"ear":636,"int":637,"Ġthem":638,"ap":639,"ub":640,"Ġonly":641,"ew":642,"ject":643,"od":644,"Ġmay":645,"ors":646,"ious":647,"ence":648,"erson":649,"Ġget":650,"ove":651,"ism":652,"thing":653,"ep":654,"lf":655,"Ġneed":656,"Ġtr":657,"Ġwere":658,"Ġarticles":659,"Ġcons":660,"Ġalso":661,"ov":662,"ice":663,"Ġtime":664,"OU":665,"Ġch":666,"Ġhow":667,"uck":668,"Ġwant":669,"ĠâĢ":670,"ci":671,"ff":672,"Ġres":673,"ose":674,"Ġthen":675,"Ġblock":676,"Ġman":677,"per":678,"iew":679,"ced":680,"Ġwhen":681,"Ġbeing":682,").":683,"Ġlink":684,"Ġtheir":685,"ile":686,"Ġdiscus":687,"ens":688,"elp":689,"Ġunder":690,"Ġperson":691,"Ġi":692,"ount":693,"ĠĠĠĠ":694,"Ġchan":695,"ations":696,"ans":697,"ical":698,"Ġcomp":699,"Ġact":700,"feren":701,"vert":702,"Ġatt":703,"ult":704,"self":705,"Ġinform":706,"Ġ200":707,"Ġagain":708,"ict":709,"Ġread":710,"Ġhad":711,"ac":712,"Ġmake":713,"Ġcre":714,"ĠWh":715,"Ġsub":716,"Ġimp":717,"ex":718,"ER":719,"Ġwork":720,"ĠYOU":721,"''":722,"ph":723,"ser":724,"min":725,"Ġcomment":726,"Ġnow":727,"ass":728,"Ġhelp":729,"'ve":730,"Ġplease":731,"ade":732,"Ġgu":733,"Ġwhy":734,"Ġfact":735,"ings":736,"Ġrel":737,"Ġrep":738,"Ġway":739,"ason":740,"Ġoff":741,"Ġeven":742,"ĠThan":743,"Ġpol":744,"Ġper":745,"Ġinformation":746,"Ġcould":747,"com":748,"act":749,"Ġwr":750,"iki":751,"Ġvery":752,"ĠPlease":753,"Ġbel":754,"les":755,"Ġlist":756,"irst":757,"Ġpoint":758,"Ġsa":759,"11":760,"andal":761,"con":762,"ribut":763,"Ġnew":764,"Ġuser":765,"ress":766,"ĠIn":767,"ĠThis":768,"Ġquest":769,"fore":770,"Ġgood":771,"ific":772,"Ġsources":773,"Ġdeletion":774,"Ġsuch":775,"ĠSt":776,"Ġlook":777,"ual":778,"uch":779,"Ġpages":780,"UCK":781,"ĠV":782,"Ġname":783,"ention":784,"Ġmat":785,"ick":786,"ince":787,"Ġdes":788,"Ġacc":789,"way":790,"Ġits":791,"ition":792,"ance":793,"gu":794,"Ġseem":795,"Ġbet":796,"Ġback":797,"'re":798,"Ġover":799,"ĠCh":800,"ful":801,"other":802,"clud":803,"wn":804,"av":805,"Ġsource":806,"ĠWP":807,"ates":808,"Ġreason":809,"Ġ'":810,"Ġedits":811,"reat":812,"Ġremov":813,"ail":814,"Ġfind":815,"Th":816,"Ġsection":817,"Ġediting":818,"//":819,"Ġpla":820,"==":821,"IN":822,"itt":823,"lish":824,"oll":825,"Ġ19":826,"Ġvandal":827,"Ġind":828,"Ġrec":829,"Ġfirst":830,"Ġmade":831,"ach":832,"arn":833,"Ġwell":834,"Ġhim":835,"Ġgr":836,"Ġrevert":837,"Ġreferen":838,"Ġthese":839,"RE":840,"oc":841,"ple":842,"Ġpar":843,"ord":844,"ah":845,"ually":846,"ote":847,"Ġpl":848,"!!!!!!!!":849,"UT":850,"Ġcontribut":851,"Ġused":852,"ty":853,"Ġpr":854,"Ġask":855,"Ġsp":856,"ng":857,"Ġtoo":858,"You":859,"Ġmuch":860,"erm":861,"Ġtw":862,"Ġpart":863,"Ġcle":864,"come":865,"Ġob":866,"fter":867,"cy":868,"cept":869,"Ġass":870,"Ġfe":871,"Ġtry":872,"Ġright":873,"du":874,"Ġdif":875,"Ġinto":876,"Ġreally":877,"Ġwhere":878,"Ġdeleted":879,"),":880,"Ġmost":881,"Ġcop":882,"ise":883,"arch":884,"Ġcomm":885,"Ġtag":886,"gg":887,"Ġdiscussion":888,"AT":889,"Ġsame":890,"Ġsupp":891,"ied":892,"ost":893,"Ġver":894,"Ġinclud":895,"Ġcl":896,"Ġevery":897,"Ġrequ":898,"Ġsim":899,"Ġown":900,"ating":901,"ever":902,"Ġhist":903,"Ġmany":904,"nn":905,"AN":906,"Ġword":907,"ĠTH":908,"LL":909,"Ġadmin":910,"Ġref":911,"ru":912,"own":913,"ave":914,"Ġpost":915,"Ġreg":916,"ved":917,"Ġexpl":918,"Ġop":919,"Than":920,"cess":921,"\"\".":922,"ting":923,"ib":924,"oth":925,"Ġbefore":926,"aking":927,"Ġthose":928,"read":929,"Ġcall":930,"ww":931,"ob":932,"ĠAnd":933,"Wh":934,"Ġgen":935,"ox":936,"Ġconsid":937,"aa":938,"tp":939,"laim":940,"ĠAl":941,"ext":942,"://":943,"01":944,"Ġ3":945,"talk":946,"Ġiss":947,"olog":948,"'ll":949,"ility":950,"Ġdef":951,"Ġcopy":952,".\"\"":953,"Ġcontent":954,"tern":955,"ĠRe":956,"ope":957,"arly":958,"right":959,"Ġco":960,"Ġent":961,"Ġbelie":962,"orre":963,"Ġprov":964,"blem":965,"Ġpolic":966,"Ġsomeone":967,"Ġstate":968,"Ġspec":969,"raph":970,"view":971,"Ġtwo":972,"ged":973,"less":974,"Ġyear":975,"ten":976,"Ġfuck":977,"Ġke":978,"Ġafter":979,"Ġsaid":980,"Ġstill":981,"Ġcrit":982,"ne":983,"mer":984,"yy":985,"Ġput":986,"Ġclaim":987,"Ġgoing":988,"red":989,"Ġsince":990,"Ġsomething":991,"vers":992,"Ġproblem":993,"ons":994,"stand":995,"erest":996,"rop":997,"inal":998,"Ġph":999,"ased":1000,"Ġblocked":1001,"ered":1002,"uth":1003,"pect":1004,"ee":1005,"ible":1006,"Ġher":1007,"ĠHow":1008,"Ġwrit":1009,"Ġche":1010,"rat":1011,"lic":1012,"ense":1013,"Ġinv":1014,"ark":1015,"ines":1016,"Ġshow":1017,"Ġsubject":1018,"Ġwithout":1019,"iable":1020,"Ġmention":1021,"Ġtop":1022,"ments":1023,"orrect":1024,"UTC":1025,"Ġour":1026,"ĠHe":1027,"Ġcit":1028,"Ġcontin":1029,"elcome":1030,"Ġmean":1031,"ĠAr":1032,"Ġadded":1033,"Ġinterest":1034,"Ġsure":1035,"Ġimage":1036,"tain":1037,"hing":1038,"Ġtake":1039,"Ġmight":1040,"Ġser":1041,"ought":1042,"Ġweb":1043,"Ġview":1044,"ily":1045,"Ġeditors":1046,"ild":1047,"WW":1048,"ving":1049,"Ġcur":1050,"Ġconf":1051,"ON":1052,"oy":1053,"Ġremoved":1054,"Ġplace":1055,"ug":1056,"Ġlong":1057,"rent":1058,"ĠAs":1059,"Ġquestion":1060,"ollow":1061,"ĠTalk":1062,"Ġstart":1063,"Ġinf":1064,"OT":1065,"ĠThere":1066,"vious":1067,"ĠThanks":1068,"we":1069,"Ġfree":1070,"ggest":1071,"ft":1072,"Âł":1073,"Ġdoesn":1074,"ĠBut":1075,"Ġdec":1076,"ather":1077,"ern":1078,"ale":1079,"be":1080,"Ġstop":1081,"Ġunderstand":1082,"sent":1083,"ative":1084,"ards":1085,"Ġcase":1086,"the":1087,"ize":1088,"ĠIs":1089,"ĠSo":1090,"Ġday":1091,"Ġyourself":1092,"Ġpub":1093,"Ġdone":1094,"ident":1095,"irect":1096,"ven":1097,"Ġattack":1098,"If":1099,"Ġreal":1100,"Ġsign":1101,"ST":1102,"ral":1103,"OV":1104,"ably":1105,"Ġsuggest":1106,"Ġmis":1107,"Ġlet":1108,"ĠThat":1109,"Ġfollow":1110,"Ġfeel":1111,"not":1112,"Ġnever":1113,"Ġbetter":1114,"Ġel":1115,"Ġpersonal":1116,"Ġanother":1117,"ational":1118,"gr":1119,"ics":1120,"Ġmess":1121,"Ġwikipedia":1122,"Ġinst":1123,"ĠĠĊ":1124,"ran":1125,"ont":1126,"This":1127,"Ġorig":1128,"Ġseems":1129,"mm":1130,"It":1131,"Ġspeed":1132,"Ġ.":1133,"Ġbelieve":1134,"Ġusing":1135,"Ġanything":1136,"ring":1137,"Ġhapp":1138,"Ġkeep":1139,"ond":1140,"ĠUn":1141,"ĠAn":1142,"ys":1143,"Ġhistory":1144,"led":1145,"Ġthings":1146,"Hi":1147,"Ġnum":1148,"Ġrequest":1149,"ĠĠĠ":1150,"\"\",":1151,"ath":1152,"Ġbi":1153,"??":1154,"ars":1155,"Ġgiv":1156,"ix":1157,"Please":1158,"az":1159,"Ġsupport":1160,"ĠAN":1161,"ĠThank":1162,"Ġhope":1163,"wh":1164,"Ġcheck":1165,"Ġcomments":1166,"Ġlinks":1167,"Ġdesc":1168,"Ġcopyright":1169,"ready":1170,"'d":1171,"old":1172,"here":1173,"igh":1174,"aw":1175,"cycl":1176,"Ġdiscuss":1177,"ians":1178,"Ġagree":1179,"Ġbit":1180,"ute":1181,"ists":1182,"Ġgener":1183,"Ġthing":1184,"lect":1185,"Ġagainst":1186,"cyclop":1187,"imes":1188,"vel":1189,"Ġdidn":1190,"IT":1191,"Ġwrong":1192,"Ġopin":1193,"Ġshe":1194,"Ġalready":1195,"akes":1196,"Ġthr":1197,"ither":1198,"ĠTHE":1199,"Ġpolicy":1200,"Ġterm":1201,"ull":1202,"Ġfound":1203,"Ġexam":1204,"Ġform":1205,"ically":1206,"Ġcount":1207,"Ġexplain":1208,"Ġte":1209,"ĠWe":1210,"Re":1211,"ann":1212,"Ġboth":1213,"Ġsc":1214,"Ġru":1215,"ittle":1216,"Ġcurrent":1217,"Ġtext":1218,"Thanks":1219,"ace":1220,"Ġnote":1221,"Ġem":1222,"ool":1223,"Ġeditor":1224,"ferent":1225,"Ġresp":1226,"::":1227,"ames":1228,"ĠâĢ¢":1229,"19":1230,"ature":1231,"~~":1232,"empl":1233,"Ġchange":1234,"Ġactually":1235,"ĠFUCK":1236,"IG":1237,"Ġcorrect":1238,"Ġremove":1239,"ED":1240,"Ġelse":1241,"Ġprop":1242,"org":1243,"Ġvandalism":1244,"thers":1245,"Ġfew":1246,"Ġaccount":1247,"Ġwelcome":1248,"Ġdifferent":1249,"ify":1250,"aj":1251,"yle":1252,"ING":1253,"oup":1254,"In":1255,"ited":1256,"Ġtrying":1257,"Ġwar":1258,"Ġabove":1259,"ateg":1260,"Ġreview":1261,"Ġothers":1262,"ife":1263,"lev":1264,"ĠWhat":1265,"Ġexper":1266,"ĠEng":1267,"Ġconc":1268,"Ġwon":1269,"Ġmain":1270,"Ġbl":1271,"Ġsy":1272,"Ġnothing":1273,"Ġlittle":1274,"ooks":1275,"ensus":1276,"Ġide":1277,"land":1278,"Ġmust":1279,"Ġro":1280,"Ġexp":1281,"any":1282,"orry":1283,"Ġfair":1284,"Ġcare":1285,"Ġimport":1286,"lete":1287,"Ġissue":1288,"Ġthough":1289,"Ġgreat":1290,"AL":1291,"cond":1292,"Ġappear":1293,"ges":1294,"Ġsent":1295,"AH":1296,"Ġ4":1297,"Ġ5":1298,"Ġyears":1299,"Ġpartic":1300,"ĠDe":1301,"ĠâĢĶ":1302,"ertain":1303,"Ġinc":1304,"Ġencyclop":1305,"Ġconsider":1306,"angu":1307,"ular":1308,"Ġgot":1309,"sh":1310,"uy":1311,"Ġguid":1312,"Ġquestions":1313,"ody":1314,"ves":1315,"Ġwhile":1316,"meric":1317,"ograph":1318,"Ġend":1319,"ok":1320,"Ġposs":1321,"Ġtell":1322,"Ġmaking":1323,"Ġlast":1324,"Ġ[":1325,"ply":1326,"Ġcontinue":1327,"ĠIP":1328,"Ġ,":1329,"Ġet":1330,"Ġanyone":1331,"ues":1332,"Ġprob":1333,"ĠDI":1334,"osed":1335,"Ġthought":1336,"erial":1337,"Ġstand":1338,"ĠDo":1339,"Ġthrough":1340,"aps":1341,"Ġspeedy":1342,"Ġgive":1343,"Ġaddress":1344,"OR":1345,"Ġrather":1346,"pr":1347,"ang":1348,"Ġreference":1349,"ey":1350,"Ġaccept":1351,"its":1352,"Ġins":1353,"ead":1354,"Ġsays":1355,"Ġ201":1356,"Ġwebs":1357,"Ġlot":1358,"__":1359,"urther":1360,"Ġreport":1361,"Ġargu":1362,"Ġinter":1363,"Ġnon":1364,"Ġreliable":1365,"of":1366,"OL":1367,"me":1368,"Ġ|":1369,"urn":1370,"....":1371,"Ġcome":1372,"ĠĠĠĠĠĠĠĠ":1373,"Ġvi":1374,"idence":1375,"Ġdoing":1376,"ater":1377,"Ġfar":1378,"Ġcour":1379,"app":1380,"ution":1381,"Ġguidel":1382,"Ġsimply":1383,"Ġbr":1384,"upp":1385,"Ġdefin":1386,"ways":1387,"Ġbest":1388,"Ġmaterial":1389,"Ġcreated":1390,"Ġsch":1391,"Ġ7":1392,"Ġworld":1393,"ĠYour":1394,"ified":1395,"Ġleast":1396,"Ġlangu":1397,"ately":1398,"ES":1399,"Ġcriter":1400,"Ġreferences":1401,"Ġ)":1402,"ween":1403,"rip":1404,"Ġplay":1405,"âĢĻ":1406,"ropri":1407,"load":1408,"ents":1409,"Ġrecent":1410,"Ġtit":1411,"Ġleave":1412,"Ġisn":1413,"Ġoriginal":1414,"ĠCom":1415,"Ġht":1416,"Ġ6":1417,"ello":1418,"Ġwarn":1419,"Ġsm":1420,"Ġprobably":1421,"search":1422,"Ġgroup":1423,"Ġenough":1424,"=\"\"":1425,"!!!!!!!!!!!!!!!!":1426,"cc":1427,"Ġadding":1428,"omin":1429,"orn":1430,"Ġdown":1431,"man":1432,"http":1433,"Ġhttp":1434,"ĠSh":1435,"Ġaround":1436,"ĠWiki":1437,"Ġetc":1438,"Ġsite":1439,"Ġtempl":1440,"ĠFor":1441,"ided":1442,"Ġauth":1443,"ĠAmeric":1444,"Ġbetween":1445,"Ġopinion":1446,"Ġca":1447,"Ġcertain":1448,"Ġcol":1449,"Ġexist":1450,"Ġwiki":1451,"Ġbad":1452,"ĠĊĊ":1453,"mage":1454,"Ġrest":1455,"IS":1456,"sw":1457,"Ġreverted":1458,"Ġdelete":1459,"Ġimpro":1460,"Ġexample":1461,"Ġconsensus":1462,"Ġold":1463,"gan":1464,"Ġwrite":1465,"ĠEnglish":1466,"atch":1467,"Ġbeh":1468,"err":1469,"Ġusers":1470,"OM":1471,"sp":1472,"Ġmatter":1473,"Ġunt":1474,"als":1475,"Ġmin":1476,"icture":1477,"ock":1478,"''''":1479,"ret":1480,"Ġeither":1481,"Ġ8":1482,"Ġav":1483,"ropriate":1484,"istrat":1485,"Ġty":1486,"ier":1487,"Ġpos":1488,"aaaa":1489,"Ġprodu":1490,"ĠUS":1491,"Ġext":1492,"Ġcalled":1493,"Ġconcern":1494,"Ġeff":1495,"Ġmon":1496,"ĠAlso":1497,"Ġlog":1498,"Ġspecific":1499,"12":1500,"ability":1501,"Ġimportant":1502,"Ġresearch":1503,"ĠHowever":1504,"ren":1505,"Ġclear":1506,"Ġdisp":1507,"Ġregard":1508,"Ġcontributions":1509,"www":1510,"day":1511,"EN":1512,"Ġred":1513,"Ġkind":1514,"io":1515,"ef":1516,"ology":1517,"Ġviol":1518,"yyyy":1519,"Ġbook":1520,"AG":1521,"ĠSUCK":1522,"Ġneeds":1523,"Ġlife":1524,"oh":1525,"Ġcommun":1526,"nnnn":1527,"Ġnotable":1528,"Ġchar":1529,"levant":1530,"ized":1531,"ĠSe":1532,"Ġmessage":1533,"uyuy":1534,"Ġprom":1535,"Ġsumm":1536,"ĠNew":1537,"Ġtrans":1538,"ese":1539,"rist":1540,"Ġnumber":1541,"tyty":1542,"ruct":1543,"ank":1544,"Ġaw":1545,"ower":1546,"ts":1547,"ĠUser":1548,"haps":1549,"Ġval":1550,"ĠIS":1551,"Ġ20":1552,"ised":1553,"Ġ9":1554,"Ġevidence":1555,"Ġnotice":1556,"Ġnor":1557,"OO":1558,"ities":1559,"Ġwebsite":1560,"Ġversion":1561,"amp":1562,"hip":1563,"Ġsit":1564,"te":1565,"Ġmem":1566,"ision":1567,"uff":1568,"Ġconst":1569,"Ġever":1570,"Ġhigh":1571,"Ġclearly":1572,"Ġlead":1573,"Ġfun":1574,"Ġsecond":1575,"tion":1576,"Ġallow":1577,"ract":1578,"FF":1579,"ember":1580,"Ġadv":1581,"Ġcriteria":1582,"Ġencyclopedia":1583,"Ġdirect":1584,"ĠThey":1585,"Ġmove":1586,"empt":1587,"Ġgiven":1588,"20":1589,"Ġpicture":1590,"air":1591,"Ġcomplete":1592,"10":1593,"Hello":1594,"ging":1595,"Ġalways":1596,"Ġinvol":1597,"Ġsaying":1598,"utral":1599,"Ġquite":1600,"Ġimages":1601,"Ġlanguage":1602,"Ġhaving":1603,"AHAH":1604,"bers":1605,"Ġwritten":1606,"Ġstr":1607,"Ġcontro":1608,"Ġwhe":1609,"cial":1610,"ric":1611,"Ġobvious":1612,"Ġpresent":1613,"Ġguidelines":1614,"Ġfl":1615,"Ġyet":1616,"Ġupload":1617,"box":1618,"ID":1619,"ĠAd":1620,"Ġtrue":1621,"Ġleg":1622,"Ġ0":1623,"ĠBe":1624,"Ġdet":1625,"att":1626,"Ġpublic":1627,"riend":1628,"lished":1629,"Ġmakes":1630,"Ġconsidered":1631,"ĠMy":1632,"Ġfam":1633,"cient":1634,"ĠPOV":1635,"ĠNo":1636,"14":1637,"What":1638,"Ġsex":1639,"Ġcannot":1640,"Ġansw":1641,"otect":1642,"ĠCan":1643,"WWWW":1644,"ony":1645,"Ġtri":1646,".\"":1647,"Ġwords":1648,"Ġclo":1649,"ets":1650,"oun":1651,"ash":1652,"ĠInd":1653,"1111":1654,"Ġstud":1655,"Ġwhether":1656,"Ġhard":1657,"Ġtest":1658,"Ġhand":1659,"Ġuntil":1660,"How":1661,"000":1662,"Ġwish":1663,"ajor":1664,"Ġchanges":1665,"Ġfurther":1666,"Ġidea":1667,"18":1668,"Ġdist":1669,"line":1670,"veral":1671,"Ġrefer":1672,"22":1673,"iss":1674,"Ġmeans":1675,"Ġwee":1676,"Thank":1677,"Ġhappen":1678,"Ġauthor":1679,"Ġleft":1680,"ots":1681,"Ġ&":1682,"Ġsing":1683,"OCK":1684,"IC":1685,"Ġseveral":1686,"Ġlisted":1687,"Ġinstead":1688,"Ġret":1689,"ger":1690,"ork":1691,"Al":1692,"reci":1693,"usion":1694,"Ġless":1695,"Ġbig":1696,"Ġsur":1697,"uring":1698,"Ġfollowing":1699,"Ġrules":1700,"aken":1701,";=":1702,"Ġadministrat":1703,"Ġpop":1704,"ategory":1705,"Ġbas":1706,"stem":1707,"Ġpolit":1708,"Ġthree":1709,"Ġtitle":1710,"ole":1711,"16":1712,"Ġoffic":1713,"uss":1714,"Ġwhole":1715,"AP":1716,"Ġbased":1717,"Ġdisc":1718,"Ġmind":1719,"Ġcourse":1720,"body":1721,"Ġfil":1722,"oot":1723,"Ġentire":1724,"Ġeach":1725,"Ġappreci":1726,"Ġtemplate":1727,"Ġopp":1728,"Ġ18":1729,"13":1730,"med":1731,"Ġinclude":1732,"Ġpossible":1733,"uc":1734,"Ġmentioned":1735,"though":1736,"Talk":1737,"Ġmedia":1738,"Ġstat":1739,"Ġtimes":1740,"vern":1741,"arent":1742,"!!!":1743,"Ġattempt":1744,"ribs":1745,"Ġstatement":1746,"Ġign":1747,"Ġseen":1748,"ness":1749,"Ġresult":1750,"Ġdescrib":1751,"rup":1752,"Ġeas":1753,"ĠJew":1754,"Ġrequire":1755,"17":1756,"Ġap":1757,"my":1758,"Ġtopic":1759,"pg":1760,"Ġissues":1761,"Ġlearn":1762,"where":1763,"Ġfacts":1764,"ĠFe":1765,"ĠOr":1766,"Ġsense":1767,"Ġproper":1768,"Ġdetail":1769,"Ġmajor":1770,"ording":1771,"Ġdate":1772,"Ġproject":1773,"ories":1774,"ĠMay":1775,"Ġonce":1776,"ĠPro":1777,"dit":1778,"As":1779,"to":1780,"Ġshit":1781,"Ġu":1782,"cially":1783,"Ġobject":1784,"Ġgeneral":1785,"Ġuns":1786,"ĠNOT":1787,"Ġpret":1788,"User":1789,"Ġlar":1790,"Ġes":1791,"cing":1792,"Ġhead":1793,"ĠQ":1794,"ides":1795,"AR":1796,"And":1797,"Ġsentence":1798,"15":1799,"xt":1800,"Ġmer":1801,"Ġphot":1802,"ins":1803,"There":1804,"block":1805,"ahah":1806,"Ar":1807,"ivers":1808,"name":1809,"Ġpast":1810,"Ġvar":1811,"Ġprovide":1812,"Ġmyself":1813,"}}":1814,".)":1815,"istic":1816,"ĠAf":1817,"res":1818,"ives":1819,"No":1820,"Ġpur":1821,"Ġdays":1822,"Ġcreate":1823,"ĠZ":1824,"inn":1825,"Ġaut":1826,"Ġmor":1827,"Ġfriend":1828,"outh":1829,"CT":1830,"Ġnomin":1831,"Ġfour":1832,"uation":1833,"Ġincluded":1834,"AS":1835,"Ġfix":1836,"Ġindic":1837,"ĠSp":1838,"Ġshort":1839,"Ġcr":1840,"Ġthanks":1841,"Ġorgan":1842,"ĠWhy":1843,"ional":1844,"ude":1845,"Ġset":1846,"olution":1847,"ler":1848,"Ġsl":1849,"rodu":1850,"ground":1851,"Ġdou":1852,"Ġknown":1853,"Ġ10":1854,"jpg":1855,"Ġneutral":1856,"ĠAny":1857,"Ġappropriate":1858,"Ġchanged":1859,"ward":1860,"ush":1861,"Ġexact":1862,"ared":1863,"Ġstyle":1864,"Ġhistor":1865,"Ġsystem":1866,"LE":1867,"ĠWI":1868,"ĠAll":1869,"Ġ2005":1870,"ton":1871,"ĠOn":1872,"ikiped":1873,"ĠTo":1874,"Ġopen":1875,"Ġaccus":1876,"23":1877,"Ġloc":1878,"ĠĠĠĊ":1879,"Ġcommon":1880,"ries":1881,"Ġassum":1882,"de":1883,"ĠChrist":1884,"Ġanswer":1885,"Ġprocess":1886,"Ġinfo":1887,"ledge":1888,"ax":1889,"Ġstarted":1890,"uro":1891,"Ġsock":1892,"resent":1893,"St":1894,"by":1895,"agraph":1896,"Ġdem":1897,"Ġgay":1898,"cu":1899,"Ġschool":1900,"Ġcharact":1901,"{{":1902,"bo":1903,"wikipedia":1904,"Pro":1905,"wiki":1906,"Ġlaw":1907,"An":1908,"ĠNot":1909,"error":1910,"ird":1911,"ilar":1912,"Ġgetting":1913,"ended":1914,"Ġsummary":1915,"ms":1916,"Ġ==":1917,"pecially":1918,"24":1919,"AB":1920,"reed":1921,"Ġdisag":1922,"ization":1923,"you":1924,"Ġwrote":1925,"ross":1926,"Ġcent":1927,"ĠChe":1928,"Ġsorry":1929,"ived":1930,"oid":1931,"EW":1932,"Ġable":1933,"lack":1934,"Ġhar":1935,"ior":1936,"ored":1937,"ising":1938,"Ġhum":1939,"Ġline":1940,"Ġrelevant":1941,"Ġeng":1942,"200":1943,"ĠGerm":1944,"Ġparagraph":1945,"Ġremoving":1946,"par":1947,"Ġserious":1948,"Ġprevious":1949,"sert":1950,"oss":1951,"ĠDIE":1952,"âĢĿ":1953,"Ġqual":1954,"Ġstay":1955,"most":1956,"Ġmist":1957,"Ġclaims":1958,"fer":1959,"Ġincluding":1960,"ĠIN":1961,"iet":1962,"Ġimprove":1963,"Ġsort":1964,"Ġfal":1965,"Ġnames":1966,"Ġir":1967,"Ġstuff":1968,"Ġnotic":1969,"Ġcompl":1970,"ĠBrit":1971,"ĠGo":1972,"Ġposition":1973,"AA":1974,"Ġaway":1975,"Wikipedia":1976,"Ġdeal":1977,"Ġfull":1978,"Ġsuck":1979,"Ġattacks":1980,"Ġtaken":1981,"arl":1982,"Ġorder":1983,"ield":1984,"Ġitself":1985,"gle":1986,"eed":1987,"Ġhowever":1988,"ti":1989,"Why":1990,"ĠComm":1991,"Ġbehav":1992,"Ġtra":1993,"ATE":1994,"ĠBE":1995,"ĠOF":1996,"ently":1997,"Ġinterested":1998,"Ġmonth":1999,"col":2000,"ĠMY":2001,"ĠLOL":2002,"Ġrespect":2003,"Ġnext":2004,"ron":2005,"ference":2006,"ĠAmerican":2007,"iber":2008,"ator":2009,"Ġpat":2010,"uk":2011,"ĠLe":2012,"SS":2013,"Your":2014,"ĠJust":2015,"fully":2016,"Ġpri":2017,"Ġfaith":2018,"Ġwriting":2019,"ĠAND":2020,"Ġocc":2021,"Ġrun":2022,"Ġappears":2023,"onse":2024,"IP":2025,"Ġest":2026,"Ġband":2027,"ivil":2028,"roll":2029,"ode":2030,"amm":2031,"Ġwanted":2032,"Ġcommunity":2033,"uly":2034,"ification":2035,"Ġwarning":2036,"ait":2037,"Ġcurrently":2038,"chn":2039,"ĠME":2040,"amb":2041,"Ġprotect":2042,"Ġregarding":2043,"Ġmus":2044,"ĠTO":2045,"sel":2046,"Ġrelated":2047,"Ġlater":2048,"page":2049,"Ġaddition":2050,"Ġsingle":2051,"ina":2052,"ases":2053,"DI":2054,"uppet":2055,"Ġrecord":2056,"Ġ...":2057,"Ġcritic":2058,"ott":2059,"ĠImage":2060,"iving":2061,"ĠâĢľ":2062,"iment":2063,"und":2064,"Ġwithin":2065,"Ġlooking":2066,"Ġâ":2067,"Ġsearch":2068,"mber":2069,"leg":2070,"Ġcountry":2071,"ĠCon":2072,"andbox":2073,"Ġ2006":2074,"Ġpolicies":2075,"Ġpass":2076,"Ġnotability":2077,"velop":2078,"Ġcame":2079,"go":2080,"used":2081,"Ġdeb":2082,"ĠMar":2083,"Ġwatch":2084,"ohn":2085,"Ġsimilar":2086,"oint":2087,"oman":2088,"zer":2089,"Ġfail":2090,"Ġpretty":2091,"uture":2092,"Ġedited":2093,"Ġcertainly":2094,"Ġintern":2095,"son":2096,"back":2097,"ration":2098,"Ġcompletely":2099,"Ġquot":2100,"POV":2101,"lict":2102,"vent":2103,"idd":2104,"Ġ=":2105,"Ġentry":2106,"Ġself":2107,"Ġrelig":2108,"Ġexplan":2109,"Is":2110,"bit":2111,"UN":2112,"Ġgovern":2113,"gain":2114,"Ġaccur":2115,"Ġinvolved":2116,"Ġsound":2117,"25":2118,"ĠAt":2119,"Ġwasn":2120,"ĠâĢĵ":2121,"SE":2122,"Ġpower":2123,"Ġfile":2124,"igure":2125,"Ġdep":2126,"Ġdont":2127,"ury":2128,"Ġofficial":2129,"Ġargument":2130,"ban":2131,"hel":2132,"wise":2133,"Ġfr":2134,"oph":2135,"ĠNor":2136,"That":2137,"Ġdisagree":2138,"Ġfalse":2139,"Ġstates":2140,"Ġfag":2141,"Ġago":2142,"acy":2143,"ĠFAT":2144,"IGG":2145,"33":2146,"Ġnice":2147,"Ġdescrip":2148,"Ġplaced":2149,"Ġmaybe":2150,"Ġclass":2151,"unt":2152,"Ġtruth":2153,"ctions":2154,"Ġchild":2155,"ĠSee":2156,"Ġasked":2157,"Ġrepe":2158,"Ġrespond":2159,"Ġduring":2160,"atever":2161,"Ġthreat":2162,"Ġprof":2163,"Ch":2164,"ours":2165,"Ġbann":2166,"Ġdel":2167,"ulation":2168,"sing":2169,"Ġmed":2170,"oogle":2171,"Ġwonder":2172,"ially":2173,"rain":2174,"So":2175,"Ġequ":2176,"ants":2177,"Ġuseful":2178,"Ġident":2179,"CR":2180,"Ġcult":2181,"Ġeveryone":2182,"Ġsol":2183,"Ġnecess":2184,"Ġkill":2185,"Ġdiff":2186,"upid":2187,"Ġlove":2188,"ending":2189,"Ġfin":2190,"ĠSome":2191,"ilit":2192,"Ġtalking":2193,"Ġabs":2194,"ĠReg":2195,"Ġpie":2196,"head":2197,"Ġbelow":2198,"co":2199,"Ġfigure":2200,"rael":2201,"Ġposted":2202,"AY":2203,"Hey":2204,"dd":2205,"Ġweek":2206,"ĠJEW":2207,"rad":2208,"Ġtot":2209,"Ġespecially":2210,"log":2211,"Ġquote":2212,"Ġdue":2213,"amed":2214,"Ġparticular":2215,"Ġguess":2216,"Ġtyp":2217,"aged":2218,"ouse":2219,"ains":2220,"IA":2221,"omat":2222,"rupt":2223,"ission":2224,"ital":2225,"Ġfucking":2226,"iar":2227,"Ġrepla":2228,"joy":2229,"ling":2230,"ĠPol":2231,"Ġperhaps":2232,"Ġmoron":2233,"Ġnoticed":2234,"cience":2235,"Ġsignific":2236,"Not":2237,"Ġside":2238,"ĠPer":2239,"clusion":2240,"rel":2241,"Ġeverything":2242,"Ġnational":2243,"____":2244,"Ġfuture":2245,"ublic":2246,"ĠYOUR":2247,"ogn":2248,"ĠFA":2249,"Ġhi":2250,"Ġspeak":2251,"ĠPh":2252,"Ġredirect":2253,"Ġcover":2254,"ient":2255,"cur":2256,"add":2257,"ĠDO":2258,"igned":2259,"Ġ199":2260,"Ġappreciate":2261,"Ġarch":2262,"Ġcontact":2263,"Ġra":2264,"ĠNow":2265,"Ġpublished":2266,"Ġmeaning":2267,"TH":2268,"new":2269,"Ġdevelop":2270,"Ġknowledge":2271,"Ġ17":2272,"Ġreasons":2273,"Ġresponse":2274,"Ġsoon":2275,"urope":2276,"Ġlack":2277,"ortun":2278,"Ġbu":2279,"ural":2280,"ivid":2281,"Ġworking":2282,"Ġdocu":2283,"Ġnews":2284,"ively":2285,"ĠWikiped":2286,"Ġreading":2287,"selves":2288,"Well":2289,"ata":2290,"Ġsmall":2291,"Ġmet":2292,"Ġ15":2293,"Ġworth":2294,"Ġprovided":2295,"Ġlooks":2296,"iple":2297,"ography":2298,"che":2299,"Ġ24":2300,"ai":2301,"iness":2302,"itions":2303,"Ġproblems":2304,"more":2305,"Ġgame":2306,"Ġsk":2307,"Ġtook":2308,"Ġbecome":2309,"ALL":2310,"ĠARE":2311,"Ġguy":2312,"Ġlarge":2313,"Ġstated":2314,"get":2315,"Ġoften":2316,"ley":2317,"iversity":2318,"Ġbus":2319,"Ġeffect":2320,"Ġvandalize":2321,"ris":2322,"ĠPIG":2323,"Ġcontribs":2324,"bt":2325,"Ġdispute":2326,"Project":2327,"utes":2328,"!!!!!!!!!!!!!!!!!!!!!!!!!!!!!!!!":2329,"Ġtoday":2330,"Ġstupid":2331,"ĠMan":2332,"cont":2333,"Ġrule":2334,"ats":2335,"Ġhaven":2336,"aaaaaaaa":2337,"umb":2338,"Ġalong":2339,"urch":2340,"Ġneeded":2341,"Ġtried":2342,"Ġhold":2343,"Ġlic":2344,"Ġaware":2345,"Ġvalid":2346,"row":2347,"ery":2348,"Ġexactly":2349,"lim":2350,"Ġpurp":2351,"Ġrev":2352,"Ġcar":2353,"âĢĶ":2354,"ĊĠ":2355,"ternal":2356,"CH":2357,"Ġmult":2358,"Ġbeg":2359,"ĠSer":2360,"ĠJun":2361,"yyyyyyyy":2362,"Ġ/":2363,"Ġsandbox":2364,"ticles":2365,"Ġexperi":2366,"For":2367,"ired":2368,"Ġupd":2369,"ĠWhen":2370,"Ġreply":2371,"nnnnnnnn":2372,"Ġanti":2373,"Ġmod":2374,"uyuyuyuy":2375,"ĠEx":2376,"using":2377,"Ġconfir":2378,"Ġcontrovers":2379,"Ġstatus":2380,"Ġusername":2381,"Ġpolitical":2382,"AM":2383,"Ġcou":2384,"Ġcontext":2385,"Ġexplanation":2386,"like":2387,"tytytyty":2388,"ĠNIGG":2389,"Ġremember":2390,"Ġstrong":2391,"Ġfive":2392,"color":2393,"201":2394,"por":2395,"gether":2396,"Ġart":2397,"Ġshows":2398,"which":2399,"Ġappro":2400,"Ġfish":2401,"Ġund":2402,"Ġ2007":2403,"ĠLI":2404,"My":2405,"htm":2406,"Ġenjoy":2407,"Ġterms":2408,"inc":2409,"Ġreverting":2410,"Ġemail":2411,"Ġsepar":2412,"quest":2413,"Ġcited":2414,"ĠHATE":2415,"Ġadministrator":2416,"ividual":2417,"ĠRep":2418,"Ġjob":2419,"Ġ2008":2420,"pro":2421,"Ġbre":2422,"Ġdeleting":2423,"lam":2424,"Ġpoints":2425,"Do":2426,"ET":2427,"Ġ?":2428,"Ġunf":2429,"ner":2430,"ane":2431,"comm":2432,"orld":2433,"ĠSH":2434,"Ġmembers":2435,"IDS":2436,"Ġactual":2437,"wards":2438,"CRAP":2439,"Ġscient":2440,"Ġunless":2441,"Ġuploaded":2442,"omen":2443,"Ġrepresent":2444,"irc":2445,"ĠHere":2446,"CRAPCRAP":2447,"aper":2448,"Ġavoid":2449,"Ġdescription":2450,"ĠNIGGER":2451,"Ġtags":2452,"Ġhom":2453,"Ġalmost":2454,"Ġ{{":2455,"Ġunblock":2456,"ĠUnited":2457,"Ġdefinition":2458,"ober":2459,"Ġobviously":2460,"Ġbooks":2461,"Ġrecently":2462,"iter":2463,"Ġtaking":2464,"Ġadm":2465,"Ġlikely":2466,"ourn":2467,"Ġ12":2468,"Ġ14":2469,"ering":2470,"Ġban":2471,"unk":2472,"Ġbro":2473,"iction":2474,"que":2475,"itive":2476,"Ġthank":2477,"put":2478,"edic":2479,"Ġcharacter":2480,"Image":2481,"Ġtold":2482,"Ġturn":2483,"alf":2484,"Ġgovernment":2485,"ream":2486,"Ġsaw":2487,"ĠSch":2488,"ĠAgain":2489,"ĠWH":2490,"epend":2491,"Ġviews":2492,"Ġhappy":2493,"Ġexperiment":2494,"Ġfilm":2495,"ĠÂ":2496,"Ġbackground":2497,"ĠJohn":2498,"Ġcompany":2499,"ĠSc":2500,"Ġaccording":2501,"Ġpen":2502,"Ġdecide":2503,"Ġautomat":2504,"ĠNe":2505,"ffic":2506,"Ġexcept":2507,"ensive":2508,"na":2509,"Ġhon":2510,"Ġgenerally":2511,"tical":2512,"Ġ2004":2513,"ĠPr":2514,"Ġwhatever":2515,"Ġclose":2516,"Ġvis":2517,"Ġla":2518,"Ġprim":2519,"Ġeffort":2520,"ĠOne":2521,"Ġmark":2522,"ĠBlock":2523,"Ġpiece":2524,"FA":2525,"iod":2526,"ĠBL":2527,"onsense":2528,"ball":2529,"got":2530,"ama":2531,"Ġadmins":2532,"ump":2533,"AD":2534,"Ġtransl":2535,"Ġallowed":2536,"adem":2537,"Ġstory":2538,"VE":2539,"ION":2540,"Ġwent":2541,"Ġfine":2542,"Ġhy":2543,"Ġevent":2544,"Ġ16":2545,"Ġmusic":2546,"Ġones":2547,"gy":2548,"Ġconflict":2549,"Ġep":2550,"Ġindividual":2551,"Ġminor":2552,"Ġpract":2553,"Ġalone":2554,"ĠIsrael":2555,"Ġcap":2556,"Ġworks":2557,"Ġintrodu":2558,"mb":2559,"Ġtype":2560,"Ġden":2561,"Ġbitch":2562,"Ġbanned":2563,"lu":2564,"ĠBritish":2565,"Ġvarious":2566,"ideo":2567,"On":2568,"ny":2569,"ined":2570,"eal":2571,"nect":2572,"reen":2573,"sc":2574,"see":2575,"Ġcontributing":2576,"reme":2577,"ĠGree":2578,"Ġlevel":2579,"sed":2580,"ĠCl":2581,"WWWWWWWW":2582,"Ġthemselves":2583,"ites":2584,"Ġmoved":2585,"Ġorigin":2586,"Ġavail":2587,"Ġapolog":2588,"Ġexpect":2589,"ĠTr":2590,"side":2591,"order":2592,"fect":2593,"mp":2594,"Ġid":2595,"lying":2596,"\"::":2597,"ibly":2598,"11111111":2599,"Ġhours":2600,"ĠGod":2601,"]]":2602,"Ġattention":2603,"Ġcriticism":2604,"Ġrac":2605,"rap":2606,"itted":2607,"Ġestab":2608,"bum":2609,"ences":2610,"izing":2611,"Fuck":2612,"Ġactions":2613,"Ġhappened":2614,"Ġter":2615,"~~~~":2616,"sy":2617,"orial":2618,"Ġworked":2619,":#":2620,"''''''":2621,"rew":2622,"Ġeth":2623,"Ġsimple":2624,"ĠCont":2625,"ĠBy":2626,"Ġinteresting":2627,"RECT":2628,"Ġrece":2629,"Ġaren":2630,"istory":2631,"ĠJan":2632,"Ġlive":2633,"ĠAM":2634,"IL":2635,"Ġparticip":2636,",\"\"":2637,"We":2638,"ales":2639,"imate":2640,"urk":2641,"Ġdeath":2642,"Ġtechn":2643,"Ġann":2644,"ĠWar":2645,"Ġarea":2646,"ĠRE":2647,"Ġbelong":2648,"Ġcomplain":2649,"Ġtild":2650,"Ġquick":2651,"oke":2652,"Ġdoubt":2653,"Ġdr":2654,"Ġconv":2655,"Ġtheory":2656,"ĠALL":2657,"Ġsupposed":2658,"Ġautomatically":2659,"just":2660,"idth":2661,"ularly":2662,"Ġpromot":2663,"eah":2664,"eral":2665,"Ġtogether":2666,"Ġmeet":2667,"Ġ13":2668,"Ġsubst":2669,"He":2670,"bs":2671,"ĠMr":2672,"Ġlonger":2673,"Ġsites":2674,"lex":2675,"Ġcategory":2676,"Ġlim":2677,"unch":2678,"Ġmeant":2679,"IST":2680,"itch":2681,"Ġcitations":2682,"ĠX":2683,"Ġcite":2684,"iver":2685,"lling":2686,"ĠCOCK":2687,"Ġguys":2688,"Ġclar":2689,"urd":2690,"Ġaccepted":2691,"ĠMe":2692,"Ġhimself":2693,"ĠBark":2694,"Ġunc":2695,"Yes":2696,"reg":2697,"Sh":2698,"Ġmoder":2699,"OW":2700,"Ġaff":2701,"nder":2702,"Ġhelpful":2703,"Ġrecogn":2704,"Ġsourced":2705,"Ġmar":2706,"Ġtildes":2707,"Ġcitation":2708,"Ġfight":2709,"Ġration":2710,"Ġ#":2711,"Ġcreating":2712,"ĠCol":2713,"Ġcomes":2714,"Ġnonsense":2715,"ĠGet":2716,"Ġdocument":2717,"Ġwait":2718,"itely":2719,"Ġpres":2720,"Ġ*":2721,"ĠEurope":2722,"Ġavailable":2723,"Ġey":2724,"ĠPe":2725,"ĠGe":2726,"Ġperiod":2727,"Ġfeature":2728,"Ġhuman":2729,"Ġindicate":2730,"UP":2731,"Ġmill":2732,"ĠAug":2733,"ĠDon":2734,"alle":2735,"ĠRuss":2736,");":2737,"oring":2738,"Ġproposed":2739,"pret":2740,"ĠST":2741,"Ġfav":2742,"apan":2743,"Ġbias":2744,"ĠAIDS":2745,"raw":2746,"Ġsong":2747,"Ġwouldn":2748,"Ġmere":2749,"olute":2750,"ĠBr":2751,"Ġtherefore":2752,"Ġinsult":2753,"BS":2754,"ev":2755,"puppet":2756,"arily":2757,"Ġill":2758,"Ġsus":2759,"ĠShe":2760,"Ġanyway":2761,"ney":2762,"ĠCheers":2763,"af":2764,"vice":2765,"0000":2766,"Ġgl":2767,"REDI":2768,"Also":2769,"Ġve":2770,"Ġgoes":2771,"Ġnecessary":2772,"au":2773,"REDIRECT":2774,"Ġclean":2775,"ĠGerman":2776,"Ġcred":2777,"ency":2778,"Ġbo":2779,"Ġproof":2780,"Ġcontest":2781,"IM":2782,"Ġopinions":2783,"Com":2784,"VER":2785,"Ġyes":2786,"arently":2787,"Ġbiased":2788,"Ġed":2789,"Ġbox":2790,".,":2791,"Ġment":2792,"UNT":2793,"top":2794,"work":2795,"anda":2796,"Ġrid":2797,"oice":2798,"Ġtroll":2799,"thod":2800,"Ġjud":2801,"ading":2802,"Ġaccurate":2803,"nic":2804,"Ġbring":2805,"Ġviolation":2806,"Ġsignificant":2807,"Ġpers":2808,"\"\"?":2809,"ĠJews":2810,"Ġdisrupt":2811,"Ġmonths":2812,"Ġteam":2813,"50":2814,"ĠCUNT":2815,"Ġfamily":2816,"onym":2817,"Ġalthough":2818,"Ġamong":2819,"Ġsituation":2820,"TAB":2821,"iff":2822,"Ġ198":2823,"Ġfield":2824,"Ġfoot":2825,"ĠAust":2826,"Ġstandard":2827,"Ġsw":2828,"Ġmass":2829,"Ġstatements":2830,"Ġexplaining":2831,"no":2832,"Ġaction":2833,"Ġsections":2834,"aving":2835,"ones":2836,"over":2837,"star":2838,"Ġlab":2839,"olic":2840,"Ġ11":2841,"Ġtagged":2842,"Ġdebate":2843,"Ġlight":2844,"iation":2845,"rary":2846,"ĠFAG":2847,"ĠNPOV":2848,"Ġindeed":2849,"Ġreach":2850,"Ġincorrect":2851,"Be":2852,"iab":2853,"Ġseparate":2854,"Ġhome":2855,"ĠASS":2856,"Ġthird":2857,"lent":2858,"ĠStates":2859,"Ġparty":2860,"Ġclick":2861,"ĠMus":2862,"Ġperm":2863,"ĠJuly":2864,"Se":2865,"Ġben":2866,"ange":2867,"Ġindepend":2868,"Ġrationale":2869,"Just":2870,"port":2871,"Ġheard":2872,"ĠIT":2873,"Ġremain":2874,"arian":2875,"ĠTe":2876,"Ġconnect":2877,"ructive":2878,"Ġliving":2879,"ters":2880,"Ġfore":2881,"aming":2882,"Ġ2009":2883,"ĠAb":2884,"Ġbehavior":2885,"uary":2886,"Ġtable":2887,"Ġupon":2888,"OP":2889,"what":2890,"how":2891,"Ã©":2892,"obox":2893,"ĠFuck":2894,"arth":2895,"Ġverif":2896,"Ġcity":2897,"ĠAre":2898,"men":2899,"Ġenc":2900,"els":2901,"Ġotherwise":2902,"fuck":2903,"times":2904,"ĠMa":2905,"lection":2906,"Ġproduct":2907,"ilitary":2908,"OS":2909,"Un":2910,"ĠApr":2911,"Ġdetails":2912,"ĠGood":2913,"Ġdeser":2914,"Ġhate":2915,"ada":2916,"ĠPl":2917,"ibility":2918,"Ġmother":2919,"ĠGr":2920,"ĠSince":2921,"raft":2922,"Ġshouldn":2923,"Ġmot":2924,"Ġlat":2925,"ential":2926,"Ġpill":2927,"AHAHAHAH":2928,"Ġmultiple":2929,"cent":2930,"Ġdam":2931,"ĠWest":2932,"Ġmom":2933,"uest":2934,"Ġcause":2935,"CE":2936,"ĠWill":2937,"html":2938,"ĠChristian":2939,"Ġirre":2940,"Ġabsolute":2941,"Ġrepeated":2942,"Ġformat":2943,"ĠLet":2944,"Ġperfect":2945,"ression":2946,"Ġcouple":2947,"but":2948,"Ġcivil":2949,"Ġseries":2950,"ĠĠĠĠĠĠĠĠĠĠĠĠĠĠĠĠ":2951,"Ġlegal":2952,"Ġjo":2953,"Ġsubm":2954,"ĠStyle":2955,"Ġdirectly":2956,"ĠFeb":2957,"aul":2958,"Ġmag":2959,"ices":2960,"icult":2961,"Ġquality":2962,"Ġdeter":2963,"Ġalbum":2964,"Ġcomput":2965,"Ġbuild":2966,"ĠAugust":2967,"Ġsuc":2968,"Ġ23":2969,"Ġpress":2970,"Ġdifference":2971,"Ġidi":2972,"aster":2973,"ster":2974,"Ġusually":2975,"orm":2976,"ĠBALL":2977,"Ġvideo":2978,"Ġhell":2979,"Ġepis":2980,"Can":2981,"ĠAm":2982,"Ġschol":2983,"ocus":2984,"enn":2985,"Ġcreation":2986,"Ġhistorical":2987,"Ġfre":2988,"rab":2989,"Ġasking":2990,"Ġneg":2991,"Ġcontribute":2992,"US":2993,"Ġdata":2994,"Ġuses":2995,"ĠWIK":2996,"war":2997,"Ġpropos":2998,"Ġassume":2999,"ison":3000,"Ġfan":3001,"ĠTake":3002,"Ġdescribed":3003,"yn":3004,"Ġadvert":3005,"eep":3006,"Ġur":3007,"Ġok":3008,"Ġearl":3009,"ĠWorld":3010,"ully":3011,"Ġpoor":3012,"Ġmessages":3013,"Ġexisting":3014,"ĠBALLS":3015,"Wiki":3016,"ted":3017,"Ġcountries":3018,"ani":3019,"Ġpenis":3020,"px":3021,"ĠWik":3022,"ĠEven":3023,"Ġproduce":3024,"spe":3025,"aries":3026,"Ġconcept":3027,"sk":3028,"ĠHar":3029,"EL":3030,"Ġ100":3031,"Ġcalling":3032,"Man":3033,"alth":3034,"ague":3035,"Ġprefer":3036,"Ġgets":3037,"ĠUniversity":3038,"Ġculture":3039,"ipple":3040,"ferences":3041,"Ġpurpose":3042,"Ġhear":3043,"ĠEn":3044,"ambig":3045,"Ġwhite":3046,"Ġoper":3047,"Ġrew":3048,"utorial":3049,"Ġreturn":3050,"rim":3051,"Ġmov":3052,"sex":3053,"ĠDr":3054,"Ġaccess":3055,"bal":3056,"oney":3057,"Ġblocking":3058,"Ġcock":3059,"ught":3060,"Oh":3061,"ands":3062,"Ġerror":3063,"Ġ21":3064,"ĠUK":3065,"ĠFUCKING":3066,"30":3067,"Ġprove":3068,"ĠJapan":3069,"play":3070,"attle":3071,"Ġcamp":3072,"set":3073,"Ġdifficult":3074,"Ġblack":3075,"ĠMaybe":3076,"ued":3077,"iding":3078,"Ġ(~~~~":3079,"Ġconsist":3080,"Ġphr":3081,"rank":3082,"Ġdest":3083,"irl":3084,"Ġprofess":3085,"Ġpillars":3086,"100":3087,"rench":3088,"atic":3089,"Ġinvest":3090,"To":3091,"Ġport":3092,"ĠCH":3093,"ety":3094,"Ġspace":3095,"Ġexternal":3096,"ĠWILL":3097,"Ġcases":3098,"Ġelect":3099,"ech":3100,"Ġdecided":3101,"EDIA":3102,"inning":3103,"uted":3104,"Ġphoto":3105,"Ġinclusion":3106,"ĠDis":3107,"Ġhit":3108,"Ġrights":3109,"Ġconcerns":3110,"ournal":3111,"Ġcens":3112,"Ġprogr":3113,"Ġactiv":3114,"Ġsucks":3115,"Ġinterpret":3116,"ĠGu":3117,"ished":3118,"soci":3119,"Ġspecial":3120,"Ġ2010":3121,"board":3122,"Ġvote":3123,"Ġhalf":3124,"Ġarguments":3125,"ĠMarch":3126,"ĠUN":3127,"erous":3128,"ption":3129,"Ġchanging":3130,"Ġextreme":3131,"help":3132,"Ġprimary":3133,"FD":3134,"lement":3135,"ĠWell":3136,"Ġcontain":3137,"ĠON":3138,"appy":3139,"Ġsat":3140,"Ġanal":3141,"ĠThese":3142,"Ġreaders":3143,"ances":3144,"hole":3145,"Ġcoll":3146,"Ġwants":3147,"Ġemp":3148,"gress":3149,"ĠIndia":3150,"Ġtreat":3151,"ister":3152,"Ġphys":3153,"Ġbot":3154,"Ġgave":3155,"ert":3156,"azi":3157,"Ġexpand":3158,"Ġharass":3159,"Ġrespons":3160,"Ġreported":3161,"40":3162,"But":3163,"Sorry":3164,"ĠAss":3165,"oose":3166,"Ġamount":3167,"ĠTHIS":3168,"OB":3169,"avid":3170,"Ġnorm":3171,"ĠJewish":3172,"ĠWikipedian":3173,"Ġbusiness":3174,"Ġfamil":3175,"Welcome":3176,"ald":3177,"Ġpriv":3178,"andalism":3179,"Ġcontrol":3180,"appropriate":3181,"Ġscience":3182,"str":3183,"ourced":3184,"Ġmistake":3185,"ĠPerhaps":3186,"IPEDIA":3187,"Ġdisruptive":3188,"Ġcateg":3189,"Ġlinked":3190,"ped":3191,"Ġmember":3192,"free":3193,"Ġrele":3194,"ha":3195,"acos":3196,"Ġearlier":3197,"ĠAD":3198,"Ġseriously":3199,"Ġhonest":3200,"conom":3201,"ung":3202,"Ġvot":3203,"ĠIslam":3204,"27":3205,"ĠGen":3206,"ĠKing":3207,"Ġ30":3208,"Ġgiving":3209,"ĠEdit":3210,"ĠOf":3211,"Ġthinking":3212,"ceding":3213,"ahahahah":3214,"uge":3215,"Ġer":3216,"align":3217,"Ġnumbers":3218,"ta":3219,"ĠOct":3220,"ortunately":3221,"ILL":3222,"ouble":3223,"medi":3224,"**":3225,"off":3226,"Ġthus":3227,"Ġlooked":3228,"Ġdiscussed":3229,"Ġstandards":3230,"ĠThen":3231,"Ġpersonally":3232,"Ġdecision":3233,"rest":3234,"edy":3235,"Ġinsert":3236,"ENT":3237,"Ġmerely":3238,"Ġtowards":3239,"overed":3240,"hi":3241,"Ġreader":3242,"Ġ197":3243,"Ġmajority":3244,"rem":3245,"eter":3246,"ĠOb":3247,"comp":3248,"ĠArticle":3249,"Ġpictures":3250,"rict":3251,"Ġfocus":3252,"Ġonline":3253,"Ġsuper":3254,"Ġabuse":3255,"Ġacadem":3256,"Don":3257,"Ġrelease":3258,"Ġliter":3259,"Ġpropag":3260,"list":3261,"cember":3262,"ĠDid":3263,"Ġentirely":3264,"Ġconfirm":3265,"ngth":3266,"Ġspecifically":3267,"ĠAustral":3268,"Ex":3269,"Ġcirc":3270,"Ġcoming":3271,"Ġsocial":3272,"ological":3273,"Ġnamed":3274,"Ġreflect":3275,"???":3276,"lege":3277,"Ġgroups":3278,"Ġinternet":3279,"ĠNational":3280,"Ġbenef":3281,"Ġmen":3282,"ource":3283,"Ġoppos":3284,"ĠJune":3285,"Ġmodern":3286,"ulous":3287,"letion":3288,"Ġchance":3289,"Ġ''''''":3290,"Ġconstit":3291,"Ġreplace":3292,"Ġirrelevant":3293,"arnstar":3294,"RR":3295,"loy":3296,"Ġacceptable":3297,"Ġscientific":3298,"Ġmatch":3299,"Ġparticularly":3300,"Ġmillion":3301,"ĠSouth":3302,"ptember":3303,"ĠGAY":3304,"ples":3305,"Ġcor":3306,"ider":3307,"Ġaltern":3308,"thern":3309,"Ġearly":3310,"Ġadvice":3311,"antly":3312,"Ġoutside":3313,"Ġevents":3314,"Ġaf":3315,"Ġassoci":3316,"ĠIntern":3317,"iddle":3318,"Ġess":3319,"Ġterror":3320,"ination":3321,"De":3322,"arty":3323,"Ġrequesting":3324,"ĠAfric":3325,"99":3326,"Ġ2012":3327,"Ġexperience":3328,"EE":3329,"Ġ;":3330,"Cont":3331,"udd":3332,"Ġstep":3333,"Ġeduc":3334,"\"==":3335,"iam":3336,"Ġstudy":3337,"Ġunsigned":3338,"dom":3339,"reet":3340,"opy":3341,"Ġacross":3342,"Ok":3343,"illy":3344,"Ġplan":3345,"gue":3346,"ĠHis":3347,"Ġface":3348,"Ġtotally":3349,"ĠWith":3350,"ĠList":3351,"ĠRepublic":3352,"do":3353,"ĠCAN":3354,"cons":3355,"Ġgives":3356,"Ġbreak":3357,"ias":3358,"Ġpopulation":3359,"ka":3360,"ĠNipple":3361,"ĠRf":3362,"Ġprevent":3363,"'''":3364,"itting":3365,"Ġorganization":3366,"oe":3367,"ning":3368,"ovember":3369,"iles":3370,"Ġpopular":3371,"Ġlegit":3372,"ĠFeel":3373,"ĠHA":3374,"Ġ22":3375,"Ġputting":3376,"Some":3377,"Ġvol":3378,"Ġposting":3379,"Ġunderstanding":3380,"mail":3381,"\"\"|":3382,"ĠBUT":3383,"Ġtool":3384,"Ġinflu":3385,"ĠBEST":3386,"ĠJanuary":3387,"pite":3388,"SH":3389,"Ġtem":3390,"ONG":3391,"Ġabsolutely":3392,"Ġdead":3393,"Ġflag":3394,"Ġtakes":3395,"Ġpot":3396,"igg":3397,"ĠAmerica":3398,"ators":3399,"Ġgone":3400,"duct":3401,"ĠSpe":3402,"Ġaccounts":3403,"Ġexpress":3404,"ĠWikiProject":3405,"Ġhighly":3406,"ĠWIKIPEDIA":3407,"See":3408,"aid":3409,"Ġchildren":3410,"onymous":3411,"'.":3412,"Ġinappropriate":3413,"Ġrecomm":3414,"Ġknows":3415,"Ġcool":3416,"gen":3417,"Ġmine":3418,"60":3419,"ĠEd":3420,"ruary":3421,"Ġdemon":3422,"II":3423,"oud":3424,"Ġhes":3425,"ĠBl":3426,"Ġshown":3427,"Ġimmedi":3428,"Ġexamples":3429,"Ġindependent":3430,"BL":3431,"Ġborder":3432,"Ġnone":3433,"Ġethnic":3434,"isf":3435,"ĠTurk":3436,"ried":3437,"Ġ25":3438,"Here":3439,"Ġbott":3440,"ĠSP":3441,"Ġbelief":3442,"ĠAdmin":3443,"28":3444,"WP":3445,"action":3446,"ĠTV":3447,"irth":3448,"SUCK":3449,"ures":3450,"Ġfriends":3451,"iability":3452,"Ġprogram":3453,"UM":3454,"enced":3455,"dis":3456,"ellow":3457,"ma":3458,"Ġborn":3459,"Ġcunt":3460,"Ġfill":3461,"range":3462,"time":3463,"Ġlost":3464,"ĠRes":3465,"Ġposts":3466,"Ġbehind":3467,"ana":3468,"Ġwarring":3469,"Ġeasily":3470,"FUCK":3471,"uh":3472,"Ġblog":3473,"ĠWhile":3474,"Ġlists":3475,"Ġtemplates":3476,"45":3477,"Ġfat":3478,"Ġweeks":3479,"Ġsubstant":3480,"Ġverifiable":3481,"gots":3482,"Ġwik":3483,"ĠGoogle":3484,"Ġappl":3485,"ographies":3486,"Ġbasis":3487,"Ġrequired":3488,"CC":3489,"Ġahead":3490,"Ġpay":3491,"Ġliber":3492,"Ġassert":3493,"ĠGreek":3494,"stit":3495,"rite":3496,"Ġ!":3497,"Ġbody":3498,"len":3499,"ica":3500,"ĠCar":3501,"Ġspeedily":3502,"Ġz":3503,"Ġdiscussions":3504,"Ġignore":3505,"Ġproperly":3506,"Ġwilling":3507,"Ġperform":3508,"Ġground":3509,"cer":3510,"Ġmoment":3511,"Ġcomputer":3512,"80":3513,"ique":3514,"ĠGO":3515,"arding":3516,"ellig":3517,"Ġsolid":3518,"ĠCOCKSUCK":3519,"Ġwomen":3520,"AND":3521,"Ġinit":3522,"ĠFirst":3523,"Ġadministrators":3524,"?)":3525,"Ġcell":3526,"Ġsometimes":3527,"clus":3528,"ford":3529,"Ġreasonable":3530,"Ġasshole":3531,"Ġcentury":3532,"Ġforward":3533,"ĠAfter":3534,"ming":3535,"ĠInt":3536,"Ġexplained":3537,"Ġinvestig":3538,"Ġstub":3539,"Ġinfobox":3540,"Ġdefinitely":3541,"Ġreligion":3542,"ĠSy":3543,"Ġnomination":3544,"Ġarbit":3545,"Ġeasy":3546,"light":3547,"asing":3548,"Ġbec":3549,"ament":3550,"Ġsurpr":3551,"Ġfaggots":3552,"67":3553,"Ġcut":3554,"elt":3555,"Ġapparently":3556,"RS":3557,"ium":3558,"Ġimpl":3559,"ĠApril":3560,"rant":3561,"Ġdri":3562,"with":3563,"andom":3564,"ĠRoman":3565,"esus":3566,"asc":3567,"ĠCent":3568,"ester":3569,"Ġregards":3570,"Ġteach":3571,"Ġignor":3572,"Ġresol":3573,"Ġridic":3574,"29":3575,"Ġtre":3576,"Ġlocal":3577,"Ġ(~~~~);":3578,"Ġjoin":3579,"ĠHave":3580,"Ġclub":3581,"OTH":3582,"Ġsuspect":3583,"Ġcoun":3584,"ĠSorry":3585,"Ġdev":3586,"ĠSm":3587,"Ġdesign":3588,"shit":3589,"{|":3590,"andid":3591,"ke":3592,"|-":3593,"Ġerr":3594,"Ġnoted":3595,"ĠĠĊĊ":3596,"cedon":3597,"ĠYork":3598,"ems":3599,"Ġ2011":3600,"book":3601,"Ġwide":3602,"itude":3603,"Ġpublish":3604,"Ġreligious":3605,"fe":3606,"Ġfinal":3607,"Ġfund":3608,"Ġlicense":3609,"Ġluck":3610,"Ġargue":3611,"Ġmethod":3612,"Ġways":3613,"inese":3614,"ĠMc":3615,"sych":3616,"OH":3617,"Ġnature":3618,"Ġlo":3619,"ips":3620,"ilos":3621,"lear":3622,"ĠSw":3623,"Ġrelations":3624,"Ġresults":3625,"All":3626,"aign":3627,"ĠIm":3628,"istan":3629,"Ġnewsp":3630,"Ġsockpuppet":3631,"2010":3632,"Ġmilitary":3633,"Ġrad":3634,"know":3635,"tick":3636,"ume":3637,"ask":3638,"Ġformer":3639,"ĠBar":3640,"ĠWho":3641,"Ġbal":3642,"ality":3643,"ĠWhere":3644,"ĠDICK":3645,"Ġhesit":3646,"zz":3647,"Ġremoval":3648,"Request":3649,"pir":3650,"ene":3651,"Ġdick":3652,"Ġfucksex":3653,"emplate":3654,"69":3655,"Ġmeets":3656,"rief":3657,"ifying":3658,"ĠDecember":3659,"ps":3660,"Ġdrop":3661,"Ġforce":3662,"roy":3663,"):":3664,"br":3665,"ouch":3666,"ops":3667,"Ġmissing":3668,"????":3669,"Ġair":3670,"ube":3671,"Ġtrouble":3672,"Reg":3673,"ĠAfD":3674,"ĠNorth":3675,"Ġtotal":3676,"aaaaaaaaaaaaaaaa":3677,"ham":3678,"orth":3679,"Ġfreezer":3680,"Ġblank":3681,"Ġfamiliar":3682,"itle":3683,"lled":3684,"ĠHelp":3685,"Ġ50":3686,"ĠBecause":3687,"Ġoccur":3688,"Ġapproach":3689,"Ġbottom":3690,"Ġfully":3691,"this":3692,"under":3693,"Ġusage":3694,"Ġsatisf":3695,"Ġcouldn":3696,"Ġplaces":3697,"Ġwording":3698,"Ġwondering":3699,"yyyyyyyyyyyyyyyy":3700,"uyuyuyuyuyuyuyuy":3701,"Ġnegative":3702,"lav":3703,"nnnnnnnnnnnnnnnn":3704,"Ġcontroversial":3705,"hem":3706,"abor":3707,"net":3708,"ĠAct":3709,"________":3710,"ĠIM":3711,"Ġdescribe":3712,"Ġdog":3713,"ĠAnyway":3714,"Ġhyp":3715,"Ġencour":3716,"Ġpaper":3717,"that":3718,"Ġcontribution":3719,"tytytytytytytyty":3720,"Ġtend":3721,"Ġbar":3722,"Ġbecom":3723,"Ġselect":3724,"receding":3725,"iting":3726,"ening":3727,"ĠCal":3728,"rack":3729,"ĠEl":3730,"Ġideas":3731,"Ġpropaganda":3732,"Ad":3733,"ĠSim":3734,"sequ":3735,"ĠPage":3736,"Ġintention":3737,"Ġconcerned":3738,")\"":3739,"Ġpossibly":3740,"BC":3741,"ĠSeptember":3742,"ĠÂ·":3743,"NN":3744,"Ġce":3745,"Ġpain":3746,"ured":3747,"Ġtests":3748,"New":3749,"ĠIran":3750,"ĠPR":3751,"ĠNovember":3752,"Ġtrad":3753,"REED":3754,"Ġobser":3755,"Ġsupported":3756,"Ġimportance":3757,"ĠOctober":3758,"Ġdiscussing":3759,"Ġbecame":3760,"ĠCOM":3761,"ĠBest":3762,"irt":3763,"Ġsuggestion":3764,"Ġsexual":3765,"ĠRegards":3766,"Ġmovie":3767,"FC":3768,"Ġ[[":3769,"Ġcourt":3770,"Ġwarnings":3771,"ĠMuslim":3772,"LY":3773,"ays":3774,"ĠOther":3775,"ciety":3776,"Ġreferenced":3777,"Ġmap":3778,"Ġhuge":3779,"aring":3780,"Ġgames":3781,"ceed":3782,"ĠFr":3783,"ĠJim":3784,"ĠChurch":3785,"Ġbasic":3786,"Ġappreciated":3787,"ĠGetting":3788,"ĠIr":3789,"Ġestablished":3790,"Ġmoney":3791,"Ġprot":3792,"Ġguideline":3793,"Ġidiot":3794,"ANN":3795,"Ġexpert":3796,"Ġprior":3797,"aff":3798,"Ġge":3799,"ifies":3800,"ugh":3801,"Ġfavor":3802,"ĠAnt":3803,"php":3804,"Ġnominated":3805,"ĠOh":3806,"ae":3807,"chie":3808,"ĠSHIT":3809,"Ġsuccess":3810,"gest":3811,"uous":3812,"ingu":3813,"Ġfall":3814,"ources":3815,"CRAPCRAPCRAPCRAP":3816,"val":3817,"Ġeconom":3818,"cest":3819,"well":3820,"ĠState":3821,"Ġsuggested":3822,"Spe":3823,"ĠRem":3824,"REEDOM":3825,"atory":3826,"Ġforum":3827,"Ġvers":3828,"Ġpresented":3829,"Ġtypes":3830,"?!":3831,"iour":3832,"point":3833,"Ġlib":3834,"Ġfixed":3835,"ĠSchool":3836,"Ġboy":3837,"Ġbrought":3838,"Ġvalue":3839,"Ġpreviously":3840,"Quest":3841,"ĊĊĠ":3842,"Ġreferring":3843,"Ġsounds":3844,"ware":3845,"Ġdiv":3846,"ĠMore":3847,"rian":3848,"Ġpick":3849,"ĠYes":3850,"ĠNews":3851,"KE":3852,"ĠSUP":3853,"ĠHistory":3854,"FREEDOM":3855,"ĠFrench":3856,"atholic":3857,"ĠFebruary":3858,"Ġbother":3859,"ĠNote":3860,"ael":3861,"Ġincident":3862,"Ġhesitate":3863,"',":3864,"icit":3865,"Ġneither":3866,"Ġjournal":3867,"Ġincre":3868,"ĠDoes":3869,"bar":3870,"Ġthous":3871,"ERS":3872,"ĠTHAT":3873,"alest":3874,"Ġreceived":3875,"Ġyours":3876,"Ġprinc":3877,"ĠQu":3878,"Ġcapital":3879,"ĠPeople":3880,"ambiguation":3881,"ec":3882,"ids":3883,"ĠBel":3884,"Ġrole":3885,"related":3886,"Ġepisode":3887,"Ġridiculous":3888,"Ġhor":3889,"Ġnear":3890,"anish":3891,"Ġhey":3892,"Ġapply":3893,"Ġwidth":3894,"gree":3895,"Ġstick":3896,"ened":3897,"cel":3898,"Ġspam":3899,"Ġreleased":3900,"isions":3901,"ows":3902,"style":3903,"ustr":3904,"Ġweight":3905,"Ġaccusations":3906,"Ġparts":3907,"Ġder":3908,"Ġvict":3909,"Ġanymore":3910,"Ġhappens":3911,"rep":3912,"anies":3913,"uses":3914,"Ġservice":3915,"Ġcharacters":3916,"Ġphrase":3917,"Ġcontributors":3918,"!!!!!!!!!!!!!!!!!!!!!!!!!!!!!!!!!!!!!!!!!!!!!!!!!!!!!!!!!!!!!!!!":3919,"link":3920,"nce":3921,"ze":3922,"Ġconduct":3923,"ĠPar":3924,"Ġintended":3925,"ko":3926,"yond":3927,"Ġsal":3928,"Ġda":3929,"Ġlow":3930,"ĠOR":3931,"Ġmanner":3932,"ERE":3933,"Ġkept":3934,"Ġhomo":3935,"Ġglad":3936,"Ġled":3937,"chan":3938,"ipp":3939,"26":3940,"Ġexists":3941,"Articles":3942,"Ġracist":3943,"urt":3944,"Ġsomewhere":3945,"enda":3946,"Ġactive":3947,"Ġtopics":3948,"Ġquotes":3949,"Ġlik":3950,"class":3951,"Ġtelling":3952,"ript":3953,"Ġbull":3954,"Ġcandid":3955,"Ġparent":3956,"raight":3957,"Any":3958,"MM":3959,"Ġwhose":3960,"Ġseeing":3961,"Ġreality":3962,"Ġinterview":3963,"One":3964,"ĠGA":3965,"When":3966,"mi":3967,"Ġsad":3968,"ulations":3969,"Ġclaimed":3970,"Ġrepeatedly":3971,"Good":3972,"leading":3973,"Ġinstance":3974,"reedom":3975,"21":3976,"Ġcast":3977,"ĠWas":3978,"Ġfactual":3979,"Ġmaintain":3980,"48":3981,"bi":3982,"Ġlate":3983,"Ġjoke":3984,"adding":3985,"ĠArab":3986,"Ġshall":3987,"ĠMU":3988,"ilosoph":3989,"cise":3990,"gin":3991,"ĠÐ":3992,"Ġnet":3993,"ĠCategory":3994,"ivility":3995,"Ġage":3996,"Ġuploading":3997,"ĠAdd":3998,"erv":3999,"orge":4000,"Ġbeyond":4001,"aging":4002,"Ġbehaviour":4003,"Ġstruct":4004,"ĠHope":4005,"Ġchalle":4006,"Ġack":4007,"Ġbirth":4008,"Ġland":4009,"hetic":4010,"Ġmostly":4011,"Ġ====":4012,"Ġfit":4013,"Ġtrust":4014,"!)":4015,"Ġbase":4016,"Ġbast":4017,"esis":4018,"ĠFurther":4019,"Ġknew":4020,"ANS":4021,"Ġnobody":4022,"Ġsla":4023,"Ġlies":4024,"ĠDavid":4025,"Ġshowing":4026,"Ġinvolve":4027,"Ġimmediately":4028,"bor":4029,"Ġleaving":4030,"Ġconfused":4031,"WWWWWWWWWWWWWWWW":4032,"Now":4033,"azine":4034,"Ġchecking":4035,"ESS":4036,"Ġcategories":4037,"lin":4038,"itation":4039,"Ġancest":4040,"Ġdespite":4041,"aut":4042,"tr":4043,"Ġtown":4044,"Ġnat":4045,"omb":4046,"Ġshare":4047,"Ġchurch":4048,"ĠIndian":4049,"1111111111111111":4050,"68":4051,"Ġstating":4052,"Ġsomebody":4053,"CKS":4054,"Ġrealize":4055,"Ġblat":4056,"ĠMost":4057,"Ġincludes":4058,"ĠRussian":4059,"Ġcond":4060,"Ġbeginning":4061,"Ġpractice":4062,"WikiProject":4063,"List":4064,"Ġsend":4065,"itable":4066,"Ġaspect":4067,"ĠCo":4068,"ĠBlack":4069,"Ġdemonstr":4070,"08":4071,"DY":4072,"Ġstraight":4073,"âĢĵ":4074,"Ġvertical":4075,"Ġclaiming":4076,"stream":4077,"Ġseason":4078,"Ġcompet":4079,"Ġcomb":4080,"Ġadvertising":4081,"ho":4082,"Ġimag":4083,"iven":4084,"index":4085,"ĠItal":4086,"Ġspelling":4087,"ĠChinese":4088,"Ġtrack":4089,"Ġacademic":4090,"36":4091,"eg":4092,"Ġachie":4093,"Ġnight":4094,"ĠMin":4095,"Ġcampaign":4096,"tw":4097,"Ġrefrain":4098,"ĠCould":4099,"Ġbroad":4100,"ĠBUTT":4101,"ĠWould":4102,"Ġintent":4103,"Ġguide":4104,"199":4105,"Ġmovement":4106,"IV":4107,"PS":4108,"cret":4109,"Ġchoose":4110,"Ġrecommend":4111,"Ġacknow":4112,"Ġsuffic":4113,"âĢ¢":4114,"Ġcompanies":4115,"====":4116,"37":4117,"ya":4118,"Ġshared":4119,"ĠUnder":4120,"OOOO":4121,"Ġfront":4122,"Ġfeatured":4123,"Ġextremely":4124,"helpme":4125,"55":4126,"cil":4127,"::::":4128,"ĠMacedon":4129,"Ġbrief":4130,"Ġhost":4131,"ara":4132,"entially":4133,"Ġlength":4134,"Ġwebsites":4135,"Dear":4136,"ĠMo":4137,"ĠEvery":4138,"odes":4139,"Ġreverts":4140,"ocrat":4141,"Ġauthority":4142,"38":4143,"39":4144,"idge":4145,"ĠApp":4146,"Ġrefers":4147,"hib":4148,"Ġrandom":4149,"Ġ27":4150,"ĠKore":4151,"iously":4152,"Ġaccused":4153,"44":4154,"First":4155,"ĠCount":4156,"raz":4157,"ĠJesus":4158,"ĠHappy":4159,"ĠSUPER":4160,"Ġsens":4161,"Ġappe":4162,"Ġunsourced":4163,"Ġkilled":4164,"Ġpun":4165,"ĠMich":4166,"Ġphotos":4167,"Ġboard":4168,"Fair":4169,"ĠAR":4170,"apers":4171,"Ġinsist":4172,"upport":4173,"Ġmerge":4174,"Ġlabel":4175,"Ġinput":4176,"Ġalleg":4177,"Ġagenda":4178,"ondon":4179,"Ġencyclopedic":4180,"Ġhop":4181,"ĠMOTH":4182,"Ġdisplay":4183,"uman":4184,"Ġconstructive":4185,"orrow":4186,"Ġfem":4187,"ĠCity":4188,"ĠLA":4189,"ĠIts":4190,"ccording":4191,"ĠĊĊĠ":4192,"ĠCanada":4193,"Ġlegitimate":4194,"?\"\"":4195,"esides":4196,"lobal":4197,"Ġadditions":4198,"Ġstarting":4199,"Are":4200,"ĠMon":4201,"ĠRed":4202,"Ġheav":4203,"Ġconnection":4204,"Or":4205,"apt":4206,"gar":4207,"vey":4208,"ĠHigh":4209,"ĠJe":4210,"Ġdistin":4211,"SECKS":4212,"Ġcontroversy":4213,"Ġproposal":4214,"Ġjudge":4215,"ĠBUTTSECKS":4216,"GA":4217,"ience":4218,"imedia":4219,"ades":4220,"ĠMany":4221,"ilt":4222,"ĠFl":4223,"ĠGreat":4224,"Ġ-)":4225,"AGE":4226,"undred":4227,"some":4228,"anks":4229,"77":4230,"Ġwater":4231,"Ġimm":4232,"Ġnumerous":4233,"Ġ2013":4234,"Ġeyes":4235,"inst":4236,"rees":4237,"Ġredu":4238,"protect":4239,"istics":4240,"Ġemploy":4241,"Ġcal":4242,"Ġpuppet":4243,"Ġeat":4244,"Ġreput":4245,"Ġfunny":4246,"Ġanim":4247,"Ġreject":4248,"Ġvia":4249,"Ġpoop":4250,"Ġplayed":4251,"ĠSecond":4252,"Ġsecondary":4253,"can":4254,"iant":4255,"Ġhouse":4256,"ĠPres":4257,"Ġpersons":4258,"AME":4259,"HT":4260,"anced":4261,"Ġreferred":4262,"Ġupdated":4263,"Ġpure":4264,"ĠSup":4265,"Ġsubjects":4266,"ALK":4267,"Ġpositive":4268,"pen":4269,"ino":4270,"Ġlimited":4271,"ius":4272,"inter":4273,"isation":4274,"Ġdom":4275,"igher":4276,"Ġsold":4277,"Manual":4278,"Ġfeed":4279,"ĠEngland":4280,"ĠBLOCK":4281,"Ġpermission":4282,"Ġbastard":4283,"OK":4284,"cle":4285,"Ġlie":4286,"ĠGermany":4287,"Ġadmit":4288,"\":":4289,"inent":4290,"Ġfelt":4291,"Ġassist":4292,"Ġanonymous":4293,"Ġinn":4294,"ills":4295,"urg":4296,"ĠFrom":4297,"ĠDE":4298,"Ġapologize":4299,"ram":4300,"Ġthread":4301,"reland":4302,"Ġcode":4303,"ĠPaul":4304,"Ġexc":4305,"oses":4306,"Ġanywhere":4307,"ersonal":4308,"Ġfollowed":4309,"Ġraised":4310,"35":4311,"Since":4312,"ises":4313,"Ġpointed":4314,"Ġefforts":4315,"known":4316,"IR":4317,"Ġdecl":4318,"Ġfinding":4319,"Ġprint":4320,"Ġcrap":4321,"oper":4322,"Ġthinks":4323,"Ġchecked":4324,"down":4325,"Ġagreed":4326,"Ġoffer":4327,"ĠArticles":4328,"ĠCommun":4329,"Ġclicking":4330,"db":4331,"tt":4332,"Ġut":4333,"owing":4334,"Ġareas":4335,"Ġblood":4336,"Ġfairly":4337,"Ġslight":4338,"Ġperfectly":4339,"By":4340,"MIN":4341,"Pe":4342,"fact":4343,"Ġtar":4344,"Ġtouch":4345,"orship":4346,"ĠĠĠĠĠ":4347,"Ġregist":4348,"Ġbasically":4349,"Ġvisit":4350,"Sp":4351,"ken":4352,"nel":4353,"ĠPort":4354,"accur":4355,"Ġstudents":4356,"ĠSerb":4357,"PA":4358,"Â·":4359,"ushing":4360,"ĠCor":4361,"Ġspeech":4362,"Ġmisleading":4363,"Ġlogged":4364,"Ġcommunic":4365,"ossible":4366,"formation":4367,"Ġkey":4368,"ringe":4369,"Ġimproving":4370,"Ġbands":4371,"Edit":4372,"ĨĴ":4373,"Ġfather":4374,"Ġvill":4375,"aby":4376,"Ġregion":4377,"opyright":4378,"BO":4379,"May":4380,"ĠFre":4381,"fered":4382,"Ġx":4383,"Ġtone":4384,"Ġconform":4385,"Ġmoving":4386,"ittee":4387,"Ġelsewhere":4388,"Ġlanguages":4389,"FFFA":4390,"ĠJapanese":4391,"width":4392,"Ġpsych":4393,"arks":4394,"ĠJames":4395,"Ġkeeping":4396,"onna":4397,"Ġability":4398,"ĠHind":4399,"Ġintellig":4400,"Ġoffensive":4401,"Ġseemed":4402,"Ġsett":4403,"%\"\"":4404,"mine":4405,"Ġcontrad":4406,"arded":4407,"...\"\"":4408,"Ġhelping":4409,"Ġ2014":4410,"ray":4411,"eng":4412,"asure":4413,"urder":4414,"Ġintroduction":4415,"Ass":4416,"Ġspl":4417,"Ġhundred":4418,"Ġwhom":4419,"olf":4420,"Ġsomewhat":4421,"atively":4422,"Ġminutes":4423,"Ġupdate":4424,"istor":4425,"Ġvs":4426,"ĠNOO":4427,"Ġrequested":4428,"Ġcopyrighted":4429,"oca":4430,"ĠCy":4431,"ĠHol":4432,"Ġrunning":4433,"Ġreached":4434,"Ġdestroy":4435,"diff":4436,"Ġten":4437,"Ġsca":4438,"Ġresolution":4439,"ocks":4440,"Ġrom":4441,"quently":4442,"Ġworse":4443,"Ġgod":4444,"Ġgramm":4445,"Ġexperimenting":4446,"Ġestablish":4447,"47":4448,"HH":4449,"TW":4450,"inally":4451,"Ġheld":4452,"ĠOK":4453,"Ġapplic":4454,"Ġfailed":4455,"fortunately":4456,"Ġgirl":4457,"Ġnotes":4458,"ĠNO":4459,"artment":4460,"alled":4461,"ANK":4462,"Ġil":4463,"urb":4464,"law":4465,"Ġsyn":4466,"ship":4467,"Ġcolor":4468,"ĠNOOBS":4469,"Ġsn":4470,"atives":4471,"ITH":4472,"Ġcoverage":4473,"Ġnormal":4474,"Ġmix":4475,"Ġdig":4476,"orts":4477,"umn":4478,"ĠJack":4479,"Ġsuggestions":4480,"Ġharm":4481,"Help":4482,"egr":4483,"ergy":4484,"alent":4485,"Ġrequires":4486,"Ġprotected":4487,"Che":4488,"oul":4489,"user":4490,"ĠSam":4491,"ĠCour":4492,"ĠMet":4493,"Ġtrain":4494,"ĠChar":4495,"ysis":4496,"Ġreplaced":4497,"Ġeye":4498,"].":4499,"ein":4500,"Ġdeep":4501,"ĠFUCKER":4502,"Ġeasier":4503,"Sm":4504,"Ġ+":4505,"ĠSun":4506,"ĠDes":4507,"Ġ26":4508,"osex":4509,"Ġprotection":4510,"46":4511,"Yeah":4512,"Ġbold":4513,"Ġseek":4514,"ĠChina":4515,"Ġdefend":4516,"Con":4517,"Ġscholars":4518,"rog":4519,"ĠCro":4520,"ĠParty":4521,"ĠMal":4522,"Ġunlike":4523,"Ġattribut":4524,"Ġsmell":4525,"Ġerrors":4526,"56":4527,"ih":4528,"uel":4529,"erry":4530,"Ġcross":4531,"image":4532,"stood":4533,"ĠMedia":4534,"Ġspeaking":4535,"58":4536,"MA":4537,"Ġcant":4538,"Ġang":4539,"ĠIreland":4540,"ĠDa":4541,"Ġchoice":4542,"Ġlogic":4543,"ican":4544,"Ġord":4545,"ĠLa":4546,"Ġpolice":4547,"she":4548,"Ġhigher":4549,"Ġrange":4550,"Ġcorre":4551,"ĠII":4552,"arm":4553,"42":4554,"Ġho":4555,"Ġcompar":4556,"Ġsuppose":4557,"Ġclosed":4558,"osexual":4559,"rey":4560,"Ġlines":4561,"Ġconsidering":4562,"Ġrelationship":4563,"Ind":4564,"ky":4565,"title":4566,"\"\")":4567,"ĠDem":4568,"raid":4569,"Ġcomprom":4570,"ITCH":4571,"Ġsize":4572,"Ġbattle":4573,"Ġtruly":4574,"const":4575,"ruction":4576,"Ġalternative":4577,"LA":4578,"Ġdied":4579,"ĠSov":4580,"amer":4581,"Ġrude":4582,"Ġindust":4583,"erman":4584,"Ġreviewed":4585,"Ġrock":4586,"Ġadditional":4587,"Ġstrongly":4588,"pective":4589,"Ġpromote":4590,"Ġcollabor":4591,"ĠADMIN":4592,"Ġ$":4593,"Ġodd":4594,"ership":4595,"Ġsomehow":4596,"ĠArmen":4597,"Ġsentences":4598,"Ġlaws":4599,"Ġcounter":4600,"Jew":4601,"Preceding":4602,"Ġgoogle":4603,"Ġwaste":4604,"Ġtitles":4605,"Ġfool":4606,"Ġdouble":4607,"Ġinternational":4608,"news":4609,"90":4610,"YOU":4611,"Ġbunch":4612,"Ġrace":4613,"Ġbiographies":4614,"Ġfaggot":4615,"Ġple":4616,"Ġcitiz":4617,"Ġexistence":4618,"Dis":4619,"TR":4620,"Ġbiography":4621,"Ġnigg":4622,"Ġyoung":4623,"ception":4624,"Ġfamous":4625,"Ġoccup":4626,"Ġmentions":4627,"Ġdetermin":4628,"cies":4629,"iated":4630,"chive":4631,"ift":4632,"ander":4633,"Ġcontains":4634,"itional":4635,"Ġexplicit":4636,"Ġthoughts":4637,"Ġcriterion":4638,"ĠEuropean":4639,"Ġnewspaper":4640,"Ġpush":4641,"Ġgra":4642,"Ġverify":4643,"Ġaddressed":4644,"ĠUSA":4645,"Ġbul":4646,"Ġren":4647,"ĠPers":4648,"Ġworry":4649,"ĠEast":4650,"Ġpron":4651,"face":4652,"Ġdraw":4653,"ĠBITCH":4654,"ief":4655,"Ġplaying":4656,"ĠComp":4657,"34":4658,"Ġson":4659,"Ġforgot":4660,"tice":4661,"Ġrestored":4662,"Ġparticipate":4663,"88":4664,"ĠSan":4665,"ĠFOR":4666,"OUS":4667,"Ġcorrectly":4668,"efin":4669,"Ġfigures":4670,"Ġundo":4671,"Questions":4672,"66":4673,"Act":4674,"revert":4675,"Ġdie":4676,"ĠAng":4677,"Ġphilosoph":4678,"Ġshortly":4679,"Ġlocated":4680,"Ġquickly":4681,"bl":4682,"Ġaud":4683,"astic":4684,"Ġreve":4685,"Ġconvers":4686,"ruption":4687,"Ġengine":4688,"ien":4689,"Ġalle":4690,"ĠLook":4691,"force":4692,"Ġproviding":4693,"Ġlicens":4694,"Ab":4695,"post":4696,"Ġtheories":4697,"Ġinaccur":4698,"ĠCatholic":4699,"Ġhealth":4700,"uppets":4701,"Ġafraid":4702,"Americ":4703,"ping":4704,"ĠAc":4705,"ĠBarnstar":4706,"ĠLondon":4707,"lace":4708,"Ġprovides":4709,"Ġdisputed":4710,"Ġcircum":4711,"%;":4712,"krain":4713,"Ġsix":4714,"Ġmiddle":4715,"Ġblocks":4716,"ĠAlthough":4717,"ĠTherefore":4718,"asion":4719,"Ġconclusion":4720,"Ġalt":4721,"Ġmatters":4722,"Ġcontents":4723,"Ġdeserve":4724,"Ġcat":4725,"Ġpet":4726,"Ġdi":4727,"ĠTw":4728,"ĠMag":4729,"anted":4730,"ords":4731,"Ġcareful":4732,"........":4733,"Ġthreats":4734,"yan":4735,"Ġacting":4736,"Ġspread":4737,"ĠIrish":4738,"07":4739,"sure":4740,"vil":4741,"Ġfol":4742,"Ġbegan":4743,"Ġforget":4744,"Ġshot":4745,"Ġrul":4746,"Ġcovered":4747,"Ġancient":4748,"ISM":4749,"Ġfinally":4750,"Tutorial":4751,"uing":4752,"Ġrepl":4753,"une":4754,"ĠPat":4755,"ĠHer":4756,"pped":4757,"Ġ28":4758,"ĠLike":4759,"Ġwatching":4760,"Ġfootball":4761,"Ġinterpretation":4762,"06":4763,"49":4764,"Cl":4765,"cast":4766,"iny":4767,"Ġgain":4768,"ĠAS":4769,"Ġunne":4770,"ĠWikipedians":4771,"Category":4772,"van":4773,"à¤":4774,"ĠFran":4775,"iance":4776,"INK":4777,"Ġproven":4778,"iverse":4779,"ĠWW":4780,"They":4781,"Ġlisting":4782,"ĠRec":4783,"Ġhitler":4784,"03":4785,"PR":4786,"etic":4787,"ria":4788,"Ġsan":4789,"Ġdates":4790,"ĠPalest":4791,"ĠFile":4792,"Ġsoft":4793,"lands":4794,"ĠDeletion":4795,"Ġterrit":4796,"boy":4797,"Ġsilly":4798,"icks":4799,"Ġmentioning":4800,"AAAA":4801,"Ġassociated":4802,"85":4803,"UR":4804,"Ġwind":4805,"ĠRel":4806,"Ġpred":4807,"Ġcaused":4808,"Ġdevelopment":4809,"Ġ~":4810,"Ġfellow":4811,"ĠWales":4812,"Ġassess":4813,"Ġmainstream":4814,"Ġwarned":4815,"Ġoriginally":4816,"UU":4817,"Ġball":4818,"ari":4819,"izations":4820,"Ġattitude":4821,"Ġtagging":4822,"oyal":4823,"Ġdelay":4824,"Ġtranslation":4825,"Ġbuilding":4826,"Ġsufficient":4827,"miss":4828,"za":4829,"adian":4830,"ĠAustralia":4831,"PG":4832,"Ġsolution":4833,"Ġgonna":4834,"irit":4835,"ĠFR":4836,"Ġconspir":4837,"Ġspend":4838,"Ġreviews":4839,"Ġthroughout":4840,"Ġappeared":4841,"Per":4842,"ga":4843,"Ġwoman":4844,"alking":4845,"ĠRich":4846,"osp":4847,"Ġreports":4848,"59":4849,"vir":4850,"reh":4851,"igger":4852,"ĠUP":4853,"41":4854,"Ġasser":4855,"ĠHE":4856,"ritten":4857,"Ġdefined":4858,"Ġannoy":4859,"Ġdumb":4860,"agon":4861,"ĠTimes":4862,"Ġappeal":4863,"Ġconcerning":4864,"Ġattempts":4865,"05":4866,"Ġfreedom":4867,"Ġ(\"\"":4868,"ĠVer":4869,"Ġentries":4870,"Ġvictim":4871,"31":4872,"Go":4873,"inks":4874,"ĠLaw":4875,"JER":4876,"Ġenergy":4877,"ATION":4878,"Ġtriv":4879,"Ġopposed":4880,"Ġprofessional":4881,"Fe":4882,"ND":4883,"ĠWITH":4884,"amil":4885,"Ġkeeps":4886,"Ġlots":4887,"ĠShould":4888,"Ġbelongs":4889,"ĠCOCKSUCKER":4890,"Ġadop":4891,"Ġfunction":4892,"Ġlocation":4893,"ĠPhil":4894,"Ġclarify":4895,"ĠMOTHJER":4896,"\",":4897,"Page":4898,"ĠCong":4899,"Ġprogress":4900,"Ġanybody":4901,"phas":4902,"Ġlatter":4903,"Ġilleg":4904,"GG":4905,"War":4906,"Ġlay":4907,"Ġlos":4908,"ĠTR":4909,"ĠEmp":4910,"Ġsave":4911,"Ġuserpage":4912,"Ġcopied":4913,"Ġdetailed":4914,"Ġmerged":4915,"ĠAfrican":4916,"09":4917,"iqu":4918,"uns":4919,"ĠCr":4920,"ĠDep":4921,"racy":4922,"Ġpointing":4923,"ĠArb":4924,"Ġhardly":4925,"ĠSoviet":4926,"54":4927,"Ġpaid":4928,"het":4929,"Ġheil":4930,"Who":4931,"Ġletter":4932,"background":4933,"Ġokay":4934,"ORE":4935,"vere":4936,".....":4937,"Ġrank":4938,"Ġevolution":4939,"standing":4940,"IGHT":4941,"ĠBLP":4942,"57":4943,"Ste":4944,"ãģ":4945,"oved":4946,"Ġhelps":4947,"Ġcareer":4948,"LD":4949,"ault":4950,"mon":4951,"Ġri":4952,"Ġfire":4953,"ustice":4954,"pled":4955,"berg":4956,"Ġreasoning":4957,"ĠManual":4958,"Ġunblocked":4959,"Ġindividuals":4960,"mbol":4961,"Ġinvolvement":4962,"ĠPresident":4963,"TC":4964,"Ġearth":4965,"ĠRAP":4966,"Ġviolate":4967,"Ed":4968,"ux":4969,"Ġtacos":4970,"Ġmurder":4971,"aph":4972,"ordin":4973,"Ġcontributor":4974,"ĠAlban":4975,"Ġsupporting":4976,"who":4977,"ussy":4978,"ĠDOG":4979,"Ġmodel":4980,"Sex":4981,"erk":4982,"Ġnation":4983,"owers":4984,"Ġfac":4985,"Ġ2003":4986,"Ġobjective":4987,"Where":4988,"bel":4989,"note":4990,"Ġsick":4991,"Ġsociety":4992,"Ġparties":4993,"Ġcontinued":4994,"while":4995,"ĠSUCKS":4996,"IRE":4997,"your":4998,"ctor":4999,"ĠAlex":5000,"Ġunre":5001,"ciation":5002,"Ġsuggesting":5003,"Ġarchive":5004,"ĠGeorge":5005,"Ġbenefit":5006,".[":5007,"32":5008,"iate":5009,"Ġtax":5010,"Ġcy":5011,"ĠTacos":5012,"rible":5013,"ĠRight":5014,"Ġ29":5015,"ĠANI":5016,"Ġ2015":5017,"Ġmistakes":5018,"Ġmedical":5019,"Ġsignificance":5020,"TM":5021,"Ð°":5022,"ĠFrank":5023,"Ġdisambiguation":5024,"Ġhasn":5025,"cluding":5026,"Ġsignature":5027,"Ġignored":5028,"ĠInternet":5029,"oly":5030,"pd":5031,"olit":5032,"ett":5033,"Ġremains":5034,"Ġminority":5035,"cellent":5036,"Ġparents":5037,"fess":5038,"stead":5039,"ĠĠĠĊĊ":5040,"Ġspecified":5041,"3333":5042,"Ġwidely":5043,"ĠPAGE":5044,"ĠDR":5045,"Ġextra":5046,"Ġdealing":5047,"going":5048,"Ġaffect":5049,"Ġdetermine":5050,"Ġtarget":5051,"hh":5052,"hood":5053,"Ġwars":5054,"Ġnar":5055,"ĠSing":5056,"Ġcommer":5057,"Ġcalls":5058,"reliable":5059,"Ġexperienced":5060,"ictionary":5061,"Ġconsistent":5062,"Ġpotential":5063,"Ġthousands":5064,"lan":5065,"rd":5066,"Ġthats":5067,"ĠAL":5068,"aker":5069,"ĠNazi":5070,"Ġstands":5071,"Ġsummaries":5072,"Ġfiles":5073,"Ġbitches":5074,"Ġcontradict":5075,"Let":5076,"wood":5077,"Ġwest":5078,"ĠBi":5079,"irty":5080,"ĠLat":5081,"Ġconfusion":5082,"ICANS":5083,"Ð¾":5084,"ĠCons":5085,"ĠMark":5086,"ĠHouse":5087,"rie":5088,"Ġjustify":5089,"Ġpeer":5090,"Ġchart":5091,"ressed":5092,"ĠStop":5093,"rug":5094,"Ġprivate":5095,"Ġstructure":5096,"Ġcry":5097,"ĠBill":5098,"Ġgoal":5099,"Ġconfusing":5100,"Ġsmells":5101,"ape":5102,"ady":5103,"Ġdegree":5104,"ĠJud":5105,"Ġinstruct":5106,"At":5107,"Ġcost":5108,"ĠTemplate":5109,"Ġdisapp":5110,"Ġtwice":5111,"othing":5112,"ĠMichael":5113,"Ġaim":5114,"itler":5115,"sec":5116,"irm":5117,"asty":5118,"ANT":5119,"Ġwishes":5120,"Ġbusy":5121,"Ġrevision":5122,"Ġconfirmed":5123,"Ġsqu":5124,"Ġsole":5125,"Ġplain":5126,"Ġrestore":5127,"lenty":5128,"Ġlatest":5129,"78":5130,"IF":5131,"ying":5132,"ĠHello":5133,"cessary":5134,"Ġmissed":5135,"75":5136,"bre":5137,"verage":5138,"Ġnearly":5139,"Ġcomplex":5140,"Ġspent":5141,"Ġsurprised":5142,"ĠRAPE":5143,"books":5144,"Ġrare":5145,"ĠStar":5146,"Ġdisputes":5147,"FFFF":5148,"Ġphotograph":5149,"contribs":5150,"ĠKingdom":5151,"Regarding":5152,"ses":5153,"Ġpushing":5154,"Ġnik":5155,"iginal":5156,"ĠChan":5157,"Ġmagazine":5158,"Actually":5159,"AC":5160,"OI":5161,"SD":5162,"ghan":5163,"Ġsides":5164,"Ġwin":5165,"ĠWelcome":5166,"ĠSoc":5167,"ola":5168,"ĠDay":5169,"ĠUkrain":5170,"ptions":5171,"Ġlisten":5172,"Ġaccident":5173,"Ġciting":5174,"ĠAmericans":5175,"Ġeducation":5176,"even":5177,"zen":5178,"Ġfans":5179,"Ġlock":5180,"Ġjump":5181,"Ġtalkpage":5182,"Ġprecise":5183,"Ġopening":5184,"ĠMEX":5185,";\"\"":5186,"iers":5187,"rass":5188,"ĠWhite":5189,"Ġstudies":5190,"Stop":5191,"Ġanalysis":5192,"ining":5193,"earch":5194,"Ġviewpoint":5195,"Ġmisunder":5196,"Ġcomplaint":5197,"Ġdamn":5198,"Ġfundament":5199,"Ġ>":5200,"Ġwikiped":5201,"Ġtom":5202,"Ġworst":5203,"osh":5204,"mit":5205,"ederal":5206,"ali":5207,"hered":5208,"Ġidentity":5209,"ANDAL":5210,"ĠMEXICANS":5211,"Rem":5212,"orough":5213,"ĠPark":5214,"Ġunable":5215,"Ġvoice":5216,"Ġcritical":5217,"Ġpropose":5218,"Ġquoted":5219,"Ġforeign":5220,"ĠWestern":5221,"Ġinfluence":5222,"Ġversions":5223,"gn":5224,"Ġhat":5225,"Ġrap":5226,"ĠANY":5227,"ounced":5228,"Ġperspective":5229,"Ġharassment":5230,"Ġancestry":5231,"Ġnikko":5232,"rs":5233,"ĠSu":5234,"ĠKeep":5235,"Ġbrain":5236,"Ġcollect":5237,"ISH":5238,"Ġdeliber":5239,"Ġmarket":5240,"Ġblatant":5241,"Ph":5242,"âĻ":5243,"seud":5244,"Ġsemi":5245,"ette":5246,"Ġround":5247,"raq":5248,"Ġpeace":5249,"Ġimpossible":5250,"hington":5251,"Ġaward":5252,"Ġapplied":5253,"Did":5254,"ĠPH":5255,"ollocks":5256,"Ġvandalizing":5257,"Ġverified":5258,"Ġwriter":5259,"ĠCommons":5260,"Ġeventually":5261,"Ġmetal":5262,"gypt":5263,"Ġplenty":5264,"Ġstation":5265,"ĠBo":5266,"ĠMat":5267,"Ġmyth":5268,"Ġreads":5269,"Ġinvent":5270,"viously":5271,"Ġmotiv":5272,"Ġgrammar":5273,")?":5274,"From":5275,"fa":5276,"Ġrate":5277,"Ġlaugh":5278,"Ġarbitration":5279,"Ġignorant":5280,"WN":5281,"ulated":5282,"cussion":5283,"ĠDec":5284,"64":5285,"NPOV":5286,"isk":5287,"ĠBen":5288,"leted":5289,"ĠâĢĺ":5290,"Ġauthors":5291,"THE":5292,"ĠRussia":5293,"ĠObama":5294,"Ġfeedback":5295,"Ġconspiracy":5296,"IE":5297,"Ġpussy":5298,"istent":5299,"ĠRober":5300,"ends":5301,"curity":5302,"ĠEmpire":5303,"ĠTom":5304,"imin":5305,"ĠRo":5306,"Ġpoll":5307,"Ġplayer":5308,"Ġcollege":5309,"Ġengage":5310,"Ġcarefully":5311,"Ġdomain":5312,"Ġnaming":5313,"ida":5314,"Ġproced":5315,"Ġsymbol":5316,"Ġminim":5317,"Ġregardless":5318,"Ġniggas":5319,"53":5320,"pic":5321,"Ġlives":5322,"ams":5323,"ĠĊĠ":5324,"Ġstudent":5325,"ĠIsraeli":5326,"04":5327,"sub":5328,"ua":5329,"article":5330,"Ġlol":5331,"Ġlower":5332,"verse":5333,"riv":5334,"Ġking":5335,"Ġintegr":5336,"Ġ31":5337,"ĠPolish":5338,"Ġbegin":5339,"Ġresponsible":5340,"onic":5341,"onment":5342,"ĠBig":5343,"Ġcontrary":5344,"Ġheart":5345,"ivity":5346,"Ġremind":5347,"Ġplot":5348,"Ġexpanded":5349,"Jewish":5350,"Ġcommercial":5351,"Ġmid":5352,"ĠIR":5353,"asp":5354,"herent":5355,"ously":5356,"Ġpolitics":5357,"Ġpresident":5358,"ĠLAW":5359,"65":5360,"Add":5361,"UE":5362,"vi":5363,"ĠÎ":5364,"ĠIF":5365,"Ġcredit":5366,"ĠTrans":5367,"Ġachieve":5368,"Ġsoftware":5369,"Ne":5370,"inf":5371,"alt":5372,"ĠMed":5373,"Ġready":5374,"ributions":5375,"anning":5376,"Ġcrim":5377,"ĠPolic":5378,"ĠHAVE":5379,"edu":5380,"ancial":5381,"Ġdraft":5382,"ĠSO":5383,"accept":5384,"istrators":5385,"Ġcompromise":5386,"Ġincomp":5387,"Ġrevers":5388,"ĠTALK":5389,"Ġimpression":5390,"Ġcontinues":5391,"Ġplayers":5392,"Ġtrolling":5393,"Steve":5394,"uu":5395,"Ġ00":5396,"Ġspecify":5397,"ĠsexSex":5398,"ĠInternational":5399,"omas":5400,"ston":5401,"Ġstrange":5402,"Ġremarks":5403,"Ġregular":5404,"Ġcurious":5405,"Ġimproved":5406,"Ġlogo":5407,"Ġattempting":5408,"Ġenglish":5409,"porary":5410,"riminal":5411,"Ġbeliefs":5412,"76":5413,"win":5414,"ĠAir":5415,"version":5416,"irgin":5417,"ĠNE":5418,"ortion":5419,"irection":5420,"ĠĠĠĠĊ":5421,"ographical":5422,"Ġopportun":5423,"Ġrepeat":5424,"Ġ;)":5425,"Ġprincip":5426,"Ġconversation":5427,"from":5428,"vo":5429,"ingly":5430,"Ġstar":5431,"ĠCON":5432,"ĠBro":5433,"Ġintro":5434,"Ġcontributed":5435,"ĠSpanish":5436,"Ġturned":5437,"Ġcredible":5438,"sch":5439,"onest":5440,"ĠVANDAL":5441,"Ġattacked":5442,"Ġidentify":5443,"70":5444,"lements":5445,"Ġant":5446,"ĠFound":5447,"âĢİ":5448,"ĠArmy":5449,"Ġadvance":5450,"ASE":5451,"Ġschools":5452,"iety":5453,"American":5454,"eth":5455,"Ġsuff":5456,"letter":5457,"ĠOff":5458,"Ġroom":5459,"idden":5460,"ĠWHAT":5461,"ĠCollege":5462,"Ġsplit":5463,"aur":5464,"yp":5465,"Ġlived":5466,"Ġegg":5467,"Ġamb":5468,"aste":5469,"ĠRequest":5470,"OLE":5471,"Ġ86":5472,"fficial":5473,"Ġnatural":5474,"Res":5475,"Ġevil":5476,"Ġhands":5477,"Ġhistorians":5478,"Ġnecessarily":5479,"esterday":5480,"Ġtreated":5481,"++":5482,"field":5483,"ĠAnn":5484,"ĠCur":5485,"Ġconserv":5486,"Ġattacking":5487,"Ġliterature":5488,"Ġfear":5489,"Ġloss":5490,"ĠBul":5491,"ĠPak":5492,"ĠKN":5493,"there":5494,"ĠUnion":5495,"why":5496,"Ġcorrected":5497,"represent":5498,"Ġindustry":5499,"With":5500,"ĠÃ":5501,"Ġbill":5502,"ĠIraq":5503,"ĠWE":5504,"rovers":5505,"Ġhair":5506,"ĠRock":5507,"ĠEarth":5508,"ocracy":5509,"Ġneutrality":5510,"Ġholder":5511,"ocratic":5512,"02":5513,"52":5514,"LF":5515,"fD":5516,"Ġmal":5517,"iforn":5518,"ĠCoun":5519,"Ġshut":5520,"ula":5521,"Ġviole":5522,"ĠGovern":5523,"ĠAtt":5524,"Does":5525,"Ġhomosexual":5526,"stitution":5527,"Im":5528,"She":5529,"ĠEv":5530,"lah":5531,"ires":5532,"ĠAnth":5533,"uke":5534,"AHAHAHAHAHAHAHAH":5535,"Ġcele":5536,"Ġalleged":5537,"lation":5538,"ĠID":5539,"olved":5540,"ĠMart":5541,"ĠEr":5542,"oving":5543,"Ġtechnical":5544,"PIN":5545,"Ġfasc":5546,"icro":5547,"arc":5548,"istry":5549,"rior":5550,"ribe":5551,"Ġdifferences":5552,"Ġinstit":5553,"ĠUnfortunately":5554,"Ġequal":5555,"Ġchalleng":5556,"Ġexcuse":5557,"elete":5558,"pre":5559,"Ġhour":5560,"ĠGET":5561,"Ġhopefully":5562,"Ġagreement":5563,"Ġpassed":5564,"Ġencourage":5565,"ĠCroat":5566,"Ġaltered":5567,"86":5568,"Rep":5569,"Ġdisg":5570,"ĠReview":5571,"ÂłÂł":5572,"Ġeditorial":5573,"Ġdemand":5574,"Ġunclear":5575,"Ġphysical":5576,"ĠRfC":5577,"Could":5578,"ij":5579,"Ġpaged":5580,"utions":5581,"section":5582,"ĠCanadian":5583,"43":5584,"oon":5585,"itz":5586,"!!'":5587,"soever":5588,"ubb":5589,"Ġimpact":5590,"Ġgrad":5591,"Ġrewrite":5592,"Okay":5593,"HS":5594,"UST":5595,"mas":5596,"vices":5597,"Ġaverage":5598,"ĠBull":5599,"Ġsourcing":5600,"Ġuseless":5601,"ranch":5602,"levision":5603,"Ġpurposes":5604,"Ġwaiting":5605,"Ġapplies":5606,"Speedy":5607,"ĠLAWDY":5608,"Ġpagedelete":5609,"Me":5610,"NA":5611,"li":5612,"pages":5613,"orpor":5614,"ĠCriminal":5615,"ĠPost":5616,"ĠRaj":5617,"Ġoffice":5618,"Ġdecla":5619,"Ġarguing":5620,"Ġlogical":5621,"Ġprotest":5622,"ULL":5623,"ĠHitler":5624,"Ġcompreh":5625,"Ġperman":5626,"ifications":5627,"Ġemphas":5628,"Ġfighting":5629,"Admin":5630,"ĠWashington":5631,"vironment":5632,"Ġcriminal":5633,"?\"":5634,"Main":5635,"des":5636,"Ġhot":5637,"Ġhide":5638,"Ġdia":5639,"Ġproceed":5640,"ĠJer":5641,"Ġyourselfgo":5642,"ĠANAL":5643,"Ġviolations":5644,"amming":5645,"YM":5646,"pace":5647,"Ġsuitable":5648,"Ġrecall":5649,"Ġnoticeboard":5650,"Ġpublication":5651,"Ġcrime":5652,"ĠOnly":5653,"Ġnetwork":5654,"ifornia":5655,"oted":5656,"usive":5657,"uplic":5658,"bert":5659,"ĠKILL":5660,"Ġindefin":5661,"eek":5662,"Ġfilms":5663,"ronic":5664,"ĠWilliam":5665,"Ġallegations":5666,".âĢĿ":5667,"MY":5668,"Of":5669,"flict":5670,"Ã¡":5671,"ager":5672,"ĠTAB":5673,"Ġvirt":5674,"Ġwhatsoever":5675,"ounding":5676,"Ġunderstood":5677,"Ġ2000":5678,"ĠInc":5679,"Ġsurely":5680,"oldid":5681,"Ġformal":5682,"Ġscreen":5683,"Archive":5684,"aaaaaaaaaaaaaaaaaaaaaaaaaaaaaaaa":5685,"uyuyuyuyuyuyuyuyuyuyuyuyuyuyuyuy":5686,"nnnnnnnnnnnnnnnnnnnnnnnnnnnnnnnn":5687,"orse":5688,"Ġfra":5689,"ĠPO":5690,"Ġshowed":5691,"Ġsuggests":5692,"Ġadvoc":5693,"Ġpathetic":5694,"Ġtreatment":5695,"ĠRfA":5696,"ĠSmith":5697,"yyyyyyyyyyyyyyyyyyyyyyyyyyyyyyyy":5698,"Ġbecoming":5699,"Ġult":5700,"itled":5701,"Ġhence":5702,"ritic":5703,"Ġgrow":5704,"Ġgrand":5705,"Ġspirit":5706,"Ġblue":5707,"However":5708,"Ġresponded":5709,"ĠAustralian":5710,"Requests":5711,"Ġexplicitly":5712,"87":5713,"Look":5714,"Note":5715,"Ġsake":5716,"orter":5717,"Ġelection":5718,"Ġrout":5719,"alling":5720,"orning":5721,"Ġobjection":5722,"roduction":5723,"Ġassuming":5724,"ĠTurkish":5725,"tytytytytytytytytytytytytytytyty":5726,"Ġunnecessary":5727,"jud":5728,"Ġlying":5729,"Ġforth":5730,"ĠBrad":5731,"ĠNY":5732,"ĠThose":5733,"Ġbecomes":5734,"Ġreveal":5735,"89":5736,"Ġste":5737,"iano":5738,"ĠRead":5739,"Ġstopped":5740,"ĠWikimedia":5741,"Ġinaccurate":5742,"NOT":5743,"rh":5744,"Ġpiss":5745,"Ġdro":5746,"astern":5747,"heless":5748,"ikh":5749,"ustom":5750,"ĠNov":5751,"ĠWhich":5752,"ĠInstead":5753,"While":5754,"Ġmiss":5755,"Ġbroken":5756,"Ġdamage":5757,"Ġcitizens":5758,"AK":5759,"WH":5760,"bn":5761,"del":5762,"names":5763,"Ġpull":5764,"ĠLOS":5765,"ĠED":5766,"Ġroll":5767,"Ġsystems":5768,"ĠCommittee":5769,"Ġcocks":5770,"Ġhypoc":5771,"Ġhundreds":5772,"ĠCourt":5773,"ĠSal":5774,"Ġcompared":5775,"cluded":5776,"Ġobtain":5777,"Ġcities":5778,"Ġstrict":5779,"Ġlearned":5780,"ĠOnce":5781,"rol":5782,"ĠSat":5783,"ĠCle":5784,"race":5785,"Then":5786,"Ġserve":5787,"Ġreporting":5788,"SELF":5789,"Ġillustr":5790,"FDL":5791,"Ġslightly":5792,"ns":5793,"rely":5794,"Ġforces":5795,"Ġweren":5796,"Ġaccuse":5797,"Ġspecies":5798,"Ġexisted":5799,"ĠQue":5800,"Ġcarry":5801,"Ġartist":5802,"Ġliberal":5803,"ĠFurthermore":5804,"GO":5805,"cious":5806,"ki":5807,"Ġmale":5808,"Ġarmy":5809,"ĠNAME":5810,"compl":5811,"ibal":5812,"cyclopedia":5813,"anguage":5814,"Ġ70":5815,"Ġlarger":5816,"Ġexpected":5817,"Ġvotes":5818,"Ġinnoc":5819,"Tr":5820,"vention":5821,"wing":5822,"Â´":5823,"sey":5824,"ĠPress":5825,"osn":5826,"clude":5827,"ONE":5828,"anned":5829,"Ġgreater":5830,"Ġheading":5831,"Ġparagraphs":5832,"Ġbuilt":5833,"Ġdocuments":5834,"ĠGeorg":5835,"ĠJimbo":5836,"hand":5837,"Ġshame":5838,"ĠAnother":5839,"Ġended":5840,"Ġrestrict":5841,"Ġconstruct":5842,"Ġcultural":5843,"Ġcoupled":5844,"Ġconvin":5845,"Ġsongs":5846,"Ġtomorrow":5847,"Ġyesterday":5848,"Ġitem":5849,"unte":5850,"ĠRS":5851,"Ġjew":5852,"ĠOFF":5853,"!!!!!!!":5854,"osen":5855,"izes":5856,"Ġnewcom":5857,"aves":5858,"Ġlearning":5859,"Ġlargest":5860,"CRAPCRAPCRAPCRAPCRAPCRAPCRAPCRAP":5861,"Ġimagine":5862,"bb":5863,"uit":5864,"Ðµ":5865,"Ġsup":5866,"emit":5867,"ĠThus":5868,"Ġaccuracy":5869,"Ġuncivil":5870,"Ġactivity":5871,"Ġinitial":5872,"Int":5873,"ror":5874,"uate":5875,"xy":5876,"ĊĠĠĠ":5877,"Ġoil":5878,"arb":5879,"ĠGreen":5880,"Ġfault":5881,"Ġimplement":5882,"atured":5883,"Ġviolating":5884,"Ġslow":5885,"Ġaccusation":5886,"Ġunfair":5887,"orthy":5888,"constructive":5889,"Ġassertion":5890,"GOT":5891,"HE":5892,"Han":5893,"OC":5894,"lig":5895,"itness":5896,"Ġcatch":5897,"Ġpseud":5898,"Ġnative":5899,"Ġonto":5900,"ĠAT":5901,"ĠAccording":5902,"ample":5903,"ĠMor":5904,"Ġuniversity":5905,"Ġchem":5906,"Ġinterests":5907,"ĠDID":5908,"Ġredirects":5909,"Ġactivities":5910,"Sc":5911,"please":5912,"watch":5913,"Ġfood":5914,"ellect":5915,"ĠLib":5916,"ĠEgypt":5917,"ĠJones":5918,"Ġforms":5919,"Ġ40":5920,"Ġorganizations":5921,"ĠScott":5922,"Ġfavour":5923,"ĠChristianity":5924,"TER":5925,"UL":5926,"bury":5927,"night":5928,"vis":5929,"ancy":5930,"Ġtoler":5931,"Ġongoing":5932,"utch":5933,"Ġusual":5934,"Ġmechan":5935,"Ġunivers":5936,"Ġimprovement":5937,"ĠâĻ":5938,"Ġterrorist":5939,"Ġtools":5940,"Ġinvestigation":5941,"ĠMuslims":5942,"Small":5943,"band":5944,"yes":5945,"oto":5946,"ĠBunk":5947,"ulate":5948,"ĠOk":5949,"oves":5950,"Ġsurv":5951,"Ġprojects":5952,"Ġmediation":5953,"ĠItalian":5954,"acceptable":5955,"ĠLOSER":5956,"Pr":5957,"fr":5958,"Ġbarnstar":5959,"Ġya":5960,"Ġshoot":5961,"Ġunique":5962,"apter":5963,"Ġowner":5964,"Ġfeeling":5965,"Ġrequests":5966,"Ġâĺ":5967,"Assad":5968,"Le":5969,"har":5970,"Ġought":5971,"Ġbiz":5972,"Ġmanage":5973,"Ġsigned":5974,"Ġmainly":5975,"181":5976,"Ġmistaken":5977,"ĠLIVE":5978,"Ġinsulting":5979,"Ġsubmission":5980,"ĠAfrica":5981,"ĠOtherwise":5982,"pub":5983,"vio":5984,"Ġ01":5985,"Ġzer":5986,"review":5987,"Ġped":5988,"ĠAp":5989,"ilities":5990,"Ġbutton":5991,"Ġnovel":5992,"Ġamaz":5993,"Ġensure":5994,"Ġsubsequ":5995,"aha":5996,"Ġplus":5997,"Ġletting":5998,"Ġ55":5999,"Ġapart":6000,"Christ":6001,"ĠSocial":6002,"mar":6003,"ties":6004,"Ġthorough":6005,"Ġbuy":6006,"ĠCopyright":6007,"ĠJo":6008,"ĠUs":6009,"Ġobjections":6010,"ĠAfghan":6011,"Ġresolve":6012,"ĠFrance":6013,"uine":6014,"Ġmouth":6015,"Ġfast":6016,"ala":6017,"imately":6018,"ĠRob":6019,"ival":6020,"Ġpeoples":6021,"acc":6022,"Ġroad":6023,"oken":6024,"Ġfriendly":6025,"ĠSwed":6026,"Ġfemale":6027,"98":6028,"fort":6029,"pan":6030,"Ġ''''":6031,"ĠPeter":6032,"Ġsum":6033,"ĠDoc":6034,"Ġdismiss":6035,"Ġknowing":6036,"Ġsummar":6037,"ampions":6038,"ĠNorthern":6039,"Ġillegal":6040,"51":6041,"vin":6042,"wik":6043,"Ð¸":6044,"Ġoption":6045,"Ġduplic":6046,"asy":6047,"itionally":6048,"ĠArt":6049,"Ġfreely":6050,"Ġ90":6051,"Ġaccusing":6052,"Ġcommonly":6053,"Ġrecords":6054,"00000000":6055,"Ġepisodes":6056,"Ġopposite":6057,"Ġconstitutes":6058,"Ġaspects":6059,"ĠCriminalWar":6060,"John":6061,"hic":6062,"Ġtim":6063,"itar":6064,"ĠMil":6065,"oday":6066,"acing":6067,"Ġcreator":6068,"ocide":6069,"organ":6070,"Ġcentral":6071,"Ġlimit":6072,"Ġdeserves":6073,"Ġbalance":6074,"!\"\"":6075,"911":6076,"After":6077,"Ġaside":6078,"Ġdise":6079,"Ġamer":6080,"izard":6081,"Ġgenetic":6082,"ĠBunkSteve":6083,"BAG":6084,"cal":6085,"gment":6086,"pet":6087,"Ġswe":6088,"ĠAFD":6089,"ĠMad":6090,"Ġweak":6091,"ritish":6092,"ĠKo":6093,"Ġacknowled":6094,"ĠCounty":6095,"Vandalism":6096,"Ġsle":6097,"Ġmach":6098,"Ġyeah":6099,"Ġglobal":6100,"iler":6101,"ĠDY":6102,"rah":6103,"serv":6104,"ĠTechn":6105,"Ġformatting":6106,"Ġradio":6107,"non":6108,"ĠSk":6109,"Ġstre":6110,"aint":6111,"riage":6112,"ventions":6113,"Ġconvention":6114,"Ġcensorship":6115,"Ġhonestly":6116,"________________":6117,"Ġlikes":6118,"Ġinstructions":6119,"92":6120,"Again":6121,"BN":6122,"inian":6123,"ifiability":6124,"ĠMel":6125,"ĠGFDL":6126,"coming":6127,"ĠArch":6128,"azis":6129,"Ġdirected":6130,"SHIT":6131,"Ġimplies":6132,"hemat":6133,")\"\"":6134,"97":6135,"Ah":6136,"En":6137,"OD":6138,"cis":6139,"cific":6140,"Ġwife":6141,"Ġhol":6142,"change":6143,"ĠFinally":6144,"Ġremark":6145,"ĠKh":6146,"Ġresources":6147,"Ġsafe":6148,"Ġfollows":6149,"ĠANON":6150,"Ġblind":6151,"Ġallows":6152,"Ġpurs":6153,"Ġlargely":6154,"Ġobserv":6155,"Ġregistered":6156,"BI":6157,"LONG":6158,"[[":6159,"âĨĴ":6160,"itor":6161,"orks":6162,"icated":6163,"ĠBush":6164,"andy":6165,"Ġjustification":6166,"Ġchat":6167,"icted":6168,"Ġbio":6169,"Ġconstantly":6170,"Ġfails":6171,"Ġresponding":6172,"Ġdocumented":6173,"Ġgrounds":6174,"Ġbullshit":6175,"Ser":6176,"auc":6177,"outhern":6178,"ĠBC":6179,"ounds":6180,"Ġlinking":6181,"Ġdesigned":6182,"Ġaddresses":6183,"ek":6184,"equ":6185,"padding":6186,"Ġtact":6187,"erd":6188,"Ġdict":6189,"ago":6190,"Ġgreen":6191,"Ġseven":6192,"ĠBible":6193,"ĠDON":6194,"ĠJose":6195,"Ġsupports":6196,"ahahahahahahahah":6197,"ĠCOCKSUCKING":6198,"ĠCalifornia":6199,"ĠPHIL":6200,"72":6201,"core":6202,"opp":6203,"ounded":6204,"icken":6205,"Ġgenuine":6206,"ITE":6207,"airs":6208,"ĠQuest":6209,"ĠCheck":6210,"Ġunfortunately":6211,"Ġscientists":6212,"Ġclosely":6213,"Ġtermin":6214,"Ġload":6215,"YMOUS":6216,"Ġ@":6217,"ĠAB":6218,"Ġvague":6219,"Ġspell":6220,"ĠSte":6221,"Ġclue":6222,"Ġmaterials":6223,"2006":6224,"Ġexception":6225,"Ġrecognized":6226,"ĠGeneral":6227,"Ġsubstantial":6228,"ĠKorean":6229,"Ġfolks":6230,"ĠRobert":6231,"ĠANONYMOUS":6232,"Ġbare":6233,"Ġarri":6234,"ĠSA":6235,"ĠDel":6236,"Ġprep":6237,"Ġ2001":6238,"Ġscript":6239,"ĠProject":6240,"Ġdeveloped":6241,"Ġrecognize":6242,"Ġassistance":6243,"mo":6244,"Ġtour":6245,"ico":6246,"ĠTry":6247,"Ġarrog":6248,"Ġconclus":6249,"Ġexclus":6250,"Ġprev":6251,"obby":6252,"Ġolder":6253,"ounce":6254,"LEASE":6255,"ĠLICK":6256,"Ġutter":6257,"ocaust":6258,"Eng":6259,"cre":6260,"ument":6261,"Ġoffered":6262,"hether":6263,"ĠMex":6264,"ĠEVER":6265,"ears":6266,"they":6267,"Ġexplains":6268,"Ġ60":6269,"Ġlacking":6270,"ĠFAGGOT":6271,"Ġphilosophy":6272,"Ġzero":6273,"ĠDYK":6274,"called":6275,"ees":6276,"Ġ{":6277,"Ġreaction":6278,"ĠPoint":6279,"ĠMac":6280,"Ġintend":6281,"cap":6282,"Ġchose":6283,"ĠStud":6284,"Ġproduction":6285,"bitration":6286,"Ġequiv":6287,"BLP":6288,"Have":6289,"Ġdomin":6290,"\"\"\"":6291,"Ġhack":6292,"ĠSar":6293,"ĠEs":6294,"OUR":6295,"ĠVol":6296,"ĠChristians":6297,"Ġmarked":6298,"Ġpromotional":6299,"ĠPHILIP":6300,"fl":6301,"ii":6302,"Ġdang":6303,"iday":6304,"Ġsecret":6305,"iling":6306,"illa":6307,"Ġprohib":6308,"Ġvast":6309,"Ġbrother":6310,"Ġ99":6311,"Ġdescribing":6312,"Ġfinished":6313,"Ġworthy":6314,"Ġcellpadding":6315,"WWWWWWWWWWWWWWWWWWWWWWWWWWWWWWWW":6316,"PINES":6317,"ĠPHILIPPINES":6318,"82":6319,"mark":6320,"uable":6321,"Ġsouth":6322,"Ġmitt":6323,"Ġfake":6324,"Ġdirection":6325,"ario":6326,"tics":6327,"ipl":6328,"ĠBoth":6329,"Ġedition":6330,"Ġkid":6331,"anna":6332,"ographic":6333,"Article":6334,"ĠBritain":6335,"ammad":6336,"Ġignorance":6337,"11111111111111111111111111111111":6338,"ĠJeff":6339,"Hanibal":6340,"Ġmut":6341,"Ġforced":6342,"eline":6343,"ection":6344,"ĠĠĠĠĠĠĠ":6345,"acity":6346,"////":6347,"others":6348,"UPID":6349,"ĠPHILIPPINESLONG":6350,"Wow":6351,"look":6352,"Ġburn":6353,"Ġhurt":6354,"Ġnut":6355,"ĠBer":6356,"Ġexcellent":6357,"ĠLiber":6358,"Ġeverybody":6359,"Ġproduced":6360,"Ġdiscour":6361,"LET":6362,"Should":6363,"Ġcandidates":6364,"71":6365,"Would":6366,"Ġdrug":6367,"ĠYet":6368,"ĠOVER":6369,"uthor":6370,"Ġwarrant":6371,"Ġappearance":6372,"Ġinside":6373,"Ġengaged":6374,"Ġrecorded":6375,"ĠSTOP":6376,"Because":6377,"Ġreputation":6378,"Ġromney":6379,"Ġopportunity":6380,"hold":6381,"inary":6382,"Ġrender":6383,"ĠTim":6384,"Ġgraph":6385,"ilm":6386,"Ġgenre":6387,"Ġredund":6388,"Ġcharge":6389,"Ġofficially":6390,"Ġfinancial":6391,"aniel":6392,"ĠIslamic":6393,"ĠHindu":6394,"Ġ).":6395,"Ġtask":6396,"Ġdare":6397,"Ġconvert":6398,"Ġstories":6399,"ĠBet":6400,"ĠMer":6401,"ĠRFC":6402,"Ġbelieved":6403,"Ġpossibility":6404,"Ġadvise":6405,"Ġpattern":6406,"Ġbenefits":6407,"Ġessentially":6408,"ĠDepartment":6409,"Bot":6410,"DD":6411,"SP":6412,"Ġreact":6413,"Ġunacceptable":6414,"Ġenforce":6415,"Ġcommentary":6416,"Ġcolumn":6417,"Ġ80":6418,"Ġapology":6419,"ditions":6420,"thodox":6421,"More":6422,"nge":6423,"tes":6424,"real":6425,"amily":6426,"ĠPerson":6427,"ĠOld":6428,"Ġhelped":6429,"Ġrelation":6430,"Ġobsc":6431,"Ġviolates":6432,"ointed":6433,"Ġdeny":6434,"Ġmassive":6435,"Ġresolved":6436,"Ġcandidate":6437,"Ġvillage":6438,"81":6439,"don":6440,"ients":6441,"ugg":6442,"wan":6443,"Ġ'''":6444,"alm":6445,"ician":6446,"Ġrelev":6447,"Ġwhore":6448,"ĠDist":6449,"Ġalter":6450,"Ġdisruption":6451,"ĠVandalism":6452,"These":6453,"Ġincorpor":6454,"Ġtells":6455,"ĠLatin":6456,"TA":6457,"TV":6458,"gov":6459,"tions":6460,"wide":6461,"itter":6462,"Ġcas":6463,"aly":6464,"umm":6465,"Ġupset":6466,"!!!!!!":6467,"osition":6468,"arsh":6469,"Ġleading":6470,"Ġretarded":6471,"ĠPoland":6472,"ircraft":6473,"ĠGreece":6474,"Ġterritory":6475,"ĠFoundation":6476,"84":6477,"CA":6478,"History":6479,"],":6480,"bot":6481,"bys":6482,"onents":6483,"Ġdedic":6484,"ĠScience":6485,"istration":6486,"Ġdish":6487,"Ġvandalized":6488,"Ġ71":6489,"Ġleader":6490,"Ġattempted":6491,"ĠAsso":6492,"Ġdrive":6493,"/////":6494,"gent":6495,"ja":6496,"uz":6497,"yl":6498,"Ġcustom":6499,"Ġdark":6500,"Ġlif":6501,"ilty":6502,"ĠHistor":6503,"Ġmanip":6504,"Ġcovers":6505,"Ġentitled":6506,"Ġhappening":6507,"Ġignoring":6508,"Another":6509,"Ġskills":6510,"ĠAnthony":6511,"94":6512,"ios":6513,"Ġtired":6514,"atter":6515,"Ġtoward":6516,"Ġdyn":6517,"Ġstage":6518,"Ġintellect":6519,"idents":6520,"Ġletters":6521,"Ġreceive":6522,"word":6523,"Ġcru":6524,"Ġconsequ":6525,"elf":6526,"useum":6527,"ĠUse":6528,"ogue":6529,"Ġdidnt":6530,"Ġinformed":6531,"ENS":6532,"Ġwatchlist":6533,"Ġnormally":6534,"Ġsatisfy":6535,"Ġdistinction":6536,"Ġdetermined":6537,".'":6538,"kj":6539,"vandalism":6540,"Ġton":6541,"Ġmad":6542,"Ġhits":6543,"Ġdirty":6544,"alin":6545,"Ġelement":6546,"ĠBBC":6547,"ĠBTW":6548,"ĠDan":6549,"Ġexec":6550,"ĠGl":6551,"Ġprominent":6552,"Ġ02":6553,"Ġdiscovered":6554,"Ġproducts":6555,"ughter":6556,"Ġphysics":6557,"FOR":6558,"based":6559,"hy":6560,"kins":6561,"Ġug":6562,"Ġlingu":6563,"hey":6564,"ĠSign":6565,"ĠNob":6566,"Ġaccompl":6567,"Ġenem":6568,"Ġenvironment":6569,"ologies":6570,"Ġelimin":6571,"ĠUnless":6572,"ashion":6573,"ĠYOURSELF":6574,"Ġcomparison":6575,"Ġpowers":6576,"Ġbeat":6577,"ĠTex":6578,"pping":6579,"Ġprose":6580,"Ġunw":6581,"reek":6582,"Ġaccord":6583,"Ġcritics":6584,"Ġreviewing":6585,"ĠDef":6586,"Ġextent":6587,"Ġheads":6588,"Ġclarification":6589,"Ġcredibility":6590,"key":6591,"such":6592,"Ġpapers":6593,"Ġbeaut":6594,"ĠMain":6595,"ĠRoyal":6596,"Ġimply":6597,"Ġoverall":6598,"ratulations":6599,"group":6600,"Ġapologies":6601,"ĠAbout":6602,"Ġhoax":6603,"puppets":6604,"ãĥ":6605,"Ġbomb":6606,"enomen":6607,"ĠBell":6608,"âĢ¦":6609,"OULD":6610,"Ġspecifies":6611,"Ġconsideration":6612,"spond":6613,"Ġindicates":6614,"Ġequally":6615,"ville":6616,"ĠCouncil":6617,"Ġnewcomers":6618,"FR":6619,"ĠScient":6620,"iful":6621,"ĠPo":6622,"ulture":6623,"ĠIPs":6624,"Ġcollection":6625,"inner":6626,"ĠBrown":6627,"Ġvolunte":6628,"((":6629,"cation":6630,"va":6631,"esh":6632,"hell":6633,"ĠLast":6634,"Ġapparent":6635,"perate":6636,"Ġdesk":6637,"Ġobs":6638,"Ġdefine":6639,"Ġspeculation":6640,"Ġmisrepresent":6641,"Ġtravel":6642,"Ã¼":6643,"âĺ":6644,"Ġom":6645,"ĠTime":6646,"ĠSub":6647,"Ġstaff":6648,"Ġmeasure":6649,"illing":6650,"aked":6651,"ores":6652,"ĠFree":6653,"Ġunreliable":6654,"Ġran":6655,"Ġweap":6656,"ĠKhan":6657,"Ġ06":6658,"OCKS":6659,"ophob":6660,"Ġraise":6661,"Ġbothered":6662,"ĠCentral":6663,"Ġprinciple":6664,"Ġunlikely":6665,"Ġangry":6666,"ĠRichard":6667,"Am":6668,"File":6669,"Ġast":6670,"itect":6671,"inger":6672,"ĠPERS":6673,"ĠYTM":6674,"ĠRIGHT":6675,"umber":6676,"ribution":6677,"Ġcapt":6678,"Ġoppose":6679,"Ġpaste":6680,"Ġfinish":6681,"Ġplanet":6682,"ĠRemember":6683,"ANKER":6684,"Ġcircumst":6685,"ĠYTMND":6686,"61":6687,"personal":6688,"sm":6689,"Ġinser":6690,"Ġlose":6691,"ipe":6692,"Ġstuck":6693,"ĠEither":6694,"ĠJay":6695,"Ġcompare":6696,"Ġcooper":6697,"lessly":6698,"Ġvaluable":6699,"Ġarchives":6700,"Ġeffects":6701,"Ġmatches":6702,"Ġreplied":6703,"96":6704,"HR":6705,"blog":6706,"burg":6707,"cision":6708,"hist":6709,"king":6710,"oes":6711,"phan":6712,"png":6713,"Ġta":6714,"Ġnav":6715,"\"\").":6716,"roject":6717,"Ġconventions":6718,"iled":6719,"Ġabusing":6720,"Ġkids":6721,"ĠOut":6722,"Ġacts":6723,"Ġbelieves":6724,"Ġgreatly":6725,"Ġabsurd":6726,"Ġnationality":6727,"ĠSpecial":6728,"Ġhoping":6729,"ĠPersian":6730,"ras":6731,"rong":6732,"Ġwall":6733,"ication":6734,"Ġgun":6735,"!!!!!":6736,"Ġintroduced":6737,"\"::::::":6738,"ELESS":6739,"ĠArbCom":6740,"ĠEDIT":6741,"ĠTOM":6742,"ĠWal":6743,"ession":6744,"Ġphone":6745,"Ġfeelings":6746,"OME":6747,"Ġbiggest":6748,"Ġthreatening":6749,"ĠFAC":6750,"Ġcategor":6751,"Ġterrorism":6752,"Ġacknowledge":6753,"riticism":6754,"Will":6755,"was":6756,"Ġhur":6757,"Ġelements":6758,"ĠWind":6759,"ĠSen":6760,"semb":6761,"ĠBas":6762,"ĠDar":6763,"Ġrum":6764,"ĠLE":6765,"ĠLove":6766,"riting":6767,"notable":6768,"Ġpositions":6769,"ĠUSELESS":6770,"Ġ03":6771,"Ġqualify":6772,"Ġidentified":6773,"ĠSomeone":6774,"Ġpresum":6775,"GE":6776,"rast":6777,"yer":6778,"ceived":6779,"ĠPet":6780,"ĠFair":6781,"ĠKurd":6782,"Ġvandals":6783,"ached":6784,"Ġdistingu":6785,"Ġopposition":6786,"Ġintelligence":6787,"-)":6788,"born":6789,"iest":6790,"Ġip":6791,"Ġfrank":6792,"outube":6793,"ĠBOT":6794,"ikiproject":6795,"ĠHERE":6796,"Ġdesire":6797,"Ġinvited":6798,"Ġcites":6799,"Ġviolated":6800,"Ġassumed":6801,"Ġprofile":6802,"!!!!!!!!!!!!!!!!!!!!!!!!!!!!!!!!!!!!!!!!!!!!!!!!!!!!!!!!!!!!!!!!!!!!!!!!!!!!!!!!!!!!!!!!!!!!!!!!!!!!!!!!!!!!!!!!!!!!!!!!!!!!!!!!":6803,"ĠGovernment":6804,"DS":6805,"uild":6806,"Ġmorning":6807,"Ġfringe":6808,"Ġdub":6809,"ĠSure":6810,"ĠPre":6811,"Ġabusive":6812,"Ġkick":6813,"Ġjustified":6814,"Ġ2002":6815,"athy":6816,"Ġthrow":6817,"Ġtelevision":6818,"Ġemb":6819,"Ġ76":6820,"Ġpromise":6821,"Ġconstant":6822,"ootball":6823,"Ġdescribes":6824,"Ġnotices":6825,"check":6826,"ĠWHO":6827,"IME":6828,"uhammad":6829,"MMMM":6830,"62":6831,"73":6832,"YI":6833,"including":6834,"Ġbudd":6835,"aning":6836,"ĠCD":6837,"ntil":6838,"ĠEX":6839,"Ġchosen":6840,"Ġsales":6841,"LLOCKS":6842,"Ġrefuse":6843,"Ġproves":6844,"Ġcares":6845,"Ġcolon":6846,"Ġsubmitted":6847,"Ġinserted":6848,"ONGO":6849,"ĠTurkey":6850,"biased":6851,"ĠMUST":6852,"ĠSuper":6853,"ĠCommunity":6854,"Ġviolence":6855,"rhbys":6856,"Ant":6857,"IVE":6858,"Love":6859,"Pl":6860,"ba":6861,"brew":6862,"google":6863,"Ġflaw":6864,"aman":6865,"olly":6866,"uries":6867,"Ġdefe":6868,"Ġenter":6869,"Ġexperts":6870,"Ġhandle":6871,"outhban":6872,"ĠLeague":6873,"\":::":6874,"Ġlede":6875,"Ġscale":6876,"rhbysouthban":6877,"rhbysouthbanof":6878,"79":6879,"BG":6880,"icious":6881,"ĠAzer":6882,"stein":6883,"unblock":6884,"ulf":6885,"Ġvan":6886,"artial":6887,"ĠKnow":6888,"ERT":6889,"Ġpercent":6890,"Ġphenomen":6891,"Ġtrial":6892,"ĠAnyone":6893,"\"::::":6894,"BLOCK":6895,"Ġfundamental":6896,"ĠPERSON":6897,"ĠTOMMY":6898,"Mar":6899,"NT":6900,"aedia":6901,"Ġbound":6902,"ĠWANKER":6903,"ĠBook":6904,"urs":6905,"===":6906,"Ġfrustr":6907,"Ġtemper":6908,"BOLLOCKS":6909,"Maybe":6910,"Ġugly":6911,"App":6912,"Further":6913,"iot":6914,"Ġwalk":6915,"Ġstalking":6916,"ĠCap":6917,"Ġkn":6918,"Ġunknown":6919,"Ġconsult":6920,"ĠVal":6921,"icket":6922,"Ġproud":6923,"Ġgotten":6924,"ĠLIKE":6925,"ĠCUNTBAG":6926,"razy":6927,"Ġambig":6928,"ĠBullshit":6929,"HOLE":6930,"National":6931,"Ġwww":6932,"Ġgang":6933,"ĠLou":6934,"ĠEAT":6935,"ĠJul":6936,"ologist":6937,"ologists":6938,"Ġdirectory":6939,"Ġanswers":6940,"Ġmerit":6941,"2007":6942,"ĠWHY":6943,"Ġracism":6944,"Ġliterally":6945,"ĠADMINS":6946,"Ge":6947,"mind":6948,"sourced":6949,"ĠAGA":6950,"ĠLife":6951,"about":6952,"ĠKar":6953,"Ġ68":6954,"Ġstatistics":6955,"Ġrepresented":6956,"Ġpresence":6957,"Ġswitch":6958,"Ġmovies":6959,"stitute":6960,"Ġlibel":6961,"Ġdiag":6962,"ĠAGAIN":6963,"63":6964,"Qu":6965,"bably":6966,"Ġna":6967,"ĠBUM":6968,"ĠHam":6969,"ougar":6970,"Ġchicken":6971,"Ġattract":6972,"ictional":6973,"ĠRev":6974,"ĠAsia":6975,"Ġ04":6976,"Ġdistrict":6977,"ĠNeutral":6978,"Ġtraditional":6979,"protected":6980,"Ġequivalent":6981,"74":6982,"rate":6983,"ĠEm":6984,"Ġchannel":6985,"ĠStreet":6986,"arning":6987,"Ġanswered":6988,"Ġpromotion":6989,"Ġrewritten":6990,"Ġoccurred":6991,"Ġrejected":6992,"Ġdeliberately":6993,"ULLSHIT":6994,"Ġconclusions":6995,"VD":6996,"bon":6997,"date":6998,"eder":6999,"import":7000,"Ġwithd":7001,"ĠBesides":7002,"ĠPen":7003,"ĠDiv":7004,"Ġunconstructive":7005,"dern":7006,"ĠVan":7007,"Ġcommitted":7008,"Ġstarts":7009,"Ġrequirements":7010,"2008":7011,"Notrhbysouthbanof":7012,"Ġadmitted":7013,"Ġlaunch":7014,"Ġvehic":7015,"Ġforever":7016,"ĠAnti":7017,"ĠCharles":7018,"Ġinnocent":7019,"last":7020,"ÑĢ":7021,"Ġpic":7022,"Ġmail":7023,"Ġdat":7024,"ĠBudd":7025,"ĠMary":7026,"inking":7027,"ĠLord":7028,"Ġtalks":7029,"Ġcommented":7030,"Ġregarded":7031,"Ġhighest":7032,"Ġ05":7033,"Ġcriticisms":7034,"Ġpressure":7035,"Ġfrequently":7036,"gressive":7037,"Ġreputable":7038,"RAL":7039,"inv":7040,"information":7041,"Ġsile":7042,"Ġcougar":7043,"agan":7044,"ĠBAN":7045,"Ġmeat":7046,"Ġmeas":7047,"aks":7048,"oooo":7049,"ĠFox":7050,"Ġquit":7051,"ĠChris":7052,"Ġspoken":7053,"because":7054,"Ġfixing":7055,"Ġpublisher":7056,"Ġchallenge":7057,".-":7058,"Block":7059,"Gu":7060,"ICK":7061,"jan":7062,"ned":7063,"rough":7064,"year":7065,"inder":7066,"Ġfant":7067,"Ġhang":7068,"oms":7069,"Ġitems":7070,"ĠTutorial":7071,"ĠSur":7072,"Ġconditions":7073,"Ġsec":7074,"ested":7075,"Ġrisk":7076,"eph":7077,"Ġchapter":7078,"Ġhadn":7079,"ĠYOUBOLLOCKS":7080,"Ġoffended":7081,"Ġformed":7082,"Ġcaught":7083,"OMIT":7084,"uclear":7085,"Ġfailure":7086,"MainPage":7087,"95":7088,"Gen":7089,"Support":7090,"Template":7091,"reation":7092,"itarian":7093,"Ġmaps":7094,"ĠCamp":7095,"ardless":7096,"ĠThomas":7097,"Ġrelatively":7098,"ĠInf":7099,"ĠVOMIT":7100,"Ġdecent":7101,"Ġpoorly":7102,"Ġeconomic":7103,"Ġannoying":7104,"ĠCongress":7105,"Ġfacilit":7106,"Ġdisease":7107,"Ġredundant":7108,"))":7109,"uan":7110,"Ġcore":7111,"also":7112,"agiar":7113,"ctr":7114,"ĠSol":7115,"ĠSuch":7116,"ĠCOI":7117,"ĠBosn":7118,"ĠGold":7119,"ĠUp":7120,"OUT":7121,"Ġcontinuing":7122,"okes":7123,"Ġcloser":7124,"Ġopened":7125,"ĠLeg":7126,"Ġestim":7127,"Ġtechnology":7128,"Ġinsults":7129,"Ġbringing":7130,"Ġmethods":7131,"Ġprinciples":7132,"MainPageBG":7133,"83":7134,"ini":7135,"only":7136,"Ġbreed":7137,"Ġcard":7138,"eness":7139,"Ġdictionary":7140,"\"\";":7141,"ĠWork":7142,"ĠWAS":7143,"ĠProp":7144,"Ġrat":7145,"ĠRam":7146,"orted":7147,"ĠEth":7148,"Ġque":7149,"Ġpointless":7150,"Ġtransfer":7151,"Ġartists":7152,"Ġdistinct":7153,"Ġwestern":7154,"Ġfraud":7155,"good":7156,"hot":7157,"may":7158,"eds":7159,"ĠAh":7160,"ĠWil":7161,"state":7162,"iger":7163,"Ġsometime":7164,"acks":7165,"Ġwhereas":7166,"Ġbrand":7167,"Ġsmart":7168,"Ġprimarily":7169,"Ġscholarly":7170,"Ġpreferred":7171,"ĠObviously":7172,"ĠArmenian":7173,"Ġprecisely":7174,"ĠPakistan":7175,"lor":7176,"zy":7177,"Ġ//":7178,"Ġtill":7179,"ona":7180,"Ġcert":7181,"ado":7182,"ifiable":7183,"ĠHa":7184,"ĠOur":7185,"Ġgold":7186,"ggiet":7187,"OVE":7188,"Ġhttps":7189,"ĠconcernThanks":7190,"Ġaffil":7191,"Ġmassac":7192,"ĠIranian":7193,"OOOOOOOO":7194,"Ġcorrespond":7195,"ggietales":7196,"According":7197,"JPG":7198,"Mer":7199,"den":7200,"press":7201,"rr":7202,"Ã¶":7203,"Ġsun":7204,"Ġblo":7205,"Ġbesides":7206,"Ġdude":7207,"icide":7208,"usiness":7209,"Ġarm":7210,"Ġathe":7211,"Ġoverw":7212,"Ġspot":7213,"Ġ72":7214,"Ġextensive":7215,"Ġveggietales":7216,"Ġbalanced":7217,"Ġsuccessful":7218,"Perhaps":7219,"Ġcircumstances":7220,"Dr":7221,"ugu":7222,"Ð½":7223,"icial":7224,"agged":7225,"ĠHi":7226,"ĠHuman":7227,"Ġadult":7228,"Ġvide":7229,"ĠNet":7230,"rav":7231,"Ġsimpl":7232,"ANI":7233,"Ġcoordin":7234,"Ġwriters":7235,"notes":7236,"Ġemot":7237,"Ġincred":7238,"Ġnorth":7239,"Ġtypical":7240,"THIS":7241,"ALLY":7242,"ĠMusic":7243,"ĠGrand":7244,"ĠĠĠĠĠĠĠĠĠĠĠĠĠĠĠĠĠĠĠĠĠĠĠĠĠĠĠĠĠĠĠĠ":7245,"Ġalbums":7246,"Ġpunish":7247,"Ġjudgement":7248,"ĠTexas":7249,"Br":7250,"BULLSHIT":7251,"isan":7252,"Ġnick":7253,"Ġinj":7254,"ota":7255,"ĠWizard":7256,"ĠEastern":7257,"Ġdoesnt":7258,"ĠâĢİ":7259,"ferenced":7260,"Ġinformative":7261,"Ġguitar":7262,"Ġmission":7263,"ĠWeb":7264,"Ġ69":7265,"Ġkilling":7266,"Ġmillions":7267,"Ġera":7268,"pdf":7269,"Ġdialect":7270,"RA":7271,"SA":7272,"rated":7273,"ÃŃ":7274,"Ġmurd":7275,"Ġloves":7276,"ĠTor":7277,"igan":7278,"ĠMA":7279,"Ġuniverse":7280,"Ġweird":7281,"lets":7282,"ĠEdu":7283,"oslav":7284,"Ġwhenever":7285,"Ġrefs":7286,"Ġcauses":7287,"Ġpublications":7288,"Ġhistorian":7289,"Ġsmaller":7290,"Ġteams":7291,"Ġsockpuppetry":7292,"ĠActually":7293,"Ġcalc":7294,"Ġlicensed":7295,"ĠFrancis":7296,"ĠancestryFuck":7297,"Get":7298,"history":7299,"ena":7300,"although":7301,"usting":7302,"Ġunit":7303,"Ġevident":7304,"ĠKe":7305,"ĠStill":7306,"ocal":7307,"Ġexplo":7308,"144":7309,"ĠChristmas":7310,"Ġquotation":7311,"ĠScot":7312,"Ġresponses":7313,"NNNN":7314,"Ġoccupation":7315,"FL":7316,"TIC":7317,"WE":7318,"world":7319,"Ġaircraft":7320,"Ġbur":7321,"Ġbank":7322,"ĠTy":7323,"ros":7324,"Ġash":7325,"ĠPart":7326,"ĠMiddle":7327,"iring":7328,"ĠRyan":7329,"Ġreasonably":7330,"Ġsports":7331,"Ġservices":7332,"ASS":7333,"Ġcleanup":7334,"Ġprivile":7335,"Ġcorpor":7336,"ĠMoreover":7337,"ĠKorea":7338,"Cheers":7339,"ĠMartin":7340,"Sock":7341,"border":7342,"Ġly":7343,"itage":7344,"Ġcow":7345,"Ġpath":7346,"Ġporn":7347,"omer":7348,"ĠPas":7349,"ĠPLEASE":7350,"ĠFind":7351,"Ġjustice":7352,"rawn":7353,"Ġguilty":7354,"Ġfeels":7355,"ĠTHEY":7356,"Inc":7357,"Ġmarriage":7358,"ĠASSHOLE":7359,"Second":7360,"Ġfrequ":7361,"Ġadvertise":7362,"ĠCHE":7363,"Ġexpressed":7364,"Ġselecting":7365,"razil":7366,"ĠVANDALISM":7367,"ampionship":7368,"91":7369,"OOT":7370,"hab":7371,"iced":7372,"Ġincons":7373,"ĠSant":7374,"ĠBoy":7375,"ĠMah":7376,"Ġexer":7377,"ĠThree":7378,"Ġmoves":7379,"Ġmanaged":7380,"Ġmathemat":7381,"aven":7382,"Ġproblematic":7383,"Ġscope":7384,"Ġargued":7385,"Ġdefinitions":7386,"Ġtitled":7387,"Ġarchived":7388,"Ġhearing":7389,"Ġessay":7390,"Ġpurely":7391,"Opp":7392,"xx":7393,"Ġbag":7394,"Ġcensus":7395,"Ġanon":7396,"Ġretain":7397,"Ġemer":7398,"ĠTer":7399,"ĠTur":7400,"urally":7401,"ĠGiven":7402,"ums":7403,"Ġpreser":7404,"avy":7405,"Ġdecisions":7406,"azy":7407,"Ġstanding":7408,"ESE":7409,"Ġkindly":7410,"Ġ1990":7411,"Ġtechnically":7412,"Ġpromoting":7413,"Ġincrease":7414,"ĠPolicy":7415,"93":7416,"da":7417,"nes":7418,"sa":7419,"Ġtab":7420,"omy":7421,"Ġneigh":7422,"Ġrail":7423,"ĠRon":7424,"Ġadds":7425,"soft":7426,"Ġpreced":7427,"phab":7428,"Ġexpan":7429,"space":7430,"Ġvariety":7431,"Ġrespected":7432,"Ġsuspic":7433,"ĠCUNTS":7434,"Ġharassing":7435,"Ġsubstantially":7436,"ĠCOMP":7437,"ĠHopefully":7438,"Ġmixed":7439,"About":7440,"Ve":7441,"Ġliar":7442,"uty":7443,"ĠAC":7444,"ĠWOR":7445,"cell":7446,"ĠSa":7447,"Ġstreet":7448,"Ġsell":7449,"ilst":7450,"uru":7451,"ĠHung":7452,"emporary":7453,"Ġquant":7454,"ĠKen":7455,"Ġowned":7456,"Ġcheese":7457,"Ġlets":7458,"Ġscene":7459,"123":7460,"ĠProfess":7461,"ĠExternal":7462,"Ġfeatures":7463,"========":7464,"Ġconformance":7465,"101":7466,"IK":7467,"Many":7468,"Right":7469,"ita":7470,"Ġcivility":7471,"ĠMuhammad":7472,"aka":7473,"Ġwhoever":7474,"Ġprejud":7475,"Ġuserbox":7476,"Ġrefused":7477,"Ġhighlight":7478,"Ġbigger":7479,"Ġpowerful":7480,"Ġmeeting":7481,"Ġsteps":7482,"Ġheavily":7483,"ĠSerbian":7484,"Ġrenamed":7485,"Ġlocked":7486,"Ġconservative":7487,"BA":7488,"Red":7489,"iat":7490,"official":7491,"west":7492,"Ñģ":7493,"ãĤ":7494,"Ġtutorial":7495,"Ġfiction":7496,"Ġdial":7497,"road":7498,"ĠSC":7499,"alker":7500,"ĠUR":7501,"cape":7502,"Ġprem":7503,"ĠVery":7504,"Ġdefending":7505,"ĠSociety":7506,"oking":7507,"Ġnominate":7508,"Ġcensor":7509,"Ġcontained":7510,"Ġtrivial":7511,"ĠPOST":7512,"ker":7513,"keep":7514,"Ġwont":7515,"ĠWANT":7516,"igation":7517,"Ġshock":7518,"Ġunits":7519,"Ġsubjective":7520,"Ġquestionable":7521,"Ġ48":7522,"DIE":7523,"ĠâĨĴ":7524,"Ġdenial":7525,"Ġnewspapers":7526,"Ġdemonstrate":7527,"ĠQueen":7528,"IES":7529,"met":7530,"ĠFar":7531,"ERO":7532,"Ġpolite":7533,"ĠVict":7534,"Ġfuckin":7535,"ategories":7536,"Ġmarried":7537,"Ġvoted":7538,"ĠCenter":7539,"Ġexpansion":7540,"Jan":7541,"Keep":7542,"wen":7543,"Ġ\\":7544,"onent":7545,"Ġreb":7546,"iament":7547,"opher":7548,"Ġsudd":7549,"ĠHen":7550,"Ġdeletions":7551,"allery":7552,"arer":7553,"Ġnowhere":7554,"Ġcommand":7555,"Ġwrites":7556,"ugoslav":7557,"Ġdownload":7558,"ĠShow":7559,"Ġfiled":7560,"Ġharrass":7561,"Ġexplanations":7562,"Ġrape":7563,"Ġskin":7564,"Ġreturned":7565,"ĠONE":7566,"Ġethnicity":7567,"Ġlibrary":7568,"Ġloser":7569,"Ġbranch":7570,"Ġcrazy":7571,"anoy":7572,"Ġfashion":7573,"Ġoh":7574,"Ġarms":7575,"Ġ()":7576,"ĠCup":7577,"ĠBay":7578,"Ġcontract":7579,"ogy":7580,"Ġrelating":7581,"ĠInter":7582,"ruit":7583,"Ġawards":7584,"Ġleads":7585,"Ġcenter":7586,"ĠFACK":7587,"Ġconnected":7588,"Ġthousand":7589,"Ġintentions":7590,"Ġheavy":7591,"Ġtraining":7592,"Ġprocedure":7593,"Ġconvinced":7594,"Ġrelevance":7595,"FORM":7596,"His":7597,"his":7598,"uzz":7599,"ufact":7600,"Ġmount":7601,"Ġfirm":7602,"ima":7603,"ĠSE":7604,"ĠCENT":7605,"isted":7606,"ĠBattle":7607,"ĠPIE":7608,"Ġship":7609,"Ġrot":7610,"ĠOx":7611,"Ġplat":7612,"Ġinvite":7613,"Ġfounded":7614,"ossibly":7615,"rison":7616,"Ġmental":7617,"Ġhypoth":7618,"Ġchallenged":7619,"Administrators":7620,"NG":7621,"TF":7622,"pedia":7623,"Ġtro":7624,"thesis":7625,"ĠCivil":7626,"ĠPublic":7627,"akers":7628,"Ġrice":7629,"ĠUr":7630,"Ġbehalf":7631,"Ġmemory":7632,"ĠBefore":7633,"Ġframe":7634,"ĠEncyclopedia":7635,"ĠAfghanistan":7636,"ĠJoseph":7637,"English":7638,"Ġsudden":7639,"Bl":7640,"SR":7641,"ĊĠĠ":7642,"atri":7643,"ami":7644,"ĠCat":7645,"ĠMem":7646,"ĠMont":7647,"ĠDie":7648,"ĠDutch":7649,"Ġvandalising":7650,"neutral":7651,"Ġherself":7652,"Inf":7653,"Ġroy":7654,"Ġcrimes":7655,"Ġorganisation":7656,"2009":7657,"Ġaccurately":7658,"Ġdiffs":7659,"Ġverifiability":7660,"reetings":7661,"Ġintelligent":7662,"ĠMetal":7663,"Ġcasual":7664,"British":7665,"PE":7666,"eff":7667,"garian":7668,"lines":7669,"sim":7670,"ule":7671,"encies":7672,"icago":7673,"admin":7674,"Ġ\"\"...":7675,"ĠMatt":7676,"Ġwasting":7677,"ĠFL":7678,"ĠFore":7679,"ĠJoe":7680,"Ġserved":7681,"Ġ75":7682,"rence":7683,"Ġsurr":7684,"Ġpieces":7685,"ĠAcadem":7686,"Ġsolely":7687,"Ġdedicated":7688,"HRHS":7689,"DE":7690,"ye":7691,"reens":7692,"ano":7693,"omp":7694,"ĠMONGO":7695,"elly":7696,"Ġtrade":7697,"Ġgranted":7698,"Ġuntr":7699,"Ġminute":7700,"Ġkinds":7701,"Ġallowing":7702,"Ġflow":7703,"ussian":7704,"Ġimprovements":7705,"Ġoccasion":7706,"Ġhonor":7707,"Ġtables":7708,"warring":7709,"ĠMacedonia":7710,"ĠJackson":7711,"Ġintegrity":7712,"Ġfacilitate":7713,"MANN":7714,"SC":7715,"claim":7716,"mus":7717,"ref":7718,"Ġmaster":7719,"Ġnom":7720,"Ġgross":7721,"ĠBur":7722,"ĠBOB":7723,"iller":7724,"ocol":7725,"Ġgenocide":7726,"Ġrealise":7727,"Ġconcent":7728,"ĠLeban":7729,"ĠUNBLOCK":7730,"OBERT":7731,"ĠMacedonian":7732,"ĠKNOW":7733,"Cau":7734,"YY":7735,"uated":7736,"Ã³":7737,"ĠTE":7738,"ĠAv":7739,"iments":7740,"igious":7741,"unic":7742,"ĠColl":7743,"ĠFact":7744,"Ġbutt":7745,"ĠYear":7746,"ĠRad":7747,"abs":7748,"odd":7749,"Ġtrick":7750,"Ġoblig":7751,"Ġownership":7752,"ANISH":7753,"Ġbrow":7754,"Ġ08":7755,"222":7756,"Ġindicated":7757,"Ġhistoric":7758,"Notability":7759,"ĠHarry":7760,"Ġconstitution":7761,"Ġvictims":7762,"IRED":7763,"Ġintellectual":7764,"Ġaccordance":7765,"Great":7766,"ÑĤ":7767,"Ġmate":7768,"Ġnotification":7769,"iah":7770,"ĠSAG":7771,"Ġsecurity":7772,"ĠPM":7773,"Ġproved":7774,"Ġoffense":7775,"ORN":7776,"141":7777,"Ġtranslated":7778,"ĠClub":7779,"ĠSPANISH":7780,"ĠMcC":7781,"ĠCOMM":7782,"Ġhorse":7783,"UUUU":7784,"published":7785,"SO":7786,"dated":7787,"iently":7788,"ws":7789,"ĠaRe":7790,"edd":7791,"ension":7792,"ador":7793,"Ġdeem":7794,"ĠBal":7795,"ĠBack":7796,"ĠMass":7797,"ila":7798,"ĠFGG":7799,"ĠNat":7800,"arted":7801,"ĠULL":7802,"STUPID":7803,"mmm":7804,"Ġblame":7805,"Ġsymp":7806,"ĠISBN":7807,"Ġproperty":7808,"ARD":7809,"Ġassumption":7810,"Ġsolve":7811,"Ġspeaks":7812,"Ġintroduce":7813,"Ġfootnote":7814,"BeCau":7815,"Ġvoting":7816,"ĠGOD":7817,"Ġcondition":7818,"ĠAssociation":7819,"ĠFGGT":7820,"BeCauSe":7821,".âĢĶ":7822,"otes":7823,"Ġisnt":7824,"Ġalot":7825,"Ġheight":7826,"ĠOper":7827,"alem":7828,"Ġprompt":7829,"Ġdealt":7830,"Israel":7831,"Ġmedic":7832,"ĠFucking":7833,"ĠIntroduction":7834,"ĠARTIC":7835,"Ġanimals":7836,"ĠTwo":7837,"ĠBradbury":7838,"Ġobscure":7839,"ĠCENTRAL":7840,"ĠSAGET":7841,"ĠULLMANN":7842,"part":7843,"Ġrein":7844,"Ġela":7845,"ĠAG":7846,"ika":7847,"aded":7848,"ĠPan":7849,"ilarly":7850,"abal":7851,"Ġrepublic":7852,"ahoo":7853,"Ġprison":7854,"Ġrealized":7855,"Ġends":7856,"Ġinvolving":7857,"Ġtesting":7858,"Ġdiscrim":7859,"Ġmerging":7860,"ĠGroup":7861,"Ġsubmit":7862,"SHUT":7863,"Ġselected":7864,"ĠDELET":7865,"Ġgirls":7866,"Ġcelebr":7867,"delanoy":7868,"!\"":7869,"Best":7870,"GB":7871,"Mus":7872,"after":7873,"host":7874,"kin":7875,"ĊĠĠĠĠĠĠĠĠ":7876,"Ġbollocks":7877,"Ġeast":7878,"Ġforg":7879,"ĠBh":7880,"ĠBob":7881,"ĠHall":7882,"Ġrational":7883,"ritical":7884,"REAT":7885,"Ġverb":7886,"Ġissued":7887,"ĠHead":7888,"Ġgreatest":7889,"Ġcontrolled":7890,"ART":7891,"Ġhumans":7892,"ĠConflict":7893,"uropean":7894,"Ġeffective":7895,"Ġdenied":7896,"Ġjoined":7897,"Ġpotentially":7898,"Ġperformance":7899,"Ġanimal":7900,"MAO":7901,"Ġinvented":7902,"Ġacknowledged":7903,"ACH":7904,"El":7905,"Prop":7906,"Under":7907,"pop":7908,"rid":7909,"rich":7910,"rics":7911,"Ġsir":7912,"Ġwing":7913,"Ġpra":7914,"Ġmir":7915,"Ġmum":7916,"oma":7917,"Ġearn":7918,"ĠSir":7919,"Ġcong":7920,"Ġconven":7921,"ĠMess":7922,"ĠUntil":7923,"Ġplanning":7924,"ĠReal":7925,"Ġaddressing":7926,"Ġseconds":7927,"ĠBeat":7928,"Ġsurvey":7929,"ĠshitFuck":7930,"Ġquoting":7931,"Ġrepresents":7932,"Ġfilled":7933,"Ġwikipedians":7934,"Ġoverwhel":7935,"Happy":7936,"Other":7937,"crip":7938,"jo":7939,"ni":7940,"ridge":7941,"Ġwild":7942,"Ġcook":7943,"Ġpan":7944,"Ġhidden":7945,"ĠATHE":7946,"vertical":7947,"ĠHill":7948,"Ġunrelated":7949,"Ġunbiased":7950,"Ġjack":7951,"Ġfactually":7952,"Ġoverview":7953,"INT":7954,"Ġparam":7955,"ĠDeath":7956,"Ġstrateg":7957,"issions":7958,"Ġauthorities":7959,"Ġpolitically":7960,"Ġpassage":7961,"ĠDisney":7962,"Ġaudio":7963,"ĠPalestinian":7964,"aphr":7965,"33333333":7966,"Ġminimum":7967,"ĠPIECE":7968,"ĠATHEIST":7969,"Cons":7970,"MS":7971,"Rel":7972,"cat":7973,"life":7974,"rome":7975,"uations":7976,"ora":7977,"Ġopt":7978,"Ġreform":7979,"Ġgas":7980,"ĠPop":7981,"ĠEp":7982,"plain":7983,"Ġgoals":7984,"Ġmob":7985,"odies":7986,"ensed":7987,"Ġspamming":7988,"Ġscrew":7989,"Although":7990,"Ġadministrative":7991,"ĠConstitution":7992,"Ġundue":7993,"Ġracial":7994,"specific":7995,"Ġdropdown":7996,"Ġsoldiers":7997,"roversial":7998,"Ġindefinitely":7999,"arbage":8000,"ĠCENTRALIST":8001,"ARE":8002,"AIDS":8003,"Every":8004,"OG":8005,"PH":8006,"Ġcla":8007,"esome":8008,"Ġdream":8009,"Ġnations":8010,"otic":8011,"ĠAra":8012,"ĠWAL":8013,"Ġhaz":8014,"aying":8015,"ĠPut":8016,"ĠHaw":8017,"ĠFin":8018,"ĠDC":8019,"ureauc":8020,"Ġresist":8021,"ĠVirgin":8022,"Ġplagiar":8023,"Ġposter":8024,"Ġembar":8025,"Ġexpression":8026,"Ġcausing":8027,"Ġextended":8028,"Ġ09":8029,"ĠGermans":8030,"Ġnewsletter":8031,"ĠSTILL":8032,"Ġincreasing":8033,"ĠBelow":8034,"Ġdeclined":8035,"ĠFrequently":8036,"Ġattributed":8037,"Ġsubsequent":8038,"ĠKoso":8039,"Ġsleep":8040,"ĠCENTRALISTSTUPID":8041,"PP":8042,"Te":8043,"aism":8044,"def":8045,"Ġsen":8046,"Ġfederal":8047,"ĠWi":8048,"ĠSource":8049,"cher":8050,"Ġsequ":8051,"Ġrough":8052,"ĠNight":8053,"people":8054,"Ġju":8055,"ĠOs":8056,"Ġchildish":8057,"ournals":8058,"ĠContribs":8059,"ĠResearch":8060,"Ġassessment":8061,"emitic":8062,"Ġvideos":8063,"FORMATION":8064,"Ag":8065,"Sim":8066,"Ġtoe":8067,"idel":8068,"stant":8069,"rial":8070,"ĠNothing":8071,"uming":8072,"!!!!!!!!!!!!":8073,"Ġdecades":8074,"ĠSock":8075,"Ġcaption":8076,"Ġcharges":8077,"Ġmuslim":8078,"iably":8079,"Ġproductive":8080,"ĠONLY":8081,"ĠAdditionally":8082,"Ġpuppetry":8083,"Ġdistinguish":8084,"Ġfrankly":8085,"Ġdubious":8086,"IAN":8087,"Most":8088,"Tw":8089,"lt":8090,"mir":8091,"Ġtree":8092,"iser":8093,"Ġcart":8094,"imal":8095,"ĠBA":8096,"ĠBaby":8097,"ĠNick":8098,"iva":8099,"Ġtalked":8100,"Ġresource":8101,"perial":8102,"assing":8103,"Ġrelative":8104,"ATOR":8105,"ĠAndrew":8106,"Ġbiographical":8107,"Ġgotta":8108,"Ġclosing":8109,"Ġthreatened":8110,"ĠClass":8111,"Ġterrible":8112,"Ġremaining":8113,"Ġidiots":8114,"restling":8115,"Ġdogs":8116,"HHHH":8117,"Ġtrivia":8118,"Ġarrogant":8119,"ĠDistrict":8120,"Ob":8121,"och":8122,"person":8123,"Ġic":8124,"Ġ..":8125,"Ġbaby":8126,"Ġfell":8127,"lymp":8128,"Ġeg":8129,"uting":8130,"ĠWR":8131,"ĠNeed":8132,"ĠJIM":8133,"Ġfab":8134,"ĠUTC":8135,"Ġtrip":8136,"ĠChicago":8137,"Ġtexts":8138,"Ġfigured":8139,"ĠProt":8140,"Ġhyper":8141,"Ġcommunication":8142,"Ġsanction":8143,"Chan":8144,"friend":8145,"Ġbear":8146,"ikes":8147,"Ġstring":8148,"ĠBrazil":8149,"ĠMike":8150,"ĠMove":8151,"ĠFace":8152,"Ġjerk":8153,"REE":8154,"Ġgender":8155,"ĠHebrew":8156,"Ġsupporters":8157,"Ġbadly":8158,"spacing":8159,"Ġcommunist":8160,"Ġtyping":8161,"Ġmeaningful":8162,"Ġscholar":8163,"Ġconstitute":8164,"Ġforums":8165,"ĠFROM":8166,"Ġdeclared":8167,"NHRHS":8168,"bour":8169,"iy":8170,"sign":8171,"ĊĠĊ":8172,"Ġcorn":8173,"arry":8174,"assion":8175,"Ġreversion":8176,"Ġeight":8177,"thanks":8178,"Ġarrest":8179,"Ġexcess":8180,"ĠTheir":8181,"ĠRet":8182,"isms":8183,"rats":8184,"rative":8185,"Ġflight":8186,"ĠINFORMATION":8187,"Ġspeakers":8188,"Ġapproved":8189,"Ġconvince":8190,"ĠEditing":8191,"Ġdisplayed":8192,"Ġamazing":8193,"Oppose":8194,"KK":8195,"Sure":8196,"hl":8197,"Î±":8198,"ĠÅ":8199,"ĠDaniel":8200,"ustration":8201,"Ġven":8202,"ĠYugoslav":8203,"Ġdiss":8204,"ĠJournal":8205,"ĊĊĠĊ":8206,"vertheless":8207,"Ġreferencing":8208,"Ġspecul":8209,"ugs":8210,"Ġ07":8211,"ĠProv":8212,"Ġcenturies":8213,"Ġturns":8214,"Ġdocumentation":8215,"Ġtrolls":8216,"Ġconcepts":8217,"Ġoperation":8218,"trans":8219,"Ġapplication":8220,"ĠCompany":8221,"Cur":8222,"gor":8223,"Ġ!!!":8224,"aters":8225,"Ġpig":8226,"Ġreinst":8227,"utive":8228,"ĠSl":8229,"Ġdoll":8230,"ĠPS":8231,"editing":8232,"ĠFIRED":8233,"Ġadequ":8234,"ĠName":8235,"ĠNOW":8236,"âĢľ":8237,"aren":8238,"Ġmanufact":8239,"Ġadministration":8240,"rugg":8241,"azz":8242,"ALT":8243,"Ġinteract":8244,"Ġsockpuppets":8245,"Ġpassing":8246,"Ġarchitect":8247,"Ġholding":8248,"Ġapprox":8249,"Ġlevels":8250,"ANNON":8251,"Ġprinted":8252,"ĠLibrary":8253,"ĠSteve":8254,"Ġdishonest":8255,"ĠWALES":8256,"PIC":8257,"Ġ<":8258,"Ġ~~~~":8259,"Ġnotion":8260,"ĠWay":8261,"ĠCast":8262,"ĠBang":8263,"Ġsuit":8264,"andon":8265,"ĠNon":8266,"Ġcomfort":8267,"ĠEV":8268,"lab":8269,"ĠOUT":8270,"conf":8271,"Ġparaphr":8272,"Ġcoinc":8273,"ĠIsland":8274,"ĠSpain":8275,"Ġâľ":8276,"Ġbreaking":8277,"ĠSHANNON":8278,"Ġcomplaints":8279,"Ġ1980":8280,"ĠSystem":8281,"Ġobtained":8282,"party":8283,"wa":8284,"Ġwitness":8285,"icians":8286,"Ġisland":8287,"ĠAward":8288,"ĠCR":8289,"Ġdear":8290,"ĠBa":8291,"ĠPreceding":8292,"rive":8293,"ĠDirect":8294,"ĠRFA":8295,"ĠRiver":8296,"ieve":8297,"ĠLong":8298,"ĠOp":8299,"Ġeval":8300,"Ġinval":8301,"AHAHAH":8302,"Ġinternal":8303,"Ġthreaten":8304,"Ġstubs":8305,"Ġimmig":8306,"ĠPortal":8307,"Ġdestroyed":8308,"Ð¾Ð":8309,"FFFFFF":8310,"Ġvirtually":8311,"ĠOxford":8312,"Ġelabor":8313,"ls":8314,"zech":8315,"Ġsom":8316,"ero":8317,"Ġpack":8318,"ĠHy":8319,"ĠFat":8320,"ĠFire":8321,"ĠDVD":8322,"ĠYeah":8323,"Ġcontrast":8324,"abb":8325,"ĠViet":8326,"ava":8327,"Ġdiffer":8328,"Ġregret":8329,"Ġcold":8330,"https":8331,"129":8332,"Ġstats":8333,"Ġdisagreement":8334,"Ġelections":8335,"Ġpublishing":8336,"Ġtradition":8337,"Ġsalute":8338,"ĠSerbia":8339,"Ġnarrow":8340,"ĠIRC":8341,"Ġmachine":8342,"=)":8343,"Ma":8344,"Mr":8345,"main":8346,"polit":8347,"Ġwanna":8348,"Ġcrack":8349,"Ġfictional":8350,"ĠPC":8351,"ĠMs":8352,"ĠMur":8353,"ĊĊĠĠ":8354,"iley":8355,"Ġplacing":8356,"Ġregional":8357,"eresting":8358,"rane":8359,"azon":8360,"Ġscr":8361,"Ġbrown":8362,"Ġdisturb":8363,"Ġdiscred":8364,"respect":8365,"ĠNotability":8366,"ĠPolit":8367,"Ġpermitted":8368,"ĠBlue":8369,"Ġdaily":8370,"Ġmisunderstanding":8371,"Ġrollback":8372,"Bollocks":8373,"FE":8374,"SI":8375,"bie":8376,"hop":8377,"nam":8378,"Ġsister":8379,"Ġwp":8380,"ĠIII":8381,"ĠSon":8382,"unny":8383,"ĠHas":8384,"Ġunjust":8385,"Ġalphab":8386,"ĠLog":8387,"ĠEU":8388,"Ġreser":8389,"orders":8390,"Ġ300":8391,"Ġserves":8392,"Ġviewed":8393,"Ġendorse":8394,"Ġadvant":8395,"Ġdirector":8396,"Ġdistance":8397,"Ġdiscover":8398,"roduct":8399,"âĢĿ.":8400,"THING":8401,"ĠPrince":8402,"ennis":8403,"Ġresponsibility":8404,"ĠIMO":8405,"Ġreduce":8406,"ĠHolocaust":8407,"Ġballs":8408,"Col":8409,"uity":8410,"Ġtheore":8411,"Ġsland":8412,"usalem":8413,"Ġgarbage":8414,"stop":8415,"ĠCIA":8416,"ĠMen":8417,"Ġsoci":8418,"Ġpov":8419,"ĠLee":8420,"ĠLMAO":8421,"ucks":8422,"Which":8423,"ÂłĠ":8424,"Ġmiscon":8425,"Ġorigins":8426,"Ġbroke":8427,"Ġrecognition":8428,"Ġfocused":8429,"Ġencouraged":8430,"Ġdaughter":8431,"Ġcalm":8432,"Class":8433,"Ġinstitution":8434,"Non":8435,"bai":8436,"full":8437,"house":8438,"ront":8439,"uis":8440,"Ġtiny":8441,"ouche":8442,"ender":8443,"Ġpunk":8444,"Ġpadding":8445,"Ġoptions":8446,"icans":8447,"arant":8448,"\"\"...":8449,"again":8450,"ĠWood":8451,"ĠDick":8452,"ĠDark":8453,"Ġbytes":8454,"ĠJUST":8455,"iana":8456,"Ġactor":8457,"Ġsubt":8458,"Ġmath":8459,"ails":8460,"Ġsport":8461,"Ġeverywhere":8462,"Ġdefense":8463,"eeee":8464,"ashed":8465,"Ġsorts":8466,"Ġredirected":8467,"Ġtranslate":8468,"Ġlimits":8469,"Ġassociation":8470,"Someone":8471,"Ġemphasis":8472,"Ġprepared":8473,"nos":8474,"Ġwise":8475,"alse":8476,"ĠWatch":8477,"ĠCare":8478,"ĠMS":8479,"ĠHaving":8480,"ummer":8481,"Ġwanting":8482,"Ġmanual":8483,"ĠĠĠĠĠĠ":8484,"114":8485,"ibl":8486,"ĠAsian":8487,"atures":8488,"Ġcorrecting":8489,"Ġvalues":8490,"Ġannounced":8491,"ĠPlus":8492,"ski":8493,"ĠCOME":8494,"Ġdemonstrated":8495,"Ġdeeply":8496,"Edgar":8497,"Ġrarely":8498,"ĠUkraine":8499,"Christian":8500,"Sockpuppet":8501,"cript":8502,"ato":8503,"Ġbreat":8504,"Ġovert":8505,"Ġinline":8506,"Ġlazy":8507,"ĠTable":8508,"Ġforb":8509,"aya":8510,"ĠBY":8511,"ĠBad":8512,"ĠFamily":8513,"ĠDen":8514,"ĠGuy":8515,"ĠOl":8516,"pty":8517,"Ġchron":8518,"Ġcommenting":8519,"ĠInstitute":8520,"Ġentity":8521,"Ġcorrections":8522,"anger":8523,"Ġintervention":8524,"Ġcolle":8525,"Ġextrem":8526,"Ġmerits":8527,"Ġautom":8528,"Ġmoral":8529,"Ġcarried":8530,"Ġsucceed":8531,"Ġprofession":8532,"ĠRepublican":8533,"Ġblogs":8534,"links":8535,"ĠWWE":8536,"Mon":8537,"Sch":8538,"po":8539,"rick":8540,"youtube":8541,"Ġ....":8542,"Ġupp":8543,"eries":8544,"lla":8545,"ĠTony":8546,"ĠMiss":8547,"ĠNone":8548,"Ġalive":8549,"raction":8550,"Ġoutright":8551,"ribes":8552,"inton":8553,"Ġscen":8554,"atted":8555,"Ġoccas":8556,"Ġmodified":8557,"Ġdrama":8558,"Ġmeantime":8559,"Ġopposing":8560,"Deletion":8561,"Ġboys":8562,"ĠAlbanian":8563,"Ġstrength":8564,"Gr":8565,"count":8566,"dr":8567,"gh":8568,"parent":8569,"uer":8570,"rec":8571,"ati":8572,"edal":8573,"Ġpump":8574,"Ġfought":8575,"Ġnasty":8576,"oting":8577,"otal":8578,"imp":8579,"heme":8580,"sem":8581,"olar":8582,"ĠNations":8583,"Ġdisreg":8584,"iceboard":8585,"Ġbacked":8586,"Ġdefam":8587,"Ġ||":8588,"bye":8589,"2005":8590,"ĠCommon":8591,"Ġmusical":8592,"ĠDOWN":8593,"Ġapologise":8594,"uously":8595,"iveness":8596,"Ġpetty":8597,"iques":8598,"Ġdropped":8599,"ĠLouis":8600,"UK":8601,"onder":8602,"itative":8603,"Ġcro":8604,"ĠId":8605,"arre":8606,"ĠToday":8607,"ĠPE":8608,"rac":8609,"ĠLin":8610,"ardian":8611,"Ġoutcome":8612,"Ġcompleted":8613,"pha":8614,"avis":8615,"Ġ500":8616,"Ġrequirement":8617,"Ġhumor":8618,"Ġengaging":8619,"Ġnationalist":8620,"Ġ1999":8621,"Ġsignificantly":8622,"Ġreflects":8623,"consider":8624,"Ġtowns":8625,"Ġseeking":8626,"Ġreversions":8627,"ubbish":8628,"Ġtactics":8629,"Ġplatform":8630,"Ġroyal":8631,"Even":8632,"has":8633,"mand":8634,"ym":8635,"Ġcos":8636,"Ġnuclear":8637,"ĠTa":8638,"ĠTre":8639,"Ġgather":8640,"Ġstraw":8641,"outs":8642,"ĠPri":8643,"Ġlect":8644,"acob":8645,"Ġfactor":8646,"Ġfeet":8647,"Ġregularly":8648,"Ġhero":8649,"Read":8650,"192":8651,"Ġauthent":8652,"Ġpractices":8653,"Ġparticipation":8654,"????????":8655,"Ġfavorite":8656,"Ġpicked":8657,"ĠArabic":8658,"ĠItaly":8659,"Ġreduced":8660,"Ġadopted":8661,"MC":8662,"PO":8663,"coh":8664,"Ġ!!":8665,"Ġbully":8666,"articles":8667,"ĠCSD":8668,"ĠBat":8669,"ĠHell":8670,"ĠDun":8671,"raham":8672,"ĠOtt":8673,"ĠThough":8674,"ribute":8675,"ĠDoing":8676,"Ġleaders":8677,"Ġpretend":8678,"Ġautob":8679,"Ġqualified":8680,"Ġcomplicated":8681,"Ġruns":8682,"Ġrevisions":8683,"Ġupdating":8684,"Ġcapacity":8685,"ĠGreeks":8686,"Ġreceiving":8687,"ISTR":8688,"ĠPlay":8689,"Ġportion":8690,"Ġ1970":8691,"Ġhorrible":8692,"ĠNEVER":8693,".(":8694,"Par":8695,"gif":8696,"oil":8697,"since":8698,"source":8699,"Ġflo":8700,"ionist":8701,"char":8702,"Ġsevere":8703,"ĠMilitary":8704,"ĠMicro":8705,"ilater":8706,"illed":8707,"ura":8708,"Ġvac":8709,"Ġsovere":8710,"Ġleague":8711,"ĠOver":8712,"abled":8713,"formed":8714,"Ġperceived":8715,"ĠVER":8716,"ĠArbitration":8717,"rently":8718,"Ġencyclopaedia":8719,"Ġending":8720,"Ġstrike":8721,"168":8722,"Ġobjects":8723,"ĠFACT":8724,"ĠREAD":8725,"Ġpromoted":8726,"Comment":8727,"Ġurge":8728,"Ġrecommended":8729,"Ġwikil":8730,"ĠSecondly":8731,"Check":8732,"ĠDRINK":8733,"Ġstrictly":8734,"Ġbeautiful":8735,"Ġhypothesis":8736,"Ġfabric":8737,"Ã¤":8738,"onian":8739,"Ġsight":8740,"atus":8741,"atically":8742,"Ġnazi":8743,"asel":8744,"Ġglo":8745,"ĠWhether":8746,"then":8747,"ĠBre":8748,"iry":8749,"ĠFred":8750,"Ġunus":8751,"Ġacqu":8752,"abase":8753,"Ġattend":8754,"Ġcommons":8755,"229":8756,"Ġidentical":8757,"Ġsupposedly":8758,"Ġpersist":8759,"Ġconsistency":8760,"Ġ;-)":8761,"Ġinitially":8762,"ĠMinister":8763,"Ġsettled":8764,"ĠBulgarian":8765,"ĠCHEESE":8766,"Ġmedicine":8767,"LC":8768,"Ver":8769,"bag":8770,"dog":8771,"rage":8772,"Ġax":8773,"ĠIll":8774,"uts":8775,"unction":8776,"ĠPot":8777,"quette":8778,"Ġjournals":8779,"ĠEnd":8780,"ongol":8781,"active":8782,"archive":8783,"Ġregions":8784,"onto":8785,"white":8786,"Ġcolour":8787,"Ġcolors":8788,"Ġ82":8789,"ĠFeatured":8790,"together":8791,"250":8792,"Ġmeaningless":8793,"Ġcease":8794,"Ġeconomy":8795,"ĠApparently":8796,"Ġwindow":8797,"ĠVictor":8798,"Ġoverwhelming":8799,"Af":8800,"Was":8801,"Ġbed":8802,"Ġpending":8803,"ications":8804,"ĠAg":8805,"iams":8806,"ĠBLE":8807,"ĠPower":8808,"ĠMount":8809,"illage":8810,"ĠHoly":8811,"ĠTheory":8812,"ĠJon":8813,"ĠOpen":8814,"Ġagrees":8815,"Ġgrowing":8816,"Ġplant":8817,"Ġprice":8818,"Ġentertain":8819,"alend":8820,"Ġdescend":8821,"Ġfounder":8822,"Ġcounts":8823,"AHH":8824,"oked":8825,"Ġ9000":8826,"Ġofficer":8827,"AAA":8828,"ĠRegarding":8829,"Ġaccordingly":8830,"EEP":8831,"ĠWithout":8832,"Ġprograms":8833,"Ġfemin":8834,"Ġapplicable":8835,"Ġlicensing":8836,"Ġcomprehensive":8837,"ĠEVERY":8838,"phaned":8839,"Ġvehicle":8840,"David":8841,"USE":8842,"kh":8843,"rus":8844,"works":8845,"Ġwel":8846,"Ġwinning":8847,"Ġbureauc":8848,"esy":8849,"arter":8850,"ĠFa":8851,"ĠDave":8852,"ĠNazis":8853,"ĠLy":8854,"Ġleaves":8855,"ĠView":8856,"Ġcommittee":8857,"Ġregister":8858,"Ġcontentious":8859,"Ġinstances":8860,"Its":8861,"Ġheader":8862,"Ġindication":8863,"Ġdepth":8864,"2012":8865,"Ġrepresentative":8866,"evin":8867,"Ġfresh":8868,"Ġprofessor":8869,"Ġamounts":8870,"Ġteacher":8871,"Ġcorrection":8872,"Ġbullying":8873,"ĠUkrainian":8874,"aaaaaaaaaaaaaaaaaaaaaaaaaaaaaaaaaaaaaaaaaaaaaaaaaaaaaaaaaaaaaaaa":8875,"uyuyuyuyuyuyuyuyuyuyuyuyuyuyuyuyuyuyuyuyuyuyuyuyuyuyuyuyuyuyuyuy":8876,"nnnnnnnnnnnnnnnnnnnnnnnnnnnnnnnnnnnnnnnnnnnnnnnnnnnnnnnnnnnnnnnn":8877,"yyyyyyyyyyyyyyyyyyyyyyyyyyyyyyyyyyyyyyyyyyyyyyyyyyyyyyyyyyyyyyyy":8878,"Ġinserting":8879,"ĠHenry":8880,"BTW":8881,"Nice":8882,"idering":8883,"erer":8884,"Ġstance":8885,"ĠCa":8886,"ĠBR":8887,"Ġdozen":8888,"ĠHan":8889,"ĠHence":8890,"Ġshape":8891,"ĠNext":8892,"ĠElect":8893,"riter":8894,"...)":8895,"Ġperpet":8896,"Ġspin":8897,"Ġclearer":8898,"archy":8899,"Ġbits":8900,"195":8901,"Ġideology":8902,"Ġ[]":8903,"146":8904,"Ġtries":8905,"130":8906,"Ġpatience":8907,"Ġholds":8908,"ĠSeriously":8909,"Ġportray":8910,"Ġempire":8911,"Ġperformed":8912,"Ġjoining":8913,"Ġjournalist":8914,"tytytytytytytytytytytytytytytytytytytytytytytytytytytytytytytyty":8915,"LOL":8916,"Media":8917,"RTR":8918,"original":8919,"Ġhomin":8920,"ĠIss":8921,"room":8922,"throp":8923,"ĠSikh":8924,"ĠSOME":8925,"ĠCla":8926,"ĠHome":8927,"Ġrant":8928,"leting":8929,"ĠRome":8930,"iev":8931,"oval":8932,"ANH":8933,"when":8934,"ĠBeing":8935,"Ġnominations":8936,"Ġsearching":8937,"Ġdescriptions":8938,"Ġweekend":8939,"Ġconflicts":8940,"Comm":8941,"Ġderived":8942,"PeRTR":8943,"Images":8944,"Ġpermanent":8945,"ĠGeorgia":8946,"uguese":8947,"ĠScotland":8948,"ĠWiLL":8949,"IB":8950,"bul":8951,"bush":8952,"ds":8953,"language":8954,"sis":8955,"Ø§":8956,"Ġah":8957,"isc":8958,"lead":8959,"Ġpuppets":8960,"icient":8961,"Ġinherent":8962,"enth":8963,"ĠSah":8964,"Ġseperate":8965,"ĠBank":8966,"Ġkidd":8967,"Ġexhib":8968,"essed":8969,"acific":8970,"References":8971,"Ġguidance":8972,"prus":8973,"Ġkinda":8974,"ĠSeems":8975,"Ġflu":8976,"Ġpublicly":8977,"ĠOrthodox":8978,"Ġdepend":8979,"ognise":8980,"Ġmembership":8981,"Ġsubstit":8982,"ĠEditor":8983,"instein":8984,"People":8985,"Ġruled":8986,"Ġmanagement":8987,"Ġaccomplish":8988,"ANHERO":8989,"Cle":8990,"iography":8991,"rants":8992,"Ä±":8993,"Ðº":8994,"oral":8995,"Ġbtw":8996,"Ġpil":8997,"Ġmax":8998,"especially":8999,"Ġnerd":9000,"ĠWolf":9001,"ĠSlo":9002,"Ġdoctor":9003,"ils":9004,"Ġcontemporary":9005,"ĠRick":9006,"ĠROBERT":9007,"Ġaggressive":9008,"arts":9009,"ĠThird":9010,"ache":9011,"Ġreliability":9012,"ĠĠĊĠ":9013,"Ġscheme":9014,"Ġadvised":9015,"2011":9016,"ahaha":9017,"Ġworthless":9018,"content":9019,"Ġvalidity":9020,"Ġcleaning":9021,"USH":9022,"Ġfalls":9023,"ĠADMINISTR":9024,"ĠRights":9025,"Ġdisgusting":9026,"ĠSocialist":9027,"Ġamerican":9028,"ĠSAID":9029,"Ġutterly":9030,"ĠURL":9031,"ACHANHERO":9032,"Ġinvalid":9033,"ĠBLEACHANHERO":9034,"210":9035,"BE":9036,"_(":9037,"bian":9038,"ji":9039,"oices":9040,"tar":9041,"lem":9042,"ĠWars":9043,"ĠSection":9044,"olve":9045,"ĠBan":9046,"ĠBoo":9047,"Ġdoor":9048,"etch":9049,"akh":9050,"anti":9051,"ĠGib":9052,"Ġintim":9053,"ĠKind":9054,"Ġvandalise":9055,"Ġverification":9056,"Ġclimate":9057,"LLLL":9058,"Ġadminship":9059,"Ġcontinually":9060,"142":9061,"139":9062,"Ġdouche":9063,"ĠMarx":9064,"Ġclassic":9065,"Ġmodify":9066,"Ġmarks":9067,"Ġassertions":9068,"ĠSyria":9069,"ĠMUD":9070,"Ġbroadcast":9071,"Ġsquare":9072,"Ġshooting":9073,"ĠPasht":9074,"ĠTurks":9075,"Cong":9076,"Dude":9077,"Oct":9078,"aed":9079,"rish":9080,"Ã§":9081,"Äģ":9082,"àº":9083,"ancing":9084,"Ġhint":9085,"ĠTag":9086,"Ġgoo":9087,"cean":9088,"ĠSqu":9089,"ĠSep":9090,"Ġstable":9091,"ĠCub":9092,"ateful":9093,"ĠPal":9094,"Ġsuicide":9095,"ĠMot":9096,"Ġneo":9097,"Ġrise":9098,"ishop":9099,"abe":9100,"Ġspoke":9101,"Ġpartisan":9102,"Ġdefault":9103,"ĠReally":9104,"Ġheritage":9105,"ĠAsk":9106,"Ġreviewer":9107,"......":9108,"Ġimproper":9109,"istrator":9110,"Ġlogging":9111,"Ġpresenting":9112,"ĠBEEN":9113,"Ġprotecting":9114,"Ġbanning":9115,"ĠSHOULD":9116,"Ġrepresentation":9117,"Ġvisible":9118,"Ġcapable":9119,"ĠAIDSAIDS":9120,"ILLION":9121,"Ġsuperior":9122,"Ġreplacement":9123,"Ġessential":9124,"Contribs":9125,"Contributions":9126,"Anyway":9127,"Ġruling":9128,"ĠJudaism":9129,"ĠSwedish":9130,"Ġtonight":9131,"ĠArabs":9132,"Ap":9133,"DP":9134,"lar":9135,"Ġcir":9136,"Ġmast":9137,"Ġwhilst":9138,"ĠAmb":9139,"ipped":9140,"Ġstrip":9141,"ĠCorn":9142,"ĠGar":9143,"Ġenfor":9144,"Ġchrist":9145,"phr":9146,"Ġsaved":9147,"Ġfinds":9148,"Ġsupply":9149,"Ġcopyvio":9150,"Ġdescent":9151,"Ġgeneration":9152,"ORT":9153,"ĠForce":9154,"Ġrestoring":9155,"227":9156,"gery":9157,"Ġdepartment":9158,"Ġbreach":9159,"ĠColumb":9160,"Ġfields":9161,"Ġtempor":9162,"Ġblanking":9163,"Ġliked":9164,"Ġrenaming":9165,"ospital":9166,"Ġpermanently":9167,"CRAPCRAPCRAPCRAPCRAPCRAPCRAPCRAPCRAPCRAPCRAPCRAPCRAPCRAPCRAPCRAP":9168,"ĠKosovo":9169,"NC":9170,"Tube":9171,"West":9172,"cr":9173,"master":9174,"prom":9175,"zens":9176,"Ġtherap":9177,"Ġsending":9178,"orum":9179,"Ġmilit":9180,"agger":9181,"Ġstress":9182,"Ġstamp":9183,"Ġstrugg":9184,"ĠCome":9185,"ela":9186,"Ġexchange":9187,"peat":9188,"ĠLittle":9189,"ĠUsing":9190,"Ġpreference":9191,"Ġspelled":9192,"ordan":9193,"Ġplans":9194,"Ġcommit":9195,"cyclopedic":9196,"Ġdifferently":9197,"Ġreligions":9198,"Ġeffectively":9199,"Ġcomplaining":9200,"Ġindependence":9201,"EEEE":9202,"Ġroman":9203,"Ġterminology":9204,"unicip":9205,"ĠARTICLE":9206,"ĠADMINISTRATOR":9207,"God":9208,"mology":9209,"Ġfont":9210,"Ġfort":9211,"adow":9212,"Ġconvey":9213,"Ġsees":9214,"ĠHo":9215,"Ġshop":9216,"ĠFil":9217,"Ġadjust":9218,"ĠRather":9219,"ĠGal":9220,"Ġremote":9221,"guy":9222,"ĠAli":9223,"Ġinfer":9224,"Ġinstru":9225,"ysop":9226,"128":9227,"Ġ98":9228,"Ġlegis":9229,"Ġminds":9230,"Ġcontacted":9231,"Ġparticipants":9232,"Ġjudgment":9233,"Ġinterviews":9234,"ĠBoard":9235,"ĠMexico":9236,"Ġwithdraw":9237,"Ġupper":9238,"King":9239,"March":9240,"first":9241,"pired":9242,"Äĩ":9243,"Ġbog":9244,"roc":9245,"thur":9246,"amic":9247,"chester":9248,"ĠMax":9249,"Ġrubbish":9250,"udes":9251,"Ġintr":9252,"ucker":9253,"ultural":9254,"Ġcopies":9255,"Ġincivility":9256,"pril":9257,"Ġbrings":9258,"retch":9259,"209":9260,"ĠOrder":9261,"ĠOriginal":9262,"Ġlawyer":9263,"Ġcleaned":9264,"Ġbuildings":9265,"Ġphrases":9266,"Ġfamilies":9267,"Ġreleases":9268,"****":9269,"Question":9270,"ĠFlor":9271,"ĠCyprus":9272,"ĠDemocratic":9273,"Ġhatred":9274,"Ġtaught":9275,"YR":9276,"cuse":9277,"gon":9278,"ĨĲ":9279,"Ġincl":9280,"Ġlit":9281,"Ġgerman":9282,"ĠAut":9283,"Ġarse":9284,"ĠSU":9285,"ĠSlav":9286,"una":9287,"Ġabst":9288,"Ġprod":9289,"ĠNigger":9290,"Ġ1000":9291,"Ġassure":9292,"Ġideal":9293,"Ġbridge":9294,"Ġplays":9295,"Ġsurface":9296,"Ġorganized":9297,"Ġsocks":9298,"Ġwonderful":9299,"Ġtypically":9300,"Ġerrone":9301,"Ġblatantly":9302,"oppy":9303,"Ġbarely":9304,"969":9305,"Co":9306,"DB":9307,"cern":9308,"ez":9309,"oided":9310,"place":9311,"Ġsac":9312,"Ġcamer":9313,"Ġhous":9314,"estic":9315,"ĠTell":9316,"ĠWel":9317,"igm":9318,"igion":9319,"ĠCE":9320,"urday":9321,"Ġcomic":9322,"ĠRay":9323,"ĠGame":9324,"Ġdislike":9325,"ĠOWN":9326,"ĠOlymp":9327,"Ġpert":9328,"venue":9329,"aza":9330,"Ġimportantly":9331,"ampion":9332,"Ġfourth":9333,"Ġdisagrees":9334,"251":9335,"Ġrepeating":9336,"prof":9337,"Ġswear":9338,"Ġinfluenced":9339,"ĠParis":9340,"Ġundoing":9341,"ĠAlexander":9342,"Ġphotographs":9343,"ĠJerusalem":9344,"Ġthoroughly":9345,"ĠNobody":9346,"Ġphenomenon":9347,"edalus":9348,"Copyright":9349,"iel":9350,"long":9351,"try":9352,"written":9353,"Ġain":9354,"Ġfly":9355,"Ġdicks":9356,"Ġrely":9357,"Ġloose":9358,"ĠTamil":9359,"Ġarb":9360,"ĠFederal":9361,"ĠDog":9362,"ustain":9363,"Ġrow":9364,"raf":9365,"endment":9366,"osing":9367,"Ġpreceding":9368,"eworthy":9369,"Ġentered":9370,"Ġputs":9371,"ĠIslands":9372,"Ġcounty":9373,"Ġscreens":9374,"Ġconstruction":9375,"177":9376,"ĠOrgan":9377,"Ġcrow":9378,"Ġwatched":9379,"Ġclasses":9380,"ortunate":9381,"Ġscientist":9382,"ĠNeil":9383,"rapher":9384,"OPLE":9385,"Ġmotives":9386,"Ġcompetition":9387,"IVIL":9388,"Ġdecline":9389,"ĠVerifiability":9390,"Ġadvocate":9391,"Ġdangerous":9392,"ĠPersonally":9393,"ENSOR":9394,"Ġcooperation":9395,"Ġincredibly":9396,"Ġsuddenly":9397,"Ġsurrounding":9398,"Black":9399,"have":9400,"iations":9401,"mann":9402,"national":9403,"oi":9404,"ito":9405,"Ġblah":9406,"alo":9407,"Ġeh":9408,"ĠAge":9409,"ĠShan":9410,"amar":9411,"unciation":9412,"ĠCross":9413,"ĠCzech":9414,"olk":9415,"Ġdozens":9416,"Ġproxy":9417,"Ġunilater":9418,"Ġaltogether":9419,"ĠExt":9420,"udge":9421,"ables":9422,"ĠKenn":9423,"Ġacted":9424,"ĠAndy":9425,"ĠReferences":9426,"122":9427,"Ġdemocracy":9428,"254":9429,"ĠPhys":9430,"Ġmotherfuck":9431,"Ġsurprising":9432,"Ġradical":9433,"hetor":9434,"Ġunreason":9435,"ĠOffice":9436,"ĠCroatian":9437,"HEAD":9438,"ĠFacebook":9439,"500":9440,"Name":9441,"TT":9442,"Very":9443,"vy":9444,"will":9445,"âĶ":9446,"resh":9447,"Ġfals":9448,"aron":9449,"ĠAW":9450,"Ġhabit":9451,"ads":9452,"ĠCreat":9453,"ĠBlo":9454,"ĠPa":9455,"ĠMOS":9456,"etc":9457,"emp":9458,"ĠLady":9459,"umer":9460,"Ġcomply":9461,"ictions":9462,"Ġserver":9463,"Review":9464,"ĠSecret":9465,"Ġinvolves":9466,"133":9467,"Ġmerger":9468,"Ġdoub":9469,"Ġpatent":9470,"Islam":9471,"Ġspeaker":9472,"ĠReport":9473,"Ġdeaths":9474,"Ġsubstance":9475,"Ġincorrectly":9476,"sky":9477,"Ġconsistently":9478,"Ġanaly":9479,"Ġexpertise":9480,"Ġconducted":9481,"Ġvillages":9482,"ĠDaedalus":9483,"ĠPalestine":9484,"ĠEspecially":9485,"Ġmassacre":9486,"Agreed":9487,"?).":9488,"Nazi":9489,"VI":9490,"Wik":9491,"cour":9492,"craft":9493,"gers":9494,"las":9495,"vandal":9496,"Ġtough":9497,"Ġtips":9498,"inion":9499,"Ġital":9500,"Ġstore":9501,"Ġsect":9502,"rier":9503,"ĠNice":9504,"Ġheat":9505,"Ġindex":9506,"rator":9507,"ĠAsh":9508,"Ġpersonality":9509,"Ġwarming":9510,"Ġworldwide":9511,"Ġawesome":9512,"Ġrespective":9513,"Ġdepends":9514,"Ġfalsely":9515,"Ġlacks":9516,"topic":9517,"Ġamongst":9518,"Ġfootnotes":9519,"Ġproposing":9520,"Ġoperating":9521,"Ġcorrupt":9522,"Ġdickhead":9523,"umni":9524,"ĠClearly":9525,"ĠABOUT":9526,"Ġbuddy":9527,"Ġuntrue":9528,"HA":9529,"uj":9530,"Ġboo":9531,"leph":9532,"ĠWall":9533,"ĠSBS":9534,"unting":9535,"ĠCNN":9536,"Ġorient":9537,"eman":9538,"ryan":9539,"Ġagg":9540,"ographer":9541,"Ġprime":9542,"Ġsynt":9543,"Ġavoided":9544,"Ġcommunities":9545,"Ġhandled":9546,"ĠSpace":9547,"Ġabsence":9548,"Ġpromotes":9549,"warrior":9550,"Ġalternatives":9551,"gener":9552,"Ġsuspected":9553,"ĠHELL":9554,"ĠCroatia":9555,"Ġsweet":9556,"ĠEducation":9557,")âĢİ":9558,"ME":9559,"eb":9560,"gate":9561,"ners":9562,"size":9563,"uct":9564,"Ġhiding":9565,"Ġnoun":9566,"asant":9567,"stone":9568,"ifle":9569,"Ġsets":9570,"ĠBuild":9571,"ĠMIN":9572,"estival":9573,"ĠFour":9574,"bles":9575,"ĠNever":9576,"ĠGay":9577,"ĠLine":9578,"ĠThink":9579,"ĠKat":9580,"peror":9581,"Ġpertain":9582,"icking":9583,"ĠChild":9584,"Ġfucker":9585,"anny":9586,"Ġexposed":9587,"ertainly":9588,"Ġmonit":9589,"Ġharder":9590,"Ġreplacing":9591,"ependent":9592,"Ġcensored":9593,"Ġflags":9594,"Ġcellspacing":9595,"ipping":9596,"Ġbriefly":9597,"interpret":9598,"Ġunreferenced":9599,"Ġmotivated":9600,"Ġillustrate":9601,"ĠDarwin":9602,"ĠProfessor":9603,"Ġdeemed":9604,"alendar":9605,"!@":9606,"CON":9607,"Like":9608,"fair":9609,"uf":9610,"Ġwave":9611,"Ġborrow":9612,"esc":9613,"Ġdrawn":9614,"ĠIl":9615,"ĠWild":9616,"ĠSS":9617,"amin":9618,"Ġdeg":9619,"ĠBab":9620,"ndrome":9621,"Ġdisambig":9622,"umin":9623,"Ġattached":9624,"Ġguarant":9625,"Ġfactors":9626,"ĠStand":9627,"Ġassass":9628,"Ġsuppl":9629,"oston":9630,"licensed":9631,"Ġinfin":9632,"Ġinfringe":9633,"223":9634,"ĠRegardless":9635,"Ġnationalism":9636,"aiwan":9637,"Ġreplying":9638,"Once":9639,":#;":9640,"Ġparticipated":9641,"Ġerase":9642,"Ġcourtesy":9643,"Ġcommunicate":9644,"Ġchemical":9645,"Anti":9646,"ĠCOMPUT":9647,"Ġauthentic":9648,"cohol":9649,"Ġintimid":9650,"!?":9651,"Fan":9652,"PT":9653,"Roman":9654,"citation":9655,"gian":9656,"power":9657,"vard":9658,"||":9659,"Ġsarc":9660,"Ġble":9661,"Ġbatt":9662,"ĠIQ":9663,"ĠFBI":9664,"Ġunif":9665,"Ġrich":9666,"Ġquiet":9667,"cuss":9668,"ensively":9669,"Ġwritings":9670,"127":9671,"OOD":9672,"Ġdetect":9673,"226":9674,"Ġquotations":9675,"ophile":9676,"Ġsolved":9677,"Ġremained":9678,"United":9679,"Ġcomputers":9680,"Ġconfirmation":9681,"consensus":9682,"penis":9683,"Ġsynthesis":9684,"Ġroute":9685,"!).":9686,"OZ":9687,"Old":9688,"aces":9689,"rot":9690,"sen":9691,"Ġsitting":9692,"edge":9693,"Ġincon":9694,"asm":9695,"ĠTop":9696,"Ġgent":9697,"ĠSW":9698,"ifest":9699,"Ġstone":9700,"ĠCreation":9701,"Ġdevice":9702,"ĠPub":9703,"eltic":9704,"ĠFootball":9705,"ĠNic":9706,"ĠRom":9707,"Ġgrateful":9708,"Ġcopying":9709,"wealth":9710,"aware":9711,"204":9712,"ĠAdam":9713,"Ġauthoritative":9714,"174":9715,"inners":9716,"ĠSpam":9717,"Ġrevolution":9718,"Ġunfortunate":9719,":#\"\"":9720,"Ġparticipating":9721,"Ġportal":9722,"ĠDiscussion":9723,"Ġeducational":9724,"Ġimmediate":9725,"Special":9726,"Ġpleasure":9727,"Ġcitizen":9728,"ĠReliable":9729,"faith":9730,"Ġsummer":9731,"Ġexclusively":9732,"ĠWindows":9733,"ĠAzerbai":9734,"ephen":9735,"ĠPEOPLE":9736,"212":9737,"Hope":9738,"NU":9739,"USS":9740,"car":9741,"cut":9742,"human":9743,"mal":9744,"pur":9745,"era":9746,"atical":9747,"Ġbodies":9748,"Ġeats":9749,"Ġnoteworthy":9750,"ĠAk":9751,"imum":9752,"amous":9753,"ĠCENSOR":9754,"ĠPD":9755,"ĠMorm":9756,"ille":9757,"ilver":9758,"term":9759,"ĠLake":9760,"indu":9761,"Ġcreates":9762,"118":9763,"Ġteen":9764,"Ġempty":9765,"Ġlegally":9766,"149":9767,"Ġcris":9768,"deletion":9769,"Ġqualifies":9770,"Ġpractical":9771,"ĠWilliams":9772,"ĠHAAHH":9773,"Ġtemporary":9774,"Ġobserved":9775,"Ġdivision":9776,"Ġlabeled":9777,"Ġrapid":9778,"++++":9779,"Ġconsequences":9780,"Ġenemy":9781,"ĠValley":9782,"Infobox":9783,"Ġhazel":9784,"Ġadvantage":9785,"FIRE":9786,"HP":9787,"nitch":9788,"Ġaka":9789,"inet":9790,"Ġfits":9791,"otion":9792,"Ġreverse":9793,"Ġarts":9794,"ĠSand":9795,"Ġstations":9796,"open":9797,"ĠBooks":9798,"ĠYAAAA":9799,"Ġactively":9800,"acies":9801,"110":9802,"tenance":9803,"ropical":9804,"Ġgeneric":9805,"ropriately":9806,"Ġuserspace":9807,"105":9808,"107":9809,"162":9810,"ĠZeal":9811,"Ġhistorically":9812,"ĠSerbs":9813,"Ġapproval":9814,"Ġturning":9815,"ĠPrime":9816,"Ġexpanding":9817,"Ġalternate":9818,"ĠCarol":9819,"ĠSupreme":9820,"Ġgrav":9821,"ĠBiographies":9822,"ĠPolicies":9823,"Ġrevealed":9824,"WWWWWWWWWWWWWWWWWWWWWWWWWWWWWWWWWWWWWWWWWWWWWWWWWWWWWWWWWWWWWWWW":9825,"Ġlinguistic":9826,"Ġweapon":9827,"Ġadvertisement":9828,"October":9829,"Er":9830,"HO":9831,"bell":9832,"erg":9833,"Ġfuel":9834,"ĠTown":9835,"cha":9836,"Ġsteal":9837,"ĠCC":9838,"Ġsea":9839,"ĠMuch":9840,"!!:":9841,"Ġunion":9842,"ĠYAAA":9843,"ĠRod":9844,"ĠGlobal":9845,"arden":9846,"ĠYouTube":9847,"Ġens":9848,"phy":9849,"112":9850,"ressive":9851,"ĠTHERE":9852,"Ġconfront":9853,"ĠShall":9854,"Ġiron":9855,"ĠCommission":9856,"Ġbanner":9857,"ĠClinton":9858,"ĠGener":9859,"Ġreplaceable":9860,"Ġcaste":9861,"Ġachieved":9862,"PRICK":9863,"Ġbizarre":9864,"January":9865,"ĠVERY":9866,"!@!!!!!!":9867,"ĠHAAHHAHAHAH":9868,",âĢĿ":9869,"cs":9870,"dro":9871,"athan":9872,"Ġpics":9873,"Ġharsh":9874,"Ġrename":9875,"Ġreconsider":9876,"ĠTra":9877,"imm":9878,"unity":9879,"Ġsty":9880,"Ġselling":9881,"Ġdece":9882,"ĠMod":9883,"ĠHel":9884,"Ġneut":9885,"ĠRos":9886,"ntario":9887,"Ġ->":9888,"ogen":9889,"Ġmang":9890,"Ġsaf":9891,"Ġsuppress":9892,"Ġsincerely":9893,"Ġscandal":9894,"Ġstudied":9895,"ĠProf":9896,"Ġpatient":9897,"Ġ1997":9898,"ĠTruth":9899,"Ġpersistent":9900,"Ġmotion":9901,"disambiguation":9902,"Ġsurprise":9903,"Ġteaching":9904,"Ġincreased":9905,"Ġnarrative":9906,"Ġkingdom":9907,"Ġincompet":9908,"Ġbillion":9909,"Ġhairy":9910,"Ġbiznitch":9911,"1111111111111111111111111111111111111111111111111111111111111111":9912,"Two":9913,"ĠCOMPUTER":9914,"][":9915,"case":9916,"lol":9917,"mond":9918,"tarian":9919,"Ġ^":9920,"ĸº":9921,"Ġtort":9922,"inct":9923,"rex":9924,"Ġbud":9925,"Ġmiles":9926,"\"\":":9927,"ĠAcc":9928,"outing":9929,"istered":9930,"ĠPur":9931,"Ġrhetor":9932,"pelled":9933,"alls":9934,"Ġmode":9935,"pert":9936,"Ġsubsection":9937,"Ġrepost":9938,"Ġpark":9939,"Ġplanned":9940,"Ġdefines":9941,"ĠHey":9942,"ugust":9943,"121":9944,"ĠSeason":9945,"103":9946,"104":9947,"185":9948,"ĠLeave":9949,"Ġclassical":9950,"speaking":9951,"ĠEditors":9952,"***":9953,"Ġcouncil":9954,"Ġcombined":9955,"Ġaudience":9956,"ĠMagazine":9957,"Ġaffected":9958,"Ġenforcement":9959,"ĠSignpost":9960,"ĠcheeseI":9961,"ĠProtest":9962,"216":9963,"NP":9964,"bes":9965,"yo":9966,"Ġtid":9967,"Ġwider":9968,"othe":9969,"ĠTW":9970,"ĠAP":9971,"ĠWT":9972,"amn":9973,"ĠCamb":9974,"ista":9975,"ĠMO":9976,"ĠMake":9977,"ĠMos":9978,"irmed":9979,"ĠFYI":9980,"Ġcanv":9981,"ĠRh":9982,"ĠGreg":9983,"ups":9984,"ĠLi":9985,"ĠLo":9986,"ĠLand":9987,"ĠLink":9988,"elled":9989,"ucky":9990,"itty":9991,"Ġrecre":9992,"ibet":9993,"annica":9994,"Ġappearing":9995,"120":9996,"Ġnorthern":9997,"232":9998,"aiting":9999,"ĠSometimes":10000,"Ġannounce":10001,"Ġinsulted":10002,"Ġdestruction":10003,"ĠEdward":10004,"Ġhostile":10005,"Ġallegation":10006,"Ġforgotten":10007,"Ġreplies":10008,"ĠSingh":10009,"Ġviewpoints":10010,"Neutral":10011,"Reply":10012,"create":10013,"involved":10014,"Ġlyrics":10015,"?.":10016,"Aust":10017,"Liz":10018,"Us":10019,"hard":10020,"sorry":10021,"wer":10022,"ĠÏ":10023,"inians":10024,"Ġbird":10025,"Ġfrench":10026,"Ġanime":10027,"Ġisol":10028,"ĠTA":10029,"rozen":10030,"ĠSouthern":10031,"ĠPacific":10032,"ĠMP":10033,"etheless":10034,"ĠDi":10035,"ĠRoll":10036,"ĠLab":10037,"ĠLead":10038,"ĠKn":10039,"ĠStan":10040,"Ġ1960":10041,"Ġregime":10042,"ollowing":10043,"mmmm":10044,"Ġthrowing":10045,"Ġ45":10046,"ockey":10047,"Ġtransport":10048,"Ġsituations":10049,"cientific":10050,"Ġretard":10051,"Ġresulted":10052,"Ġinterpreted":10053,"ĠIntellig":10054,"ĠRecognise":10055,"Ġriver":10056,"break":10057,"info":10058,"hello":10059,"ĠMicrosoft":10060,"Jim":10061,"La":10062,"MT":10063,"pers":10064,"product":10065,"ules":10066,"|}":10067,"âĪ":10068,"Ġ_":10069,"Ġtaste":10070,"isations":10071,"lee":10072,"Ġlately":10073,"Ġgallery":10074,"ĠAst":10075,"Ġ(+":10076,"ulating":10077,"Ġunver":10078,"emi":10079,"Ġsoap":10080,"Ġanyways":10081,"orting":10082,"ĠLinks":10083,"Ġactors":10084,"Ġspending":10085,"Ġassign":10086,"tension":10087,"193":10088,"ajaj":10089,"angers":10090,"108":10091,"ICE":10092,"Ġretired":10093,"166":10094,"istical":10095,"Ġstays":10096,"Ġcompliance":10097,"ĠConserv":10098,"ruptive":10099,"Ġ1993":10100,"Ġvisited":10101,"ealous":10102,"Ġconvicted":10103,"Ġdocumentary":10104,"Unfortunately":10105,"Ġelected":10106,"Ġdevoted":10107,"Ġpronounced":10108,"Ġsanctions":10109,"Feb":10110,"ĠSuPeRTR":10111,"Ġmarketing":10112,"Resp":10113,"Ġexercise":10114,"ĠBeatles":10115,"Ġunusual":10116,"Ġhominem":10117,"April":10118,"XX":10119,"ea":10120,"grey":10121,"jack":10122,"Ġsouthern":10123,"Ġbow":10124,"Ġbab":10125,"Ġbought":10126,"Ġcodes":10127,"Ġfif":10128,"Ġhole":10129,"ental":10130,"ĠACC":10131,"uled":10132,"Ġconsent":10133,"ĠWhatever":10134,"Ġimplying":10135,"Ġguest":10136,"REST":10137,"ocation":10138,"Ġcoast":10139,"Ġproving":10140,"Ġconfuse":10141,"web":10142,"Ġmisinformation":10143,"ĠEngine":10144,"ĠIndeed":10145,"olen":10146,"Ġdiscip":10147,"176":10148,"Ġpurch":10149,"ĠJohnson":10150,"ĠAdmins":10151,"Ġsensible":10152,"Ġfolk":10153,"ĠRecords":10154,"rieved":10155,"Ġpseudo":10156,"Ġpresumably":10157,"ĠDivision":10158,"ĠAcademy":10159,"Ġpertinent":10160,"ĠZealand":10161,"NO":10162,"Pol":10163,"TALK":10164,"World":10165,"nb":10166,"sv":10167,"sight":10168,"took":10169,"text":10170,"yers":10171,"ĠÄ":10172,"Ġpal":10173,"Ġanger":10174,"ĠCO":10175,"olas":10176,"ĠPope":10177,"Ġvow":10178,"Ġcancer":10179,"ĠRy":10180,"ĠGive":10181,"ĠLim":10182,"ĠOS":10183,"udi":10184,"ĠYoung":10185,"111":10186,"ĠInformation":10187,"Ġvandalised":10188,"everal":10189,"ĠIsn":10190,"Ġscore":10191,"Ġroot":10192,"Ġinsight":10193,"Ġdefining":10194,"Ġ74":10195,"rete":10196,"Ġsingles":10197,"161":10198,"Ġopenly":10199,"235":10200,"242":10201,"Ġfailing":10202,"Ġ1995":10203,"Ġmulti":10204,"Ġclarified":10205,"olicy":10206,"ĠAssy":10207,"Ġincomplete":10208,"Ġobservation":10209,"Ġambiguous":10210,"Ġtroops":10211,"Ġscrut":10212,"ĠFlorida":10213,"Ġunreasonable":10214,"Ac":10215,"Su":10216,"bro":10217,"dy":10218,"elect":10219,"lers":10220,"overy":10221,"pread":10222,"pool":10223,"track":10224,"Ð»":10225,"Ġnipple":10226,"Ġinqu":10227,"Ġconce":10228,"Ġconference":10229,"chi":10230,"Ġstretch":10231,"ĠCriticism":10232,"ĠPOL":10233,"ĠMic":10234,"ĠMAN":10235,"ĠMORE":10236,"ĠFC":10237,"ĠRus":10238,"Ġpoly":10239,"cession":10240,"ĠLive":10241,"Ġtrim":10242,"asses":10243,"Ġpersec":10244,"ificant":10245,"Ġgenres":10246,"Ġinfl":10247,"azines":10248,"Ġcheckuser":10249,"ĠShah":10250,"ĠWikiLove":10251,"idespread":10252,"Ġnicely":10253,"Ġexperiences":10254,"regon":10255,"000000":10256,"Ġboxes":10257,"ĠAmazon":10258,"Ġcontaining":10259,"Ġinvestigations":10260,"Ġintentionally":10261,"Ġbloody":10262,"ĠCorps":10263,"ĠDesk":10264,"ĠDaily":10265,"Ġordered":10266,"Ġcharts":10267,"Ġcosts":10268,"Ġfascist":10269,"Ġcitizenship":10270,"ĠQuestion":10271,"ĠQuestions":10272,"importance":10273,"ĠBosnia":10274,"Ġdegrees":10275,"AV":10276,"Bob":10277,"NPA":10278,"Source":10279,"Take":10280,"VV":10281,"cop":10282,"city":10283,"Ġ''":10284,"oro":10285,"Ġpp":10286,"Ġdim":10287,"icense":10288,"Ġyouth":10289,"ĠToo":10290,"rolog":10291,"ĠBANN":10292,"ĠBusiness":10293,"illion":10294,"ĠHOW":10295,"rians":10296,"ĠDet":10297,"mention":10298,"Ġvir":10299,"ĠRog":10300,"lose":10301,"uper":10302,"ĠLind":10303,"ĠLos":10304,"ĠOntario":10305,"arek":10306,"Ġchief":10307,"ailed":10308,"Ġparalle":10309,"Ġconfident":10310,"ITY":10311,"Ġblow":10312,"spot":10313,"Ġmonitor":10314,"109":10315,"Ġflat":10316,"ounter":10317,"Ġauto":10318,"244":10319,"ĠNeither":10320,"feld":10321,"Ġnaturally":10322,"protection":10323,"ĠPortuguese":10324,"Ġcollaboration":10325,"Ġranking":10326,"Ġantis":10327,"ĠJersey":10328,"Ġduplicate":10329,"Ġtemporarily":10330,"Big":10331,"Mo":10332,"Try":10333,"bad":10334,"did":10335,"dep":10336,"lad":10337,"var":10338,"ype":10339,"oured":10340,"Ġcod":10341,"anc":10342,"Ġanarch":10343,"ĠImp":10344,"ĠBow":10345,"ĠBUSH":10346,"Ġorg":10347,"ĠPicture":10348,"urious":10349,"ĠDavis":10350,"email":10351,"ĠRac":10352,"ĠEconom":10353,"Ġles":10354,"allow":10355,"oscience":10356,"elling":10357,"Ġcompat":10358,"acter":10359,"Ġoverly":10360,"Ġgrant":10361,"Ġconcise":10362,"Ġinspired":10363,"Ġsetting":10364,"237":10365,"Char":10366,"Ġ1991":10367,"Ġbegins":10368,"Ġdifficulty":10369,"Ġinterpretations":10370,"Ġarbitrary":10371,"ĠJimmy":10372,"ĠNewsletter":10373,"ĠEverything":10374,"Ġdigital":10375,"Ġmotivation":10376,"wikimedia":10377,"minded":10378,"Ġnickname":10379,"Ġprivileges":10380,"BR":10381,"Har":10382,"Personal":10383,"SAN":10384,"``":10385,"gal":10386,"hart":10387,"prop":10388,"Ġice":10389,"inity":10390,"Ġsin":10391,"Ġwond":10392,"oration":10393,"Ġdance":10394,"Ġyout":10395,"utter":10396,"Ġnoting":10397,"Ġarrange":10398,"ĠSong":10399,"ĠSex":10400,"ĠCAL":10401,"ateur":10402,"ĠGil":10403,"ĠGwen":10404,"ĠEinstein":10405,"ĠJF":10406,"Ġchoo":10407,"Ġparl":10408,"Ġmeanings":10409,"102":10410,"rican":10411,"Ġpresents":10412,"ICS":10413,"ICAN":10414,"173":10415,"Ġesp":10416,"Ġassumptions":10417,"omatic":10418,"Ġlaid":10419,"Ġtranslations":10420,"Ġpresume":10421,"Ġencount":10422,"ĠPlan":10423,"Ġoperations":10424,"Ġcensoring":10425,"upported":10426,"Ġscholarship":10427,"Feel":10428,"Ġvolunteer":10429,"Ġoccasionally":10430,"ĠCOMMUN":10431,"Ġkidding":10432,"DER":10433,"een":10434,"gi":10435,"low":10436,"mes":10437,"Ġmig":10438,"ĠWomen":10439,"Ġconclude":10440,"ĠCath":10441,"ĠCiting":10442,"olis":10443,"atell":10444,"ĠBB":10445,"ĠBI":10446,"ĠBern":10447,"ĠPA":10448,"ĠMis":10449,"ersion":10450,"Ġrush":10451,"rait":10452,"ĠLad":10453,"ĠEnt":10454,"lap":10455,"ardo":10456,"Ġmole":10457,"ĠKong":10458,"ansas":10459,"Ġlistening":10460,"ĠArchive":10461,"Ġfollowers":10462,"teen":10463,"Ġcovering":10464,"Ġsooner":10465,"Ġupdates":10466,"AMN":10467,"iterate":10468,"ĠContribut":10469,"Ġclarity":10470,"Ġmagn":10471,"ĠCountry":10472,"Ġsensitive":10473,"Ġorders":10474,"Ġgained":10475,"Ġlosing":10476,"onestly":10477,"Ġforgive":10478,"ĠHawai":10479,"Ġembarrass":10480,"ĠMovement":10481,"gorith":10482,"Ġsyntax":10483,".),":10484,"211":10485,"Ben":10486,"CIVIL":10487,"James":10488,"Nor":10489,"PL":10490,"Po":10491,"black":10492,"dem":10493,"nat":10494,"Ġie":10495,"Ġturk":10496,"Ġthin":10497,"inations":10498,"incess":10499,"onen":10500,"Ġyellow":10501,"\"\"\"\"":10502,"Ġnotified":10503,"ĠWM":10504,"ĠWater":10505,"stal":10506,"ĠBS":10507,"ĠBox":10508,"ĠMoh":10509,"irk":10510,"aine":10511,"qual":10512,"ĠDictionary":10513,"Ġring":10514,"Ġdisrespect":10515,"Ġwhats":10516,"Ġoutline":10517,"Ġimpressed":10518,"Ġrelate":10519,"ĠInv":10520,"ĠStalin":10521,"ĠChief":10522,"Ġowns":10523,"ibli":10524,"Ġserving":10525,"ixed":10526,"Ġ64":10527,"147":10528,"186":10529,"178":10530,"ARY":10531,"blocked":10532,"Ġindicating":10533,"Ġgovernments":10534,"Ġdepending":10535,"ĠSomething":10536,"AYS":10537,"Ġmodels":10538,"Ġjobs":10539,"puter":10540,"ĠContributions":10541,"December":10542,"Ġsatisfied":10543,"Ġidiotic":10544,"Ġslap":10545,"Ġcondem":10546,"Ġordinary":10547,"Ġterritories":10548,"panic":10549,"Ġsummarize":10550,"ĠFrancisco":10551,"Ġashamed":10552,"Ġclause":10553,"Ġelaborate":10554,"DR":10555,"European":10556,"Link":10557,"URE":10558,"eat":10559,"write":10560,"Ġwidespread":10561,"Ġmicro":10562,"Ġdress":10563,"\"\"-":10564,"Ġlands":10565,"ags":10566,"ĠWikiproject":10567,"isting":10568,"Ġdoctr":10569,"ĠPenn":10570,"ira":10571,"ĠHAS":10572,"Ġadhere":10573,"Ġexcus":10574,"ĠEric":10575,"Ġchain":10576,"verted":10577,"except":10578,"ĠVe":10579,"ĠVillage":10580,"INE":10581,"ĠAltern":10582,"ropract":10583,"Ġsigning":10584,"Ġconsiderable":10585,"Ġprobability":10586,"ĠComments":10587,"Ġ66":10588,"span":10589,"Ġuntagged":10590,"AGF":10591,"145":10592,"182":10593,"Ġopponents":10594,"Ġfalla":10595,"current":10596,"Ġdeveloping":10597,"Ġknowledgeable":10598,"Ġcredited":10599,"September":10600,"Ġproposals":10601,"Ġportions":10602,"Ġterrorists":10603,"Ġbreaks":10604,"DYK":10605,"Ġlengthy":10606,"ĠEveryone":10607,"Indeed":10608,"Ġfundamentally":10609,"Ġmechanism":10610,"ĠSweden":10611,"________________________________":10612,"Ġpursue":10613,"Ġarrived":10614,"Ġprejudice":10615,"Ġcrisis":10616,"Ev":10617,"June":10618,"Last":10619,"bed":10620,"je":10621,"mat":10622,"sn":10623,"Ġ]":10624,"Ġtanks":10625,"inating":10626,"level":10627,"Ġfruit":10628,"aling":10629,"ĠIron":10630,"Ġreception":10631,"agle":10632,"ctors":10633,"ĠAF":10634,"heet":10635,"istani":10636,"ĠPir":10637,"etball":10638,"ĠHard":10639,"ĠFight":10640,"Ġweasel":10641,"ivered":10642,"ĠLear":10643,"ĠLanguage":10644,"ĠKim":10645,"Ġneeding":10646,"acon":10647,"Ġrepet":10648,"ĠChampionship":10649,"Ġdecade":10650,"thew":10651,"Ġcountless":10652,"Ġsym":10653,"ĠSea":10654,"OOK":10655,"Ġadvanced":10656,"207":10657,"187":10658,"Ġsurname":10659,"Ġsloppy":10660,"Ġdisagreements":10661,"chez":10662,"ĠService":10663,"Only":10664,"Ġrecognised":10665,"Ġ1986":10666,"Ġpaint":10667,"Ġbothering":10668,"ĠMonten":10669,"Featured":10670,"Ġdeclare":10671,"Ġtolerated":10672,"reviewed":10673,"Ġtemperature":10674,"Ġpunishment":10675,"Incidents":10676,"Jack":10677,"Sub":10678,"ULA":10679,"bered":10680,"Ġsought":10681,"encyclopedic":10682,"Ġdipl":10683,"story":10684,"ĠSandbox":10685,"oute":10686,"ĠPy":10687,"ĠMind":10688,"ĠMILLION":10689,"urance":10690,"ĠHad":10691,"Ġpros":10692,"Ġunint":10693,"Ġmyst":10694,"Ġweigh":10695,"Ġwearing":10696,"ieval":10697,"Ġdeletes":10698,"Ġnose":10699,"care":10700,"plan":10701,"aret":10702,"Ġreprodu":10703,"IND":10704,"Ġindef":10705,"Ġpray":10706,"Ġspite":10707,"Ġassault":10708,"gging":10709,"Ġconsiders":10710,"Ġthrown":10711,"Ġcounted":10712,"Ġmaintenance":10713,"Ġinsane":10714,"mega":10715,"Ġfilter":10716,"138":10717,"ĠOnline":10718,"Ġanswering":10719,"rolling":10720,"curry":10721,"Ġ1996":10722,"Ġskep":10723,"Ġexceptions":10724,"ISTA":10725,"Ġcontested":10726,"ĠTeam":10727,"Ġaccessible":10728,"Ġdriving":10729,"................":10730,"Ġaccidentally":10731,"Ġpissed":10732,"Ġenemies":10733,"ophobia":10734,"sembly":10735,"Ġfrustrated":10736,"Ġdatabase":10737,"ĠNetwork":10738,"ĠFinding":10739,"ĠVirginia":10740,"rexcurry":10741,")(":10742,"Greetings":10743,"Log":10744,"Over":10745,"Post":10746,"author":10747,"hr":10748,"say":10749,"vision":10750,"Å¡":10751,"Ġ}}":10752,"Ġtang":10753,"Ġaid":10754,"atar":10755,"itush":10756,"edly":10757,"orious":10758,"orney":10759,"Ġcars":10760,"Ġhel":10761,"Ġanthrop":10762,"Ġnigger":10763,"thes":10764,"ĠSame":10765,"sell":10766,"Ġstock":10767,"ĠCA":10768,"Ġselection":10769,"Ġsuf":10770,"ĠMuseum":10771,"Ġabandon":10772,"ĠHom":10773,"Ġexagger":10774,"Ġwealth":10775,"Ġalright":10776,"Ġoffers":10777,"Ġoffend":10778,"Ġoffence":10779,"ĠStone":10780,"Ġfindings":10781,"Ġfoundation":10782,"orget":10783,"Ġbrothers":10784,"ĠComment":10785,"Ġ67":10786,"Ġsinger":10787,"240":10788,"Ġclassification":10789,"Ġmedi":10790,"ĠDOES":10791,"Ġrevised":10792,"ĠMean":10793,"ĠcuntLiz":10794,"Ġpicking":10795,"Ġvictory":10796,"Ġemployed":10797,"Ġsymbols":10798,"Ġexclusive":10799,"Ġflawed":10800,"Ġplagiarism":10801,"Ġsenior":10802,"idelines":10803,"ĠBANNED":10804,"Car":10805,"EC":10806,"Em":10807,"Guy":10808,"ILE":10809,"Mark":10810,"doc":10811,"kind":10812,"nels":10813,"inate":10814,"Ġcous":10815,"Ġfired":10816,"Ġincome":10817,"ĠTest":10818,"Ġgir":10819,"utt":10820,"thank":10821,"ĠSav":10822,"Ġabused":10823,"ĠHur":10824,"riel":10825,"ĠDoug":10826,"Ġrig":10827,"Ġvary":10828,"ĠRoss":10829,"rave":10830,"laced":10831,"ĠJr":10832,"Ġoutdated":10833,"ĠKy":10834,"ĠKevin":10835,"Ġtwe":10836,"Ġprovince":10837,"Ġdiscusses":10838,"ORD":10839,"Ġinteraction":10840,"180":10841,"Ġlesson":10842,"Ġpolitician":10843,"169":10844,"inson":10845,"Ġprocesses":10846,"âĢĿ,":10847,"ĠBritannica":10848,"ĠMario":10849,"Ġ1998":10850,"Ġconfirms":10851,"Ġunfounded":10852,"Ġintroducing":10853,"Ġpersu":10854,"helpful":10855,"Ġpunished":10856,"ĠARREST":10857,"Ġpsychology":10858,"ĠSunday":10859,"ĠArmenians":10860,"Ġpronunciation":10861,"uuuu":10862,"ĠSaturday":10863,"ĠRadio":10864,"Ġcorner":10865,"Ġerroneous":10866,"Finally":10867,"film":10868,"hu":10869,"histor":10870,"iropract":10871,"mad":10872,"py":10873,"Ġwrestling":10874,"ori":10875,"Ġfulf":10876,"Ġdab":10877,"Ġinhab":10878,"agues":10879,"rove":10880,"aylor":10881,"ĠCulture":10882,"isters":10883,"ĠBoston":10884,"ĠMajor":10885,"ĠHIS":10886,"ĠNC":10887,"ĠGames":10888,"geles":10889,"Ġ1950":10890,"aching":10891,"Ġpartial":10892,"ugal":10893,"Ġquestioning":10894,"ĠIsles":10895,"ools":10896,"ructure":10897,"Ġmovements":10898,"ricane":10899,"150":10900,"159":10901,"ĠDIEGO":10902,"ĠFAQ":10903,"ĠFAIL":10904,"Ġemails":10905,"Ġtechniques":10906,"Ġcredits":10907,"Ġmagazines":10908,"Regards":10909,"News":10910,"Ġdivided":10911,"Ġslavery":10912,"Ġfoolish":10913,"osphere":10914,"Ġlayout":10915,"Ġhomosexuality":10916,"Ġpulled":10917,"emitism":10918,"Ġweapons":10919,"MMMMMMMM":10920,"Ġcrowd":10921,"Ġyoutube":10922,"many":10923,"oa":10924,"pat":10925,"site":10926,"Ñĥ":10927,"ï¼":10928,"Ġwat":10929,"itzer":10930,"Ġbat":10931,"Ġflying":10932,"Ġhip":10933,"Ġdil":10934,"Ġinev":10935,"asia":10936,"Ġreck":10937,"ĠTen":10938,"iac":10939,"unct":10940,"ĠBbb":10941,"usted":10942,"ĠLight":10943,"Ġworries":10944,"ichael":10945,"Ġmock":10946,"Ġcompos":10947,"ĠVISTA":10948,"==\"":10949,"Ġquestioned":10950,"Ġawarded":10951,"rupting":10952,"Ġlocations":10953,"velopment":10954,"Ġ1994":10955,"controversial":10956,"prove":10957,"Before":10958,"ĠHarvard":10959,"ĠCHULA":10960,"Ġerased":10961,"III":10962,"ranted":10963,"ĠRomania":10964,"Ġtrend":10965,"ĠSHITHEAD":10966,"Ġversus":10967,"Ġincidents":10968,"Ġmaintained":10969,"Ġtrusted":10970,"Ġoccupied":10971,"Ġpushed":10972,"IFORN":10973,"Ġdeliberate":10974,"Ġultimately":10975,"Ġdiscouraged":10976,"Ġincorporated":10977,"Ġmathematical":10978,"Ġexcessive":10979,"ĠYugoslavia":10980,"ĠCALIFORN":10981,"ĠCALIFORNIA":10982,":)":10983,"FAG":10984,"HING":10985,"Looks":10986,"Use":10987,"aq":10988,"awn":10989,"fire":10990,"jab":10991,"educ":10992,"Ġcoup":10993,"Ġcalendar":10994,"Ġpassion":10995,"Ġhus":10996,"alam":10997,"Ġbell":10998,"entious":10999,"Ġeating":11000,"ĠWeek":11001,"ĠSlim":11002,"ĠSky":11003,"cho":11004,"Ġstars":11005,"ĠMond":11006,"Ġalumni":11007,"Ġalgorith":11008,"ĠRA":11009,"ĠRail":11010,"ĠOregon":11011,"abeth":11012,"Ġevid":11013,"Ġpreferences":11014,"essage":11015,"ribly":11016,"Ġtrash":11017,"Ġimpose":11018,"Ġoffering":11019,"ĠStr":11020,"Ġplural":11021,"Ġpride":11022,"Ġprick":11023,"ruce":11024,"Ġsigns":11025,"awa":11026,"Ġpromin":11027,"OOO":11028,"Ġfunctions":11029,"Ġdistribution":11030,"170":11031,"171":11032,"result":11033,"247":11034,"ĠPolice":11035,"Ġbegun":11036,"ĠExp":11037,"Ġethn":11038,"Ġcomplained":11039,"ports":11040,"FUCKING":11041,"without":11042,"ĠRomanian":11043,"ĠMacedonians":11044,"ĠHindi":11045,"ĠLooking":11046,"ĠPhilipp":11047,"Ġceleb":11048,"Ġsilence":11049,"Ġdialogue":11050,"ĠLebanon":11051,"Ġbrowser":11052,"Ġsafety":11053,"August":11054,"Bo":11055,"Come":11056,"Des":11057,"UC":11058,"cul":11059,"âľ":11060,"Ġtv":11061,"Ġtons":11062,"inos":11063,"Ġbright":11064,"Ġbug":11065,"Ġbored":11066,"Ġbrack":11067,"Ġfaster":11068,"Ġhuh":11069,"Ġrend":11070,"Ġloud":11071,"Ġego":11072,"ĠTem":11073,"ĠTaiwan":11074,"Ġnotify":11075,"ĠAwards":11076,"ticip":11077,"igen":11078,"ithuan":11079,"unter":11080,"etary":11081,"ĠĊĠĊ":11082,"ĠHor":11083,"ĠFo":11084,"ĠRoy":11085,"los":11086,"ĠEll":11087,"sock":11088,"ongwarrior":11089,"endo":11090,"ogg":11091,"Ġactress":11092,"actly":11093,"tymology":11094,"Ġinvasion":11095,"ĠHealth":11096,"190":11097,"Ġroots":11098,"angel":11099,"Ġbrill":11100,"Ġcaution":11101,"124":11102,"Ġawful":11103,"Ġflood":11104,"160":11105,"Ġunsub":11106,"Ġpasted":11107,"ABLE":11108,"atsheet":11109,"ĠÂ£":11110,"Ġeducated":11111,"Ġpopularity":11112,"ĠAdministrators":11113,"Ġcombat":11114,"ĠMoon":11115,"ĠArmenia":11116,"Ġprocedures":11117,"Ġrestricted":11118,"ĠKurds":11119,"Ġinconsistent":11120,"Ġarbcom":11121,"2000":11122,"Bi":11123,"German":11124,"IAL":11125,"Mis":11126,"MOS":11127,"Never":11128,"Ret":11129,"]\"\"":11130,"bas":11131,"fd":11132,"gets":11133,"iC":11134,"iro":11135,"kes":11136,"mag":11137,"Ġtur":11138,"Ġtourn":11139,"iner":11140,"anity":11141,"Ġmil":11142,"Ġdated":11143,"aga":11144,"ĠTIME":11145,"roat":11146,"Ġham":11147,"than":11148,"ĠSad":11149,"ĠSri":11150,"ĠSaf":11151,"ige":11152,"Ġconcluded":11153,"ĠCall":11154,"opedia":11155,"ĠBey":11156,"ĠMid":11157,"ĠMach":11158,"oore":11159,"ĠHot":11160,"ĠFinal":11161,"ĠDream":11162,"Ġvag":11163,"ishing":11164,"Ġamusing":11165,"apse":11166,"Ġchair":11167,"ansk":11168,"ĠStephen":11169,"ĠVandal":11170,"Ġgrade":11171,"Ġtwent":11172,"gger":11173,"othic":11174,"ratch":11175,"ĠFUCKIN":11176,"Ġrob":11177,"should":11178,"Ġinsign":11179,"Ġextensively":11180,"125":11181,"Ġ94":11182,"Ġleadership":11183,"224":11184,"Ġpoliticians":11185,"135":11186,"153":11187,"Ġnominating":11188,"ĠConf":11189,"Isn":11190,"Ġclassified":11191,"Ġundid":11192,"Ġdrunk":11193,"Ġ1988":11194,"Ġ1989":11195,"entials":11196,"Ġacademics":11197,"ĠSpeedy":11198,"Ġpaying":11199,"ĠFriday":11200,"Ġeconomics":11201,"ĠModern":11202,"ĠAlbanians":11203,"Ġaimed":11204,"Ġwikipedian":11205,"Removed":11206,"Ġindefinite":11207,"ĠDONT":11208,"ĠScientology":11209,"Ġdefeat":11210,"maybe":11211,"ĠWilson":11212,"Ġcorporate":11213,"Ġuserboxes":11214,"Ġarchitecture":11215,"Ġautomated":11216,">>":11217,"Her":11218,"November":11219,"PU":11220,"Sy":11221,"VENT":11222,"hol":11223,"nor":11224,"uv":11225,"uating":11226,"yas":11227,"eded":11228,"ĠIce":11229,"ici":11230,"agers":11231,"think":11232,"ĠSaint":11233,"ĠSOUR":11234,"ereot":11235,"ĠCivility":11236,"ĠBall":11237,"ĠHD":11238,"Ġvend":11239,"ĠNAS":11240,"ĠRaul":11241,"ĠGot":11242,"ĠOT":11243,"ĠThought":11244,"cale":11245,"Ġoutrage":11246,"Ġapplying":11247,"jective":11248,"Ġattended":11249,"Ġevening":11250,"Ġseemingly":11251,"Ġ1930":11252,"Ġrecording":11253,"Ġgrasp":11254,"Ġsimilarly":11255,"identally":11256,"STOP":11257,"Ġwrongly":11258,"Ġexperiments":11259,"Ġ65":11260,"Ġresearched":11261,"Ġresearchers":11262,"issue":11263,"Ġdiscret":11264,"132":11265,"Ġpretending":11266,"Ġdisagreed":11267,"Ġraising":11268,"Ġemailed":11269,"scribe":11270,"ĠPeace":11271,"Ġconnections":11272,"Ġanalogy":11273,"Ġprivacy":11274,"does":11275,"Ġvolume":11276,"Ġimplied":11277,"Ġoccurs":11278,"Ġprotocol":11279,"?!?!":11280,"Editing":11281,"Discussion":11282,"Ġrankings":11283,"Ġmisunderstood":11284,"Ġsuffer":11285,"Ġgrowth":11286,"ĠUsers":11287,"ĠDocument":11288,"ummary":11289,"ĠSurely":11290,"Apparently":11291,"ĠToronto":11292,"cription":11293,"Ġoccasions":11294,"Ġbogus":11295,"mentioned":11296,"ĠCOMMUNISM":11297,"Back":11298,"Picture":11299,"Palest":11300,"hav":11301,"high":11302,"iop":11303,"words":11304,"Ġborders":11305,"left":11306,"ington":11307,"iche":11308,"usal":11309,"ĠTrip":11310,"ĠTitle":11311,"ĠSom":11312,"sets":11313,"unts":11314,"Ġdeals":11315,"ĠPersonal":11316,"ĠMongol":11317,"etry":11318,"Ġatm":11319,"Ġabide":11320,"Ġabbre":11321,"ĠHay":11322,"ĠDown":11323,"ĠDomin":11324,"Ġkm":11325,"Ġwear":11326,"ĠYET":11327,"Ġjokes":11328,"rapp":11329,"ĠJordan":11330,"cline":11331,"ĠKnight":11332,"ovie":11333,"Ġresidents":11334,"ensity":11335,"oster":11336,"Ġfucked":11337,"Ġphase":11338,"rators":11339,"Ġagreeing":11340,"Ġ81":11341,"Ġ85":11342,"amples":11343,"ashmir":11344,"131":11345,"Stub":11346,"Ġirr":11347,"Ġdebates":11348,"255":11349,"Ġdelivered":11350,"Ġarchiving":11351,"Ġcontroversies":11352,"2014":11353,"ĠLIFE":11354,"aneous":11355,"Ġdenying":11356,"Comp":11357,"ĠEnjoy":11358,"Requested":11359,"Ġancestors":11360,"Ġconstructed":11361,"Ġuniversal":11362,"Ġsubsequently":11363,"Ġcoward":11364,"Ġprecedent":11365,"GBT":11366,"Ġdisregard":11367,"OZEN":11368,"February":11369,"Av":11370,"FYI":11371,"MENT":11372,"father":11373,"gary":11374,"hus":11375,"pute":11376,"à¥":11377,"Ġ%":11378,"Ġq":11379,"itively":11380,"Ġfinger":11381,"Ġnu":11382,"asi":11383,"Ġlame":11384,"ĠAth":11385,"ĠAuthor":11386,"ĠWikip":11387,"ĠSn":11388,"ipment":11389,"Ġ\"\"\"\"":11390,"ĠBalk":11391,"ĠBapt":11392,"Ġyourselves":11393,"ĠFreedom":11394,"ĠDAMN":11395,"uls":11396,"Ġunaware":11397,"Ġjoint":11398,"social":11399,"Ġconscious":11400,"enses":11401,"Ġnewbie":11402,"Ġplane":11403,"ANG":11404,"ibilities":11405,"Ġ35":11406,".\"\"\"":11407,"pected":11408,"bec":11409,"ĠUniverse":11410,"196":11411,"198":11412,"Ġendless":11413,"205":11414,"137":11415,"ĠRegional":11416,"cover":11417,"ĠPhot":11418,"added":11419,"Ġstronger":11420,"Ġmusicians":11421,"Ġdram":11422,"ĠĠĠĠĠĠĠĠĠĠĠĠĠĠĠĠĠĠĠĠĠĠĠĠ":11423,"Ġsocialist":11424,"Ġclubs":11425,"Ġblanked":11426,"ĠSimply":11427,"Ġpainting":11428,"Ġslave":11429,"Ġcombination":11430,"Ġsufficiently":11431,"ĠMOTHER":11432,"Ġcollaborative":11433,"Ġadopt":11434,"lantic":11435,"subst":11436,"FROZEN":11437,"Ġastron":11438,"ĠBasically":11439,"Furthermore":11440,"uerto":11441,"ĠOttoman":11442,"ĠColumbia":11443,"Ġinstrument":11444,"Ġmangina":11445,"BM":11446,"CO":11447,"COM":11448,"DUE":11449,"Que":11450,"South":11451,"mod":11452,"su":11453,"Ġtribes":11454,"inem":11455,"reason":11456,"itan":11457,"Ġcuz":11458,"Ġmand":11459,"Ġyo":11460,"aration":11461,"uther":11462,"ticularly":11463,"ammed":11464,"child":11465,"agement":11466,"ĠBon":11467,"ĠMaster":11468,"etter":11469,"ĠFive":11470,"Ġnegot":11471,"ĠDuring":11472,"Ġalien":11473,"ĠRM":11474,"ĠGa":11475,"Ġjur":11476,"ĠEuro":11477,"ĠOcc":11478,"Ġagency":11479,"plified":11480,"Ġtheme":11481,"Ġsubpage":11482,"Ġperception":11483,"Ġitsuck":11484,"ĠCharl":11485,"ATH":11486,"Ġmessed":11487,"Ġscan":11488,"Ġextend":11489,"END":11490,"ĠAdams":11491,"Ġlegend":11492,"ĠIndones":11493,"228":11494,"234":11495,"Star":11496,"249":11497,"Ġcontacting":11498,"Ġraces":11499,"Ġundone":11500,"Ġcharacteristics":11501,"Ġvisual":11502,"Ġaffair":11503,"ĠWIKI":11504,"Ġinfoboxes":11505,"Ġsatisfies":11506,"Ġmaintaining":11507,"Ġimmature":11508,"Ġattribution":11509,"Ġrelationships":11510,"ĠDemocrat":11511,"ĠRoad":11512,"ĠBulgar":11513,"Ġhypocritical":11514,"Ġjews":11515,"Ġslowly":11516,"ĠSarah":11517,"Ġdrugs":11518,"Ġaffiliated":11519,"NNNNNNNN":11520,"Ġstrategy":11521,"ĠCommonwealth":11522,"LI":11523,"Pre":11524,"UQ":11525,"correct":11526,"mouth":11527,"worth":11528,"âĸº":11529,"Ġther":11530,"Ġma":11531,"esse":11532,"\"\"),":11533,"Ġgaming":11534,"Ġarmed":11535,"adi":11536,"Ġstood":11537,"ilation":11538,"Ġprosec":11539,"ĠDh":11540,"Ġkiss":11541,"Ġrating":11542,"ĠNavy":11543,"Ġalcohol":11544,"ĠGU":11545,"Ġages":11546,"ogical":11547,"ireless":11548,"ova":11549,"ĠVen":11550,"standard":11551,"Ġcheap":11552,"Ġwebpage":11553,"grade":11554,"Ital":11555,"Repeat":11556,"194":11557,"Ġofficers":11558,"Ġdiscography":11559,"154":11560,"Ġvariable":11561,"ĠZe":11562,"Ġdemocratic":11563,"Ġsorting":11564,"addy":11565,"Ġunfree":11566,"Ġavoiding":11567,"Ġdemonstrates":11568,"ĠANYTHING":11569,"roversy":11570,"Ġgenuinely":11571,"Merge":11572,"Ġemotional":11573,"Ġsequence":11574,"ĠProvince":11575,"Ġsovereign":11576,"Ġuniform":11577,"Ġdiscretion":11578,"217":11579,"AVE":11580,"CSD":11581,"Done":11582,"Files":11583,"Having":11584,"NS":11585,"bra":11586,"nie":11587,"run":11588,"wall":11589,"Ġtight":11590,"Ġath":11591,"Ġsand":11592,"Ġcup":11593,"Ġcats":11594,"Ġmuseum":11595,"Ġdating":11596,"album":11597,"arp":11598,"Ġlied":11599,"advert":11600,"ifer":11601,"Ġstalk":11602,"ĠCop":11603,"ĠCant":11604,"ĠBand":11605,"ĠMun":11606,"aki":11607,"Ġshorter":11608,"ĠDub":11609,"ĠDuke":11610,"Ġvision":11611,"Ġquery":11612,"Ġagent":11613,"ĠKa":11614,"apore":11615,"Ġcomparing":11616,"Ġcreative":11617,"Ġimpartial":11618,"ĠIns":11619,"ĠChuck":11620,"ollah":11621,"Ġunderstandable":11622,"Ġmisinterpret":11623,"Ġconcur":11624,"Ġsyndrome":11625,"Ġexpos":11626,"Ġexpires":11627,"Ġpossess":11628,"rency":11629,"140":11630,"134":11631,"172":11632,"delete":11633,"246":11634,"Ġrepresenting":11635,"ĠBLANK":11636,"Ġoriginated":11637,"Ġdeserved":11638,"Ġrewriting":11639,"Ġexpressing":11640,"Ġdemonst":11641,"Ġharmful":11642,"Ġbullet":11643,"laceable":11644,"ĠAlbania":11645,"Ġcyber":11646,"Ġobservations":11647,"Ġvolunteers":11648,"((((":11649,"\":::::":11650,"Ġknock":11651,"Ġcamera":11652,"ĠWelsh":11653,"ĠNeilN":11654,"ĠKennedy":11655,"Ġdoubts":11656,",,":11657,"July":11658,"Naming":11659,"OX":11660,"WIK":11661,"dot":11662,"far":11663,"fast":11664,"frozen":11665,"uce":11666,"Î¿":11667,"ÙĦ":11668,"ĠØ":11669,"Ġsoul":11670,"erve":11671,"Ġwikiproject":11672,"atson":11673,"ativity":11674,"ĠIV":11675,"ĠIDI":11676,"lywood":11677,"idays":11678,"stan":11679,"adium":11680,"amy":11681,"atement":11682,"eters":11683,"Ġabortion":11684,"uster":11685,"Ġuninvolved":11686,"ĠGNU":11687,"ĠJacob":11688,"ogatory":11689,"osal":11690,"eller":11691,"uality":11692,"Ġnamely":11693,"icked":11694,"!!!!!!!!!":11695,"Ġworded":11696,"owned":11697,"White":11698,"ITIES":11699,"Ġexamine":11700,"Ġcounting":11701,"Ġbehave":11702,"anka":11703,"189":11704,"164":11705,"uccess":11706,"CTION":11707,"230":11708,"Ġirrit":11709,"Ġsearched":11710,"Ġofficials":11711,"ĠTrue":11712,"Ġtechnique":11713,"ĠREAL":11714,"Ġcivilians":11715,"Ġurban":11716,"External":11717,"Example":11718,"Ġstudying":11719,"Ġdomestic":11720,"fessional":11721,"Ġtargeted":11722,"Ġreversed":11723,"Ġinstitutions":11724,"Trans":11725,"ĠCopyrights":11726,"Ġdismissed":11727,"Ġdiagram":11728,"Ġfantasy":11729,"Ġneighbor":11730,"music":11731,"Ġborrowed":11732,"ĠMormon":11733,".;":11734,".).":11735,"215":11736,"Att":11737,"Iran":11738,"Japan":11739,"every":11740,"kn":11741,"tor":11742,"water":11743,"ÏĦ":11744,"âĦ":11745,"isa":11746,"Ġcabal":11747,"aria":11748,"agging":11749,"ĠTour":11750,"ĠTibet":11751,"Ġgreek":11752,"ĠWis":11753,"thy":11754,"ĠSources":11755,"ĠMir":11756,"estab":11757,"ĠHal":11758,"ĠFal":11759,"ĠDNA":11760,"Ġunhelpful":11761,"emon":11762,"Ġcontention":11763,"ieved":11764,"Ġheck":11765,"lfriend":11766,"Ġmanager":11767,"assed":11768,"Ġnewer":11769,"type":11770,"Ġhistories":11771,"weight":11772,"ĠAngeles":11773,"Ġformally":11774,"Ġformula":11775,"Ġexpired":11776,"Ġ400":11777,"meaning":11778,"Ġminister":11779,"rett":11780,"ĠSecurity":11781,"183":11782,"Alright":11783,"Ġproperties":11784,"arliament":11785,"Ġfrustration":11786,"Ġnationalistic":11787,"Ġmetaph":11788,"Ġcorruption":11789,"Ġtendency":11790,"edule":11791,"Ġprotests":11792,"Ġconverted":11793,"Ġeliminate":11794,"ĠHamas":11795,"ĠHungarian":11796,"Ġdiscrimination":11797,"Ġcoincidence":11798,"ĠIssue":11799,"Ġgentle":11800,"Hmm":11801,"Possibly":11802,"fight":11803,"gay":11804,"media":11805,"num":11806,"rif":11807,"sid":11808,"take":11809,"worthy":11810,"zb":11811,"Îµ":11812,"Ġtip":11813,"Ġtempt":11814,"Ġtalent":11815,"Ġthumb":11816,"iti":11817,"Ġhook":11818,"Ġdun":11819,"ĠCe":11820,"olics":11821,"ĠPL":11822,"uration":11823,"Ġadapt":11824,"Ġalign":11825,"ĠRVV":11826,"ĠOTH":11827,"asts":11828,"assment":11829,"Ġreliably":11830,"Ġbacking":11831,"Ġ1945":11832,"Ġobst":11833,"\"\".\"":11834,"ĠArthur":11835,"Ġscum":11836,"Ġinco":11837,"spons":11838,"Ġstudio":11839,"ĠNOTHING":11840,"Ġmister":11841,"Ġpatients":11842,"252":11843,"ĠJEWS":11844,"Ġtypo":11845,"Ġmoderator":11846,"Ġcredentials":11847,"Ġmotor":11848,"Ġsuccessfully":11849,"ĠMedical":11850,"ĠCONT":11851,"Ġmalicious":11852,"Ġillustrates":11853,"Ġchemistry":11854,"Ġtimeline":11855,"Ġestimates":11856,"Ġdefamatory":11857,"Ġtherapy":11858,"Ġparallel":11859,"\"*":11860,"AZ":11861,"EM":11862,"HL":11863,"Hoo":11864,"YN":11865,"bat":11866,"cody":11867,"pa":11868,"public":11869,"td":11870,"vak":11871,"Ġwa":11872,"Ġwit":11873,"itudes":11874,"Ġbots":11875,"Ġpair":11876,"Ġfle":11877,"Ġdad":11878,"Ġli":11879,"Ġgrew":11880,"uto":11881,"owboy":11882,"ĠAz":11883,"images":11884,"ĠWTC":11885,"ĠSnow":11886,"Ġwasnt":11887,"edits":11888,"ĠFish":11889,"ĠDam":11890,"ante":11891,"ĠNar":11892,"ĠNik":11893,"ĠRand":11894,"ĠGale":11895,"Ġ216":11896,"Ġdisabled":11897,"ĠEach":11898,"lax":11899,"ribed":11900,"Ġresign":11901,"Ġnewly":11902,"Ġremoves":11903,"Ġplants":11904,"Ġrefuses":11905,"Ġconfidence":11906,"Ġdecides":11907,"venge":11908,"gram":11909,"ĠUnsourced":11910,"Ġgenerated":11911,"Rec":11912,"Ġendors":11913,"print":11914,"Ġ)\"":11915,"ohnn":11916,"Ġretire":11917,"Altern":11918,"163":11919,"ĠOrig":11920,"ĠAnyways":11921,"Ġtraffic":11922,"Ġdepart":11923,"Chris":11924,"2013":11925,"ĠNether":11926,"erald":11927,"TABTAB":11928,"warranted":11929,"Ġderiv":11930,"Ġbaseball":11931,"Ġpleased":11932,"Ġcatal":11933,"vania":11934,"Ġcycle":11935,"ĠSuggest":11936,"ĠKNOB":11937,"ĠScottish":11938,"according":11939,"important":11940,"Ġsuspicious":11941,"Ġdollars":11942,"Ġcomfortable":11943,"Ġalphabet":11944,"Ġguarantee":11945,"iropractic":11946,"Alex":11947,"Cent":11948,"COI":11949,"DO":11950,"FO":11951,"Make":11952,"RI":11953,"SALT":11954,"Turk":11955,"gl":11956,"pol":11957,"paste":11958,"science":11959,"uorum":11960,"Ġtie":11961,"Ġduty":11962,"Ġwholly":11963,"ĠTok":11964,"ĠABC":11965,"ĠWAR":11966,"celer":11967,"ste":11968,"ĠSin":11969,"ĠSay":11970,"igs":11971,"ifferent":11972,"istle":11973,"ĠHop":11974,"Ġsharing":11975,"ĠFinn":11976,"ĠLicense":11977,"ĠJustice":11978,"ishonen":11979,"Ġreminder":11980,"osis":11981,"izabeth":11982,"ciences":11983,"acle":11984,"Ġsubc":11985,"Those":11986,"reading":11987,"ĠRevert":11988,"lected":11989,"show":11990,"Ġfarm":11991,"Ġoldest":11992,"spir":11993,"208":11994,"106":11995,"AHAHA":11996,"IDE":11997,"221":11998,"Ġresulting":11999,"Ġeastern":12000,"179":12001,"Ġunsupported":12002,"legal":12003,"Ġequipment":12004,"Ġsky":12005,"puted":12006,"ĠREVER":12007,"Ġasserted":12008,"Ġbaseless":12009,"holes":12010,"Ġcircumcision":12011,"ĠArbcom":12012,"Ġdisgrace":12013,"Ġrestrictions":12014,"ĠHistoric":12015,"Ġcrucial":12016,"ophobic":12017,"ĠSenate":12018,"ederation":12019,"Ġsecular":12020,"PHUQ":12021,"Ġencountered":12022,"ĠIDIOT":12023,"Ann":12024,"Bel":12025,"Fl":12026,"OY":12027,"Paul":12028,"PORT":12029,"Semitic":12030,"TY":12031,"bur":12032,"kf":12033,"lk":12034,"mission":12035,"sources":12036,"Ġties":12037,"oni":12038,"oubt":12039,"itiz":12040,"eno":12041,"Ġpiano":12042,"Ġangle":12043,"aled":12044,"Ġnons":12045,"Ġrefere":12046,"omor":12047,"Ġguns":12048,"ĠBrian":12049,"ĠHong":12050,"Ġvent":12051,"Ġvig":12052,"Ġcomics":12053,"ĠGam":12054,"ĠLooks":12055,"Ġworship":12056,"abad":12057,"ensions":12058,"117":12059,"ĠVis":12060,"Ġeveryday":12061,"Ġowners":12062,"Ġexplore":12063,"Ġ32":12064,"ologically":12065,"Ġcoff":12066,"Ġourselves":12067,"Ġmessing":12068,"Ġlogs":12069,"206":12070,"Ġgayfrozen":12071,"Ġ1992":12072,"Ġ150":12073,"Ġlicks":12074,"ĠAMER":12075,"Ġuncited":12076,"Ġfreak":12077,"Ġcultures":12078,"ĠEnter":12079,"Ġelectric":12080,"ĠDisc":12081,"ĠGuide":12082,"Ġcircle":12083,"ĠAdministrator":12084,"Ġintentional":12085,"Ġtraditions":12086,"Anyone":12087,"ĠAdding":12088,"ĠBLOCKED":12089,"Ġengineering":12090,"ĠWWII":12091,"Ġpredict":12092,"Ġminimal":12093,"ĠIRA":12094,"Ġuniversities":12095,"ĠMexican":12096,"Ġprohibited":12097,"Ġdefeated":12098,"Ġearned":12099,"Ġmobile":12100,"Ġroughly":12101,"ĠFatuorum":12102,"SIX":12103,"Ġinherently":12104,"Ġremotely":12105,"Ġinfringement":12106,"\".":12107,"214":12108,"Ang":12109,"Award":12110,"IZ":12111,"PC":12112,"iÄĩ":12113,"pri":12114,"rote":12115,"town":12116,"Ð²":12117,"Ġtank":12118,"Ġbin":12119,"Ġcum":12120,"Ġfed":12121,"Ġot":12122,"Ġhall":12123,"Ġnit":12124,"aser":12125,"Ġreign":12126,"Ġconced":12127,"Ġstream":12128,"olt":12129,"ĠBir":12130,"ĠMother":12131,"ĠMold":12132,"ĠNap":12133,"ĠNEW":12134,"embers":12135,"ĠGirl":12136,"ĠJosh":12137,"ĠKent":12138,"Ġmanifest":12139,"aval":12140,"Ġrecip":12141,"Ġgrown":12142,"ĠTHREAT":12143,"Ġcoin":12144,"Ġinfant":12145,"anging":12146,"Ġsmear":12147,"Ġdispar":12148,"Ġpresentation":12149,"ĠIndo":12150,"Ġbigot":12151,"Ġunsure":12152,"Ġheadings":12153,"Ġcricket":12154,"Ġorganisations":12155,"decline":12156,"ĠCheatsheet":12157,"ĠâĨĲ":12158,"ĠSeries":12159,"iverpool":12160,"ĠADD":12161,"Ġreflected":12162,"Ġcutting":12163,"ĠCalgary":12164,"Ġemployees":12165,"Ġapplications":12166,"AAAAAAAA":12167,"ĠFRIGG":12168,"ĠBiography":12169,"0000000000000000":12170,"!!!!!!!!!!!!!!!!!!!!!!!!!!!!!!!!!!!!!!!!!!!!!!!!!!!!!!!!!!!!!!!!!!!!!!!!!!!!!!!!!!!!!!!!!!!!!!!!!!!!!!!!!!!!!!!!!!!!!!!!!!!!!!!!!!!!!!!!!!!!!!!!!!!!!!!!!!!!!!!!!!!!!!!!!!!!!!!!!!!!!!!!!!!!!!!!!!!!!!!!!!!!!!!!!!!!!!!!!!!!!!!!!!!!!!!!!!!!!!!!!!!!!!!!!!!!!!!!":12171,"Ġfrequency":12172,"confirmed":12173,"Ġdisturbing":12174,"Ġbreath":12175,"Ġforbidden":12176,"YROM":12177,"Ġinclined":12178,"svg":12179,"Ġparliament":12180,"Ġgirlfriend":12181,")...":12182,"Count":12183,"Given":12184,"High":12185,"Med":12186,"WA":12187,"direct":12188,"eer":12189,"fix":12190,"late":12191,"made":12192,"pot":12193,"vage":12194,"video":12195,"ĠÂł":12196,"Ġtribe":12197,"rect":12198,"Ġbes":12199,"Ġpit":12200,"Ġping":12201,"Ġhospital":12202,"Ġec":12203,"ĠTerror":12204,"stud":12205,"semit":12206,"chat":12207,"ĠParliament":12208,"irs":12209,"etal":12210,"Ġships":12211,"ĠDur":12212,"ĠDyn":12213,"Ġexclude":12214,"Ġuncon":12215,"ĠNa":12216,"ĠNation":12217,"Ġje":12218,"ĠLew":12219,"Ġmoon":12220,"Ġpregn":12221,"Ġenlight":12222,"OUNT":12223,"Ġrelates":12224,"ĠCham":12225,"Ġfeat":12226,"ĠTHe":12227,"Ġrefuge":12228,"Ġentities":12229,"rang":12230,"Ġbiological":12231,"Ġcopyrights":12232,"Ġscratch":12233,"Ġaccepting":12234,"OOOL":12235,"Ġtestim":12236,"Ġdiscovery":12237,"ĠProbably":12238,"Ġescal":12239,"156":12240,"231":12241,"236":12242,"241":12243,"248":12244,"Ġcentre":12245,"rolled":12246,"puts":12247,"ĠTrust":12248,"Ġrecognise":12249,"Ġhumanity":12250,"Ġ1984":12251,"butt":12252,"Ġ(~~~~).":12253,"Ġelectron":12254,"Ġvolunt":12255,"ĠEdits":12256,"ĠSimple":12257,"Ġemployee":12258,"ĠCommunist":12259,"ĠCongratulations":12260,"Ġraped":12261,"Phil":12262,"Ġviolent":12263,"Ġconvincing":12264,"CAUSE":12265,"ĠRevolution":12266,"Ġmountain":12267,"Proposed":12268,"Ġapproximately":12269,"Verifiability":12270,"Congratulations":12271,"?,":12272,"Bitch":12273,"Ha":12274,"bus":12275,"fan":12276,"fare":12277,"found":12278,"hism":12279,"pie":12280,"rons":12281,"Ġsnow":12282,"Ġwood":12283,"itations":12284,"Ġfusion":12285,"aran":12286,"Ġrect":12287,"Ġloved":12288,"Ġlobby":12289,"stub":12290,"Ġ(âĨĴ":12291,"Ġstereot":12292,"ĠCapt":12293,"Ġsegment":12294,"olo":12295,"Ġ\"\"(":12296,"irable":12297,"etta":12298,"rix":12299,"Ġkings":12300,"Ġexceed":12301,"ĠRub":12302,"ĠGR":12303,"ĠGuru":12304,"Ġdissent":12305,"Ġdisorder":12306,"ĠEDIE":12307,"Ġbeings":12308,"Ġchannels":12309,"Ġcrew":12310,"ĠWhit":12311,"ĠStart":12312,"ĠVideo":12313,"Ġpartly":12314,"Ġclient":12315,"wwww":12316,"Ġsincere":12317,"Ġinvitation":12318,"Ġdeciding":12319,"STOOT":12320,"ĠAncient":12321,"Ġroles":12322,"OLD":12323,"apped":12324,"Ġ84":12325,"143":12326,"184":12327,"Ġpopulations":12328,"Ġcrash":12329,"ĠNotice":12330,"Ġtrave":12331,"Ġguessing":12332,"ETIME":12333,"nergy":12334,"Ġdrink":12335,"Ġillness":12336,"Ġsusp":12337,"Ġlabor":12338,"ormal":12339,"Ġelectronic":12340,"opsis":12341,"Ġfalling":12342,"Ġbroader":12343,"Ġvisitors":12344,"Ġsettle":12345,"ocacy":12346,"Ġtrained":12347,"olitan":12348,"ÂłÂłÂłÂł":12349,"Interesting":12350,"front":12351,"Ġcertific":12352,"Ġpreserve":12353,"Ġresistance":12354,"Ġdiscredit":12355,"ĠProtestant":12356,"ĠMeanwhile":12357,"ohnny":12358,"STOOTS":12359,";_":12360,"Agree":12361,"AfD":12362,"FORE":12363,"GH":12364,"Greek":12365,"Out":12366,"Pop":12367,"Rf":12368,"TS":12369,"Virgin":12370,"eared":12371,"fly":12372,"gency":12373,"ju":12374,"rally":12375,"rance":12376,"vant":12377,"zo":12378,"ÏĤ":12379,"Ġtun":12380,"Ġthick":12381,"informed":12382,"reference":12383,"Ġsustain":12384,"isons":12385,"isode":12386,"orce":12387,"Ġboot":12388,"Ġboring":12389,"anim":12390,"Ġpitch":12391,"Ġhunt":12392,"Ġhobby":12393,"asa":12394,"Ġloyal":12395,"Ġgest":12396,"ĠWright":12397,"heast":12398,"roid":12399,"sters":12400,"string":12401,"ĠSupport":12402,"unless":12403,"opathy":12404,"ĠMast":12405,"ilia":12406,"Ġprox":12407,"ĠRose":12408,"ĠRangers":12409,"ĠGE":12410,"ĠLar":12411,"Ġqueries":12412,"Ġgoss":12413,"Ġprepar":12414,"Ġappointed":12415,"Ġappropriately":12416,"Ġresort":12417,"119":12418,"Ġsupporter":12419,"rued":12420,"ĠTHEN":12421,"191":12422,"Ġappearances":12423,"Ġresearching":12424,"racted":12425,"136":12426,"151":12427,"155":12428,"157":12429,"Ġtrace":12430,"ĠLOLOOOL":12431,"Ġcriticized":12432,"Ġpassword":12433,"Ġdepict":12434,"Ġmeta":12435,"ĠWarren":12436,"Ġfighters":12437,"ELY":12438,"ĠGAYFAG":12439,"Ġflagged":12440,"ĠBlood":12441,"Ġinvestigate":12442,"ĠAnton":12443,"ĠMichigan":12444,"ĠSanchez":12445,"amiliar":12446,"âĻ¥":12447,"ĠBetter":12448,"Ġlifted":12449,"ĠHistorical":12450,"Ġatheist":12451,"Ġadequate":12452,"Ġmanufacture":12453,"Ġlecture":12454,"Ġstyles":12455,"ĠFRIGGEN":12456,"CD":12457,"CL":12458,"EX":12459,"Michael":12460,"Sw":12461,"UD":12462,"bits":12463,"happy":12464,"kb":12465,"nik":12466,"Ġ~~":12467,"Ġtong":12468,"Ġafore":12469,"Ġsne":12470,"Ġsample":12471,"atin":12472,"atre":12473,"orable":12474,"orms":12475,"Ġcree":12476,"Ġpuzz":12477,"Ġdiet":12478,"omic":12479,"ĠTan":12480,"rock":12481,"Ġasc":12482,"ĠCertainly":12483,"Ġorphaned":12484,"ĠPages":12485,"ĠPuerto":12486,"editor":12487,"Ġshr":12488,"Ġweather":12489,"Ġimperial":12490,"Ġenhan":12491,"former":12492,"Ġparad":12493,"Ġdefence":12494,"Ġdefended":12495,"ĠArts":12496,"beat":12497,"Ġemo":12498,"Ġfairness":12499,"126":12500,"ĠQur":12501,"common":12502,"ĠNevertheless":12503,"Ġvisiting":12504,"ĠREALLY":12505,"Ġmentally":12506,"Ġreaching":12507,"Ġreturns":12508,"balanced":12509,"Ġcircles":12510,"Ġteachers":12511,"Ġtends":12512,"Ġsalt":12513,"ĠBITCHES":12514,"ĠAnglo":12515,"Ġspreading":12516,"Ġhypocrite":12517,"Ġdynamic":12518,"ĠTELL":12519,"ĠBabyWhat":12520,"ĠFaith":12521,"Ġabstract":12522,"Ġbattles":12523,"Ġinconven":12524,"ĠCambridge":12525,"ĠPOLIT":12526,"Ġincoherent":12527,"219":12528,"800":12529,"Id":12530,"Jesus":12531,"Upd":12532,"VG":12533,"bow":12534,"false":12535,"making":12536,"rum":12537,"Ġing":12538,"research":12539,"Ġburd":12540,"Ġclock":12541,"Ġcher":12542,"Ġmile":12543,"Ġmartial":12544,"icing":12545,"argu":12546,"Ġbearing":12547,"iking":12548,"lder":12549,"start":12550,"ches":12551,"ĠBee":12552,"ĠBIG":12553,"ĠBeng":12554,"ĠMult":12555,"ili":12556,"Ġeditions":12557,"ĠHum":12558,"ĠFI":12559,"ĠFoo":12560,"ĠFilm":12561,"Ġunpro":12562,"Ġunwarranted":12563,"Ġraj":12564,"ĠNR":12565,"Ġcanon":12566,"Ġpolitely":12567,"ordon":12568,"ĠAlan":12569,"ĠRef":12570,"Ġcoat":12571,"Ġcontinuously":12572,"beit":12573,"bean":12574,"athers":12575,"ixon":12576,"akespe":12577,"Ġinterven":12578,"203":12579,"Ġdistribut":12580,"Ġbask":12581,"ĠProblem":12582,"2002":12583,"ĠBECAUSE":12584,"Ġestimate":12585,"otted":12586,"Ġpasses":12587,"Ġannual":12588,"ĠREM":12589,"Ġ1982":12590,"Ġcollaps":12591,"Ġtreating":12592,"Ġpropagand":12593,"Ġliberals":12594,"Ġteachings":12595,"ĠIMDB":12596,"Ġchurches":12597,"ĠCoast":12598,"Ġtracks":12599,"Added":12600,"Ġdropping":12601,"Ġsurvive":12602,"Seriously":12603,"Ġtransferred":12604,"Ġadults":12605,"Muslim":12606,"ĠREADING":12607,"Ġhouses":12608,"Ġsupplied":12609,"nbkj":12610,"Ġsympt":12611,"Ġgossip":12612,"/?":12613,"AE":12614,"Arab":12615,"Bold":12616,"CW":12617,"FS":12618,"Leg":12619,"NOR":12620,"Sur":12621,"Warning":12622,"bu":12623,"cong":12624,"eav":12625,"fox":12626,"foot":12627,"hed":12628,"mies":12629,"math":12630,"Ġ000":12631,"Ġwins":12632,"Ġbans":12633,"Ġbass":12634,"least":12635,"Ġfing":12636,"Ġfut":12637,"Ġhub":12638,"asks":12639,"ĠTal":12640,"Ġartic":12641,"ader":12642,"adav":12643,"ĠCold":12644,"ĠCities":12645,"ĠBol":12646,"ĠBongwarrior":12647,"ĠPun":12648,"ĠMust":12649,"ulars":12650,"Ġextension":12651,"ĠNumber":12652,"ĠGOOD":12653,"ĠLGBT":12654,"ĠOrange":12655,"Ġchampionship":12656,"perhaps":12657,"115":12658,"116":12659,"ĠVI":12660,"Ġparan":12661,"othy":12662,"Ġenthus":12663,"ĠThats":12664,"whatever":12665,"Ġproportion":12666,"Ġconcensus":12667,"Ġencycloped":12668,"Ġcourts":12669,"apping":12670,"ccer":12671,"ĠUSSR":12672,"202":12673,"otection":12674,"Ġsurgery":12675,"Ġhumour":12676,"Ġstaying":12677,"Ġsorted":12678,"Ġpassages":12679,"ĠPhD":12680,"risy":12681,"Ġjudging":12682,"Ġ1975":12683,"Ġinfluential":12684,"ĠImages":12685,"Ġjournalists":12686,"Ġcontradiction":12687,"Ġannoyed":12688,"Ġgraduate":12689,"Enigm":12690,"Ġincorporate":12691,"kjbn":12692,"Ġlaunched":12693,"Ġfrequent":12694,"ĠDirector":12695,"Ġslander":12696,"Ġwelcom":12697,"Ġmaximum":12698,"Ġmotherfucker":12699,"ĠMINOR":12700,"ĠIntelligence":12701,"ĠMonday":12702,"Enigmaman":12703,")/":12704,".:":12705,"Cat":12706,"Need":12707,"Person":12708,"cup":12709,"cified":12710,"xic":12711,"Ġ???":12712,"Ġtail":12713,"Ġbon":12714,"Ġcere":12715,"users":12716,"Ġislam":12717,"ĠWow":12718,"ĠCarl":12719,"ĠBased":12720,"Ġabsent":12721,"ĠHand":12722,"Ġunambig":12723,"ĠGaza":12724,"ĠLOVE":12725,"ĠEM":12726,"ĠEdd":12727,"Ġaccomp":12728,"Ġgodd":12729,"ĊĊĠĠĊ":12730,"Ġhereby":12731,"early":12732,"Ġunderlying":12733,"Ġlistings":12734,"113":12735,"plex":12736,"ĠAndre":12737,"ĠAlbert":12738,"ĠReference":12739,"Ġkeen":12740,"mercial":12741,"ratic":12742,"Ġmisuse":12743,"ranged":12744,"ORY":12745,"Ġproduces":12746,"Ġcharged":12747,"175":12748,"ĠJustin":12749,"Ġcriticize":12750,"Ġdescript":12751,"Ġequations":12752,"Ġarchae":12753,"Ġworthwhile":12754,"contin":12755,"ircum":12756,"ĠNIGGERS":12757,"Ġunblocking":12758,"ĠClick":12759,"ĠContin":12760,"Ġaffairs":12761,"ĠBrother":12762,"ĠBridge":12763,"Ġdevote":12764,"ĠIMHO":12765,"Ġderogatory":12766,"ĠJean":12767,"Space":12768,"India":12769,"Ġpronoun":12770,"Ġpetition":12771,"ĠPalestinians":12772,"Ġassessed":12773,"ĠPhilip":12774,"Ġcontradictory":12775,"aliel":12776,"ĠAttack":12777,"Ġholiday":12778,"Ġdictators":12779,"ahahahahahahahahahahahahahahahah":12780,"ĠNobel":12781,"Ġeliminated":12782,"Ġcolonial":12783,"Ġfrustrating":12784,"================":12785,"UUUUUUUU":12786,"ĠBatman":12787,"unicipality":12788,"ĠAzerbaijan":12789,"ĠTAKE":12790,"Ġexcuses":12791,"ĠTemple":12792,"akespeare":12793,"?),":12794,"AIN":12795,"Cal":12796,"CES":12797,"Del":12798,"FI":12799,"Mat":12800,"Ps":12801,"San":12802,"Sir":12803,"Sandbox":12804,"Today":12805,"best":12806,"iub":12807,"ooth":12808,"tv":12809,"ÅĤ":12810,"Ġtor":12811,"Ġtied":12812,"reck":12813,"Ġtheor":12814,"itors":12815,"Ġbless":12816,"Ġfoul":12817,"Ġhates":12818,"icate":12819,"ĠTaylor":12820,"Ġgap":12821,"Ġasks":12822,"chen":12823,"Ġstorm":12824,"ĠCook":12825,"ĠMD":12826,"ĠMight":12827,"ĠMars":12828,"ests":12829,"ĠHon":12830,"ĠHoll":12831,"ĠRen":12832,"ĠRest":12833,"Ġlend":12834,"plus":12835,"izz":12836,"ĠKING":12837,"Ġconsists":12838,"Ġmanga":12839,"ĠVar":12840,"ĠChat":12841,"Ġcheers":12842,"ĠUnivers":12843,"Ġgenerations":12844,"Ġtea":12845,"Ġconcrete":12846,"oku":12847,"Ġacceptance":12848,"ENCE":12849,"ĠBeck":12850,"Ġnominator":12851,"245":12852,"rolls":12853,"ambling":12854,"Ġsimilarities":12855,"Chat":12856,"Ġalongside":12857,"ĠÂ«":12858,"Ġminorities":12859,"irlines":12860,"Ġactivist":12861,"Ġtemple":12862,"discussion":12863,"Ġwikis":12864,"hoi":12865,"Ġinsisting":12866,"ĠDesign":12867,"Ġcontradicts":12868,"ĠConsider":12869,"ĠConsidering":12870,"Ġdisappear":12871,"Ġprincipal":12872,"Ġlosses":12873,"Ġultimate":12874,"Ġroutine":12875,"ĠStudies":12876,"Ġboundaries":12877,"Ġmeasured":12878,"Ġmurdered":12879,"Ġcasualties":12880,"Ġmirror":12881,"Ġunjustified":12882,"iblical":12883,"Ġoverturn":12884,"Ġassassination":12885,"%.":12886,"'?":12887,"ACT":12888,"Bas":12889,"Catholic":12890,"Frank":12891,"Peter":12892,"WI":12893,"both":12894,"div":12895,"kward":12896,"lib":12897,"nc":12898,"past":12899,"present":12900,"Î½":12901,"âķ":12902,"Ġwis":12903,"itals":12904,"Ġpants":12905,"Ġmud":12906,"Ġdip":12907,"Ġdump":12908,"ĠIan":12909,"oter":12910,"Ġreward":12911,"usible":12912,"ĠAE":12913,"ĠAlf":12914,"rod":12915,"Ġhaha":12916,"stars":12917,"tically":12918,"ĠSL":12919,"Ġstolen":12920,"ĠMas":12921,"elson":12922,"aints":12923,"Ġbye":12924,"emen":12925,"ĠLu":12926,"ĠEarly":12927,"ĠOmega":12928,"ivism":12929,"ĠUlt":12930,"Ġupcoming":12931,"Ġacr":12932,"Ġprest":12933,"Ġpreview":12934,"ĠKam":12935,"ĠKelly":12936,"Ġaccent":12937,"UTH":12938,"Ġrefusing":12939,"Ġ33":12940,"Ġcopyedit":12941,"Ġbelieving":12942,"Ġviewing":12943,"Ġscream":12944,"ajik":12945,"shire":12946,".......":12947,"Ġclos":12948,"158":12949,"Ġvariation":12950,"}}.":12951,"Ġcrus":12952,"ilarious":12953,"ĠConn":12954,"ĠMarc":12955,"Ġ=)":12956,"ĠNorris":12957,"THe":12958,"Ġenjoyed":12959,"registered":12960,"centric":12961,"Ġphysic":12962,"iamond":12963,"ĠInterest":12964,"Ġtrees":12965,"ĠBarbar":12966,"Ġpriority":12967,"Ġcollaborate":12968,"Ġyounger":12969,"Ġdisappointed":12970,"Ġmisunderstand":12971,"âĻ¦":12972,"Ġachievements":12973,"DDDD":12974,"ĠBosnian":12975,"Ġrailway":12976,"Ġshocked":12977,"ĠDELETE":12978,"Ġsubtle":12979,"cerning":12980,"Ġpertaining":12981,"ĠCarolina":12982,"Austral":12983,"Ġhusband":12984,"Ġirrational":12985,"zbollah":12986,"ĠNetherlands":12987,"Fact":12988,"OSE":12989,"Rock":12990,"civil":12991,"eous":12992,"home":12993,"mis":12994,"nost":12995,"zant":12996,"Ġthru":12997,"Ġcute":12998,"ashing":12999,"Ġear":13000,"Ġelev":13001,"ĠAff":13002,"ĠWere":13003,"iper":13004,"ĠBase":13005,"ĠBNP":13006,"ĠMand":13007,"ĠFan":13008,"ĠFriend":13009,"Ġvocal":13010,"ĠNaz":13011,"ĠRaw":13012,"ĠGra":13013,"Ġpool":13014,"ĠLuc":13015,"ĠEN":13016,"Ġacceler":13017,"Ġmoot":13018,"essment":13019,"Ġconsum":13020,"oven":13021,"Ġchampion":13022,"Ġresident":13023,"Ġimposed":13024,"Ġsaving":13025,"Ġdesired":13026,"Ġ1969":13027,"Ġgrat":13028,"Ġspurious":13029,"obb":13030,"oker":13031,"Arbitration":13032,"ĠMarine":13033,"Ġidentifying":13034,"commun":13035,"ĠMrs":13036,"center":13037,"Ġafford":13038,"Ġliberty":13039,"hematic":13040,"Ġgeographical":13041,"Ġjournalism":13042,"Ġhopes":13043,"ĠHollywood":13044,"Ġphilosophical":13045,"Ġpresidential":13046,"namese":13047,"Ġharrassment":13048,"claimed":13049,"Ġpraise":13050,"Ġtournament":13051,"218":13052,"213":13053,"BER":13054,"cers":13055,"cite":13056,"hom":13057,"lined":13058,"oen":13059,"Ð´":13060,"Ġtall":13061,"Ġtense":13062,"isd":13063,"Ġfame":13064,"Ġhind":13065,"Ġdb":13066,"alysis":13067,"ĠIde":13068,"icy":13069,"agg":13070,"agua":13071,"ido":13072,"ĠWin":13073,"through":13074,"ĠSus":13075,"ĠSher":13076,"ĠSiles":13077,"ĠSeveral":13078,"sect":13079,"Ġconnot":13080,"Ġconversion":13081,"ifted":13082,"ĠCL":13083,"ĠCeltic":13084,"Ġorbit":13085,"ĠPOW":13086,"uri":13087,"ĠHu":13088,"ĠFAR":13089,"quote":13090,"Ġneck":13091,"ĠRa":13092,"raig":13093,"Ġdisrupting":13094,"ĠEss":13095,"umble":13096,"ardon":13097,"Ġinteg":13098,"forward":13099,"inews":13100,"odo":13101,"ificial":13102,"ĠChal":13103,"avia":13104,"ailing":13105,"Ġstopping":13106,"Ġendeav":13107,"Ġarguably":13108,"Ġlegacy":13109,"225":13110,"ussia":13111,"resident":13112,"ĠZion":13113,"Ġstayed":13114,"ĠCommand":13115,"Ġâī":13116,"Ġstupidity":13117,"aneously":13118,"skin":13119,"Ġoperated":13120,"Ġharassed":13121,"Ġessence":13122,"Ġcells":13123,"Ġdriven":13124,"Ġslaves":13125,"Ġseasons":13126,"something":13127,"Ġdrawing":13128,"hhhh":13129,"Ġcrying":13130,"Ġjumping":13131,"AHAHAHAHAHAHAHAHAHAHAHAHAHAHAHAH":13132,"Ġconstructively":13133,"Ġdynasty":13134,"ĠLastly":13135,"ĠCapital":13136,"ĠWorkers":13137,"ĠLebanese":13138,"ĠOperation":13139,"Israeli":13140,"Ġconvenient":13141,"Ġcookie":13142,"Macedon":13143,"Ġautoblock":13144,"ĠVictoria":13145,"ĠSlavic":13146,"rology":13147,"Ġsuffered":13148,"anskrit":13149,"Box":13150,"EST":13151,"Fine":13152,"PD":13153,"Sign":13154,"Sources":13155,"TO":13156,"Top":13157,"aug":13158,"ei":13159,"game":13160,"great":13161,"jg":13162,"kk":13163,"lades":13164,"nj":13165,"sided":13166,"were":13167,"alism":13168,"Ġrevel":13169,"Ġrephr":13170,"Ġbeer":13171,"erek":13172,"ĠCopy":13173,"ĠBrah":13174,"ĠPsych":13175,"elve":13176,"ĠDor":13177,"Ġvind":13178,"Ġvital":13179,"ĠRule":13180,"Ġpoison":13181,"ĠLang":13182,"Ġworried":13183,"ĠEle":13184,"ĠUt":13185,"pton":13186,"Ġenorm":13187,"izon":13188,"ensible":13189,"exper":13190,"Ġworkers":13191,"Ġoffending":13192,"ollo":13193,"Ġ1944":13194,"Ġclever":13195,"ceptions":13196,"Ġclim":13197,"Ġ39":13198,"Ġcoach":13199,"ĠArgent":13200,"Ġrealised":13201,"197":13202,"Ġprophe":13203,"shatri":13204,"Ġnonetheless":13205,"Ġdefinitive":13206,"Ġmonkey":13207,"anking":13208,"Ġflame":13209,"Ġhandful":13210,"ĠChristopher":13211,"2001":13212,"Ġdebating":13213,"ĠAtlantic":13214,"OWN":13215,"Ġperiods":13216,"Ġboat":13217,"Ġsubmitting":13218,"Excuse":13219,"ĠSPI":13220,"ĠGOING":13221,"Ġstubborn":13222,"Ġimplication":13223,"Ġcapitalized":13224,"ilosophy":13225,"ĠCorpor":13226,"Ġestablishment":13227,"Ġjumped":13228,"ĠAnna":13229,"Ġmutual":13230,"Ġpercentage":13231,"Ġevidently":13232,"3333333333333333":13233,"ĠWRONG":13234,"ĠPotter":13235,"Ġinferior":13236,"ĠOrganization":13237,"ĠCreative":13238,"Ġrhetoric":13239,"Ġsoapbox":13240,"Ġtwenty":13241,"ĠNASA":13242,"Ġcoffee":13243,"ĠMINORITIES":13244,"Both":13245,"CAL":13246,"Net":13247,"North":13248,"Nothing":13249,"Tom":13250,"Tim":13251,"Und":13252,"bound":13253,"mic":13254,"rating":13255,"uitive":13256,"Â°":13257,"ãĢ":13258,"Ġthesis":13259,"Ġwikip":13260,"Ġwinner":13261,"atly":13262,"Ġhung":13263,"ĠTodd":13264,"rose":13265,"ĠMiller":13266,"Ġrain":13267,"Ġvon":13268,"Ġcontrib":13269,"loc":13270,"ĠLes":13271,"ĠJAS":13272,"ective":13273,"inding":13274,"Ġamateur":13275,"oga":13276,"izer":13277,"odge":13278,"ĠStat":13279,"Ġoverlook":13280,"Ġprote":13281,"Ġspring":13282,"Ġcloud":13283,"cessarily":13284,"ropolitan":13285,"Ġnumer":13286,"Ġconsiderably":13287,"Ġ79":13288,"Ġ83":13289,"ENM":13290,"Ġpresently":13291,"asha":13292,"ashi":13293,"188":13294,"iversary":13295,"ĠAnything":13296,"UNDUE":13297,"Ġprofit":13298,"ĠManchester":13299,"umbled":13300,"Ġseparated":13301,"ĠPrincess":13302,"syl":13303,"Ġuncertain":13304,"Ġmargin":13305,"ĠRussians":13306,"Ġveget":13307,"Ġlabels":13308,"Ġlabelled":13309,"Ġreturning":13310,"Ġcamps":13311,"Ġ(~~~~)":13312,"ĠGuardian":13313,"Donald":13314,"ĠSPICS":13315,"two":13316,"ĠApple":13317,"Ġutil":13318,"Ġkeyboard":13319,"Ġinaccuracies":13320,"ĠWEAK":13321,"Ġimplemented":13322,"ĠEgyptian":13323,"Ġdanger":13324,"Ġgraphic":13325,"Ġunwilling":13326,"blogspot":13327,"Ġambiguity":13328,"Ġmeasures":13329,"Blocked":13330,"General":13331,"ĠGolden":13332,"OOOOOOOOOOOOOOOO":13333,"Ġincreasingly":13334,"ĠVietnam":13335,"Ġdescendants":13336,"Ġunilaterally":13337,"Response":13338,"ĠMichel":13339,"ibliography":13340,"igenous":13341,"ahahahahahahahahahahahahahahahahahaha":13342,"BY":13343,"Has":13344,"Mc":13345,"OOR":13346,"Time":13347,"could":13348,"dq":13349,"hire":13350,"mor":13351,"oan":13352,"pos":13353,"pose":13354,"rors":13355,"rical":13356,"rise":13357,"uum":13358,"Î¹":13359,"Ùħ":13360,"á¹":13361,"once":13362,"Ġsatell":13363,"isp":13364,"Ġwow":13365,"Ġwake":13366,"orative":13367,"Ġbom":13368,"Ġdies":13369,"aspx":13370,"Ġresem":13371,"ĠTar":13372,"ĠSummer":13373,"second":13374,"sections":13375,"amine":13376,"ipedia":13377,"ĠCase":13378,"ĠCher":13379,"ĠCru":13380,"ĠBah":13381,"ĠPink":13382,"ĠMedic":13383,"ĠFant":13384,"ĠFull":13385,"ĠFYROM":13386,"Ġexcluded":13387,"Ġunlicensed":13388,"Ġdisaster":13389,"ĠLarry":13390,"ĠLithuan":13391,"umes":13392,"Ġwholes":13393,"plate":13394,"ĠKle":13395,"OUND":13396,"Ġcha":13397,"Ġchances":13398,"assador":13399,"Ġmature":13400,"Ġbacklog":13401,"REAK":13402,"Ġclan":13403,"Ġcloth":13404,"ĠTHINK":13405,"Ġgenital":13406,".\"\"\"\"":13407,"Ġcritique":13408,"Ġcurrency":13409,"ughing":13410,"being":13411,"ĠTHEM":13412,"Ġformatted":13413,"Ġtextbook":13414,"ĠDead":13415,"omination":13416,"Ġ87":13417,"Ġ95":13418,"techn":13419,"ĠMyth":13420,"ĠIndians":13421,"Ġhandling":13422,"Art":13423,"ĠSpring":13424,"cuit":13425,"oids":13426,"Ġpatri":13427,"Ġpatrol":13428,"ĠâĪ":13429,"ĠPerfect":13430,"Ġunfamiliar":13431,"Ġtransliter":13432,"ĠBye":13433,"Ġmarg":13434,"Ġboards":13435,"ĠAbd":13436,"ĠArea":13437,"ĠDragon":13438,"Ġlegitim":13439,"SHIP":13440,"Ġimplications":13441,"ilosopher":13442,"ĠOhio":13443,"Ġattribute":13444,"Ġindustrial":13445,"ĠAngel":13446,"Ġhealthy":13447,"ĠFrankly":13448,"ĠSingapore":13449,"Ġwarranted":13450,"Ġsympath":13451,"Ġsanctioned":13452,"Ġadequately":13453,"political":13454,"Ġahahahahahahahahahahahahahahahahahahaha":13455,"Ġchristian":13456,"Ġmonitoring":13457,"Ġsarcastic":13458,"productive":13459,"Ġwondered":13460,"Ġbrilliant":13461,"Ġatmosphere":13462,"ĠJASENM":13463,":\"\"":13464,"Bar":13465,"Gold":13466,"Pers":13467,"Port":13468,"Up":13469,"Wil":13470,"base":13471,"ded":13472,"ivery":13473,"move":13474,"Â»":13475,"intern":13476,"onia":13477,"Ġislands":13478,"Ġlord":13479,"aganda":13480,"Ġgiant":13481,"Ġfork":13482,"ĠAx":13483,"ĠWol":13484,"ĠWord":13485,"unge":13486,"iped":13487,"ĠBear":13488,"Ġdoctors":13489,"ĠMoore":13490,"elon":13491,"ĠDennis":13492,"Ġrated":13493,"ĠGh":13494,"Ġ250":13495,"Ġagencies":13496,"rities":13497,"ritics":13498,"ĊĊĠĠĠ":13499,"...?":13500,"berry":13501,"comment":13502,"ualtions":13503,"cyl":13504,"ĠHoward":13505,"ĠHeart":13506,"Ġgenerate":13507,"1967":13508,"Ġroster":13509,"Ġexpensive":13510,"apper":13511,"Ġschedule":13512,"swer":13513,"Ġproducer":13514,"anker":13515,"Ġawkward":13516,"Ġadvis":13517,"Ġadvocacy":13518,"Ġhanded":13519,"Ġapost":13520,"Ġphotographer":13521,"239":13522,"243":13523,"tiquette":13524,"Ġsearches":13525,"253":13526,"Ġfrag":13527,"Ġequation":13528,"Notice":13529,"ĠServices":13530,"Ġapprove":13531,"question":13532,"afi":13533,"Seems":13534,"Ġurl":13535,"Ġdestructive":13536,"Ġinfluences":13537,"ĠTurkic":13538,"Ġinitiated":13539,"Ġdesignation":13540,"Ġfunding":13541,"ĠSimon":13542,"Ġlibr":13543,"Ġdivisions":13544,"ĠQuite":13545,"linked":13546,"Ġbirthday":13547,"Ġcondesc":13548,"Listen":13549,"1998":13550,"Ġscare":13551,"Ġscared":13552,"Ġvirtual":13553,"WHY":13554,"Ġpseudoscience":13555,"ĠOkay":13556,"Ġmisrepresentation":13557,"Ġdialects":13558,"ĠCatal":13559,"ĠFinland":13560,"ĠBACK":13561,"Ġextremist":13562,"Ġstruggle":13563,"Ġscrutiny":13564,"ĠCatholics":13565,"WIKIPEDIA":13566,"Ġburden":13567,"congrat":13568,"Head":13569,"LAS":13570,"MED":13571,"OLL":13572,"UB":13573,"burn":13574,"fin":13575,"kill":13576,"named":13577,"song":13578,"Ã¨":13579,"Î»":13580,"Ġ:":13581,"Ġaired":13582,"reated":13583,"eday":13584,"Ġbarn":13585,"Ġbritish":13586,"Ġpity":13587,"Ġpunch":13588,"Ġfo":13589,"Ġfur":13590,"Ġdow":13591,"Ġdry":13592,"alia":13593,"Ġwhites":13594,"ims":13595,"ĠSAY":13596,"ĠSitush":13597,"amie":13598,"opath":13599,"oli":13600,"ĠPic":13601,"ĠPRE":13602,"ĠMason":13603,"oos":13604,"ĠHaz":13605,"ĠHIV":13606,"ĠFort":13607,"ĠField":13608,"ĠFuture":13609,"Ġexha":13610,"Ġranks":13611,"Ġvand":13612,"ĠYep":13613,"ĠLiverpool":13614,"Ġmos":13615,"Ġoutlets":13616,"orses":13617,"Ġtrains":13618,"ERN":13619,"Ġoversight":13620,"Ġspare":13621,"Ġspaces":13622,"Ġassigned":13623,"Ġpostings":13624,"weet":13625,"Ġinstant":13626,"Revert":13627,"anner":13628,"Ġfewer":13629,"Ġwarm":13630,"Ġsentiment":13631,"Ġ62":13632,"Ġmonarch":13633,"AGO":13634,"Ġtranscluded":13635,"Ġdemands":13636,"Ġengines":13637,"Ġ...\"\"":13638,"âĢĶâĢĶ":13639,"probably":13640,"Ġpenal":13641,"Ġautomatic":13642,"Ġhello":13643,"Ġblacks":13644,"ĠCHINK":13645,"Ġarbitr":13646,"ĠElizabeth":13647,"0840":13648,"Ġsplitting":13649,"Ġsynopsis":13650,"ĠSamuel":13651,"ĠPersians":13652,"ĠPatrick":13653,"Ġhypocrisy":13654,"Ġkicked":13655,"Ġcoordinates":13656,"Ġinconsist":13657,"Ġmathematics":13658,"ĠDiego":13659,"ĠAGF":13660,"Ġparameter":13661,"bourne":13662,"Ġinfinite":13663,"ĠHawaii":13664,"Ġexposure":13665,"sylvania":13666,"congratualtions":13667,"CJ":13668,"GR":13669,"Mart":13670,"Our":13671,"SPe":13672,"TiC":13673,"hia":13674,"had":13675,"iens":13676,"iants":13677,"oz":13678,"pm":13679,"rous":13680,"zh":13681,"report":13682,"onka":13683,"oub":13684,"Ġwinners":13685,"Ġpak":13686,"Ġdying":13687,"llll":13688,"ĠWalt":13689,"igital":13690,"chest":13691,"ĠCry":13692,"ĠCalling":13693,"Ġseman":13694,"ĠBuck":13695,"ĠPalin":13696,"ometry":13697,"ĠMANN":13698,"esty":13699,"estamp":13700,"esthetic":13701,"ĠHart":13702,"pper":13703,"Ġshap":13704,"ĠDj":13705,"ĠDal":13706,"Ġkne":13707,"Ġmyster":13708,"ĠYahoo":13709,"orton":13710,"Ġthereby":13711,"ĠOpp":13712,"Ġchoices":13713,"Ġtheirs":13714,"ensorship":13715,"Ġguard":13716,"reating":13717,"Ġ1940":13718,"Ġindirect":13719,"Ġpara":13720,"Ġwherever":13721,"Ġclutter":13722,"owns":13723,"ĠReSPe":13724,"Ġmislead":13725,"Ġinstall":13726,"ReVe":13727,"Ġruin":13728,"Intern":13729,"ĠDoN":13730,"Ġdefinite":13731,"ĠShort":13732,"Ġrestaur":13733,"ĠSean":13734,"Ġwheel":13735,"148":13736,"165":13737,"Arch":13738,"Still":13739,"Ġrespectable":13740,"Ġmedal":13741,"Ġethics":13742,"Ġclarifying":13743,"ĠAbraham":13744,"Ġreword":13745,"ĠWells":13746,"ĠGenesis":13747,"Ġfocusing":13748,"Ġsuperf":13749,"Ġliterary":13750,"Ġiniti":13751,"Ġdevices":13752,"Ġsticking":13753,"egro":13754,"ĠConsensus":13755,"Ġdisappeared":13756,"Ġsquad":13757,"ĠChannel":13758,"Ġlaughable":13759,"Ġantagon":13760,"ĠCurrent":13761,"Ġallegedly":13762,"Ġreactions":13763,"Ġconsequence":13764,"Ġenvironmental":13765,"George":13766,"Ġsilent":13767,"ĠEthiop":13768,"ĠMAKE":13769,"Ġparameters":13770,"Ġparaphrase":13771,"ĠPolitical":13772,"Ġscenario":13773,"aaaaaaaaaaaaaaaaaaaaaaaaaaaaaaaaaaaaaaaaaaaaaaaaaaaaaaaaaaaaaaaaaaaaaaaaaaaaaaaaaaaaaaaaaaaaaaaaaaaaaaaaaaaaaaaaaaaaaaaaaaaaaaaa":13774,"uyuyuyuyuyuyuyuyuyuyuyuyuyuyuyuyuyuyuyuyuyuyuyuyuyuyuyuyuyuyuyuyuyuyuyuyuyuyuyuyuyuyuyuyuyuyuyuyuyuyuyuyuyuyuyuyuyuyuyuyuyuyuyuy":13775,"nnnnnnnnnnnnnnnnnnnnnnnnnnnnnnnnnnnnnnnnnnnnnnnnnnnnnnnnnnnnnnnnnnnnnnnnnnnnnnnnnnnnnnnnnnnnnnnnnnnnnnnnnnnnnnnnnnnnnnnnnnnnnnnn":13776,"yyyyyyyyyyyyyyyyyyyyyyyyyyyyyyyyyyyyyyyyyyyyyyyyyyyyyyyyyyyyyyyyyyyyyyyyyyyyyyyyyyyyyyyyyyyyyyyyyyyyyyyyyyyyyyyyyyyyyyyyyyyyyyyy":13777,"tytytytytytytytytytytytytytytytytytytytytytytytytytytytytytytytytytytytytytytytytytytytytytytytytytytytytytytytytytytytytytytyty":13778,"Ġsubstitute":13779,"ĠPhysics":13780,"ĠPaTHe":13781,"ĠLiVe":13782,"Ġdoctrine":13783,"ĠFoReVe":13784,"ĠBaptist":13785,"Ġneighborhood":13786,"âĦ¢":13787,"ĠTHREATS":13788,"Ġaforementioned":13789,"084080":13790,"ĠReSPeCT":13791,"ĠPaTHeTiC":13792,"ĠFoReVeR":13793,"ACK":13794,"Criticism":13795,"ECT":13796,"Je":13797,"Rich":13798,"SM":13799,"UAL":13800,"gments":13801,"jay":13802,"lay":13803,"mass":13804,"wind":13805,"ÙĨ":13806,"Ġtheology":13807,"Ġsided":13808,"itas":13809,"itimate":13810,"ania":13811,"Ġpul":13812,"Ġpomp":13813,"ingo":13814,"Ġtoss":13815,"Ġfles":13816,"Ġdu":13817,"Ġnine":13818,"Ġrear":13819,"Ġetymology":13820,"Ġforcing":13821,"ĠAK":13822,"adays":13823,"oler":13824,"ĠBatt":13825,"ĠPrem":13826,"ĠML":13827,"eting":13828,"editors":13829,"ĠHonestly":13830,"ulong":13831,"Ġrussian":13832,"Ġvul":13833,"Ġvacc":13834,"Ġalert":13835,"Ġcontempt":13836,"losed":13837,"ĠEver":13838,"Ġamend":13839,"Ġappoint":13840,"ĠKarl":13841,"Ġperce":13842,"acted":13843,"Thomas":13844,"ahn":13845,"ibbean":13846,"pectives":13847,"Ġsignal":13848,"grad":13849,"Ġscrip":13850,"ĠDoctor":13851,"Ġstrikes":13852,"Ġwishing":13853,"Talkback":13854,"vernment":13855,"Ġobjected":13856,"Ġslang":13857,"Ġlawyers":13858,"Ġsolutions":13859,"headed":13860,"Ġredirecting":13861,"2015":13862,"ĠLION":13863,"ĠContent":13864,"Ġaffirm":13865,"Ġedge":13866,"ĠTech":13867,"Unless":13868,"ELP":13869,"Ġliteral":13870,"ĠHAVENT":13871,"clusive":13872,"Ġselective":13873,"Ġgeography":13874,"Ġgeographic":13875,"ĠGreater":13876,"Ġslightest":13877,"Ġdestroying":13878,"Ġcomparable":13879,"Ġgrace":13880,"ĠSatan":13881,"Ġtolerate":13882,"Ġconventional":13883,"Ġdominant":13884,"Ġobsession":13885,"Ġomitted":13886,"ĠKurdish":13887,"Ġfantastic":13888,"ĠFLOOR":13889,"Ġmasturb":13890,"AntiV":13891,"Ġrapidly":13892,"Ġincompetent":13893,"Ġbrackets":13894,"Ġoutrageous":13895,"established":13896,"Ġmisterwiki":13897,"ĠAMERICAN":13898,"ĠGEOR":13899,"ĠFooL":13900,"ĠBongwarriorcongratualtions":13901,"Mor":13902,"QA":13903,"Rob":13904,"SW":13905,"bomb":13906,"dan":13907,"hope":13908,"kar":13909,"lated":13910,"liber":13911,"sic":13912,"sur":13913,"voc":13914,"wich":13915,"zilla":13916,"rer":13917,"onomy":13918,"oust":13919,"Ġsession":13920,"Ġpin":13921,"esota":13922,"Ġbeef":13923,"Ġbecu":13924,"Ġlad":13925,"ĠAction":13926,"tha":13927,"ĠSEE":13928,"igade":13929,"ĠCool":13930,"ĠCategories":13931,"ĠFoot":13932,"ĠFried":13933,"ĠDrive":13934,"ĠNative":13935,"pelling":13936,"ĠRace":13937,"ĠGW":13938,"upload":13939,"Ġ101":13940,"ĠUl":13941,"Ġtrump":13942,"Ġchronic":13943,"Ġreson":13944,"exp":13945,"phys":13946,"Ġsale":13947,"connect":13948,"ĠStory":13949,"ĠStorm":13950,"ĠCha":13951,"Ġindia":13952,"Ġspo":13953,"ATED":13954,"Ġgene":13955,"Ġ36":13956,"Ġcoal":13957,"their":13958,"Ġbiology":13959,"Ġteh":13960,"Really":13961,"Ġinsin":13962,"appa":13963,"ICAGO":13964,"Ġlesser":13965,"Ġvariant":13966,"innesota":13967,"ĠSpirit":13968,"Ġtraits":13969,"ĠNorwe":13970,"Ġtruthful":13971,"Ġmultip":13972,"ĠReplaceable":13973,"Ġadmire":13974,"Ġlaughing":13975,"Ġterribly":13976,"ĠSTUPID":13977,"Ġforest":13978,"Ġdamaging":13979,"Ġcivilian":13980,"ĠHarris":13981,"ĠAssume":13982,"Ġbeneficial":13983,"consin":13984,"Ġsubstantive":13985,"Ġignores":13986,"Ġencouraging":13987,"Ġsadly":13988,"ĠMinor":13989,"Ġgrammatical":13990,"ĠMalik":13991,"Ġcrossed":13992,"Ġadoption":13993,"Ġcollective":13994,"ĠMatthew":13995,"ĠBroad":13996,"itnesses":13997,"Ġfavourite":13998,"Ġnovels":13999,"ĠArchives":14000,"Ġdictator":14001,"Ġmanipulation":14002,"Ġexecutive":14003,"ĠBuddhism":14004,"Ġestimated":14005,"stantiated":14006,"profit":14007,"ĠSWEEP":14008,"ĠPublish":14009,"ĠPennsylvania":14010,"ĠKyiv":14011,"Ġliars":14012,"Ġtongue":14013,"300":14014,";\"\"|":14015,"Bay":14016,"DA":14017,"DC":14018,"Dive":14019,"Fran":14020,"NY":14021,"Off":14022,"Sk":14023,"Ur":14024,"YOOO":14025,"big":14026,"di":14027,"lon":14028,"mitted":14029,"scientific":14030,"ture":14031,"wy":14032,"wash":14033,"ĊĠĠĊ":14034,"Ġtack":14035,"anza":14036,"Ġparen":14037,"Ġmood":14038,"Ġfranch":14039,"Ġdimin":14040,"usions":14041,"lyn":14042,"ĠTip":14043,"Ġgerm":14044,"ĠACT":14045,"ĠSix":14046,"igible":14047,"ationally":14048,"ĠCart":14049,"ĠCMA":14050,"Ġseat":14051,"ĠBus":14052,"ĠBurn":14053,"ĠBruce":14054,"ĠPla":14055,"ĠMB":14056,"eties":14057,"Ġabund":14058,"ĠFord":14059,"ĠFIL":14060,"Ġrab":14061,"Ġrifle":14062,"terror":14063,"anta":14064,"ĠYE":14065,"ĠRap":14066,"Ġjar":14067,"loss":14068,"ĠEston":14069,"ĠOak":14070,"Ġquarter":14071,"Ġprecious":14072,"intendo":14073,"Ġtrigger":14074,"Ġcham":14075,"Ġinforming":14076,"acom":14077,"Ġguilt":14078,"Ġfacto":14079,"ressing":14080,"Ġdesist":14081,"Ġspanish":14082,"Ġtwisted":14083,"Ġpartially":14084,"Ġpartner":14085,"Ġ38":14086,"ĠDeep":14087,"ĠDelete":14088,"Ġ77":14089,"Ġ92":14090,"Ġ96":14091,"ĠAdvent":14092,"attack":14093,"Ġpublicity":14094,"onyms":14095,"ARS":14096,"238":14097,"2004":14098,"coln":14099,"Ġprize":14100,"ĠManagement":14101,"Ġencounter":14102,"ĠGriff":14103,"Ġmotive":14104,"Ġphrasing":14105,"Ġ1976":14106,"listas":14107,"Ġconfirming":14108,"loyd":14109,"Ġassociate":14110,"Ġdriver":14111,"Ġlucky":14112,"aboration":14113,"ĠRemoving":14114,"Ġemployer":14115,"Ġthreads":14116,"Ġcommunications":14117,"Ġestablishing":14118,"ĠDespite":14119,"ihad":14120,"blue":14121,"ĠReligion":14122,"Ġpredomin":14123,"Ġappealing":14124,"ĠCrown":14125,"ĠChange":14126,"Ġsuffice":14127,"Ġsuffering":14128,"Ġspiritual":14129,"handed":14130,"Ġratings":14131,"ĠKeith":14132,"Ġprivilege":14133,"Ġpreserved":14134,"Ġmuslims":14135,"Ġspeculator":14136,"Current":14137,"ĠVietnamese":14138,"Ġsucceeded":14139,"LLLLLLLL":14140,"CRAPCRAPCRAPCRAPCRAPCRAPCRAPCRAPCRAPCRAPCRAPCRAPCRAPCRAPCRAPCRAPCRAPCRAPCRAPCRAPCRAPCRAPCRAPCRAPCRAPCRAPCRAPCRAPCRAPCRAPCRAPCRAP":14141,"ĠStandard":14142,"ĠRoger":14143,"Ġinhabit":14144,"ĠThoughts":14145,"ĠOTHER":14146,"Awardhttp":14147,"Ġdescriptive":14148,"Ġwisdom":14149,"AHAHAHAHAHAHAHAHAHAHAHAHAHAHAHAHAHAHA":14150,"Ġenormous":14151,"AntiVMan":14152,"CP":14153,"Cr":14154,"Cap":14155,"Dem":14156,"Def":14157,"Es":14158,"LES":14159,"Raj":14160,"Sing":14161,"TLE":14162,"UG":14163,"[]":14164,"aedic":14165,"cow":14166,"cular":14167,"df":14168,"fc":14169,"jar":14170,"mother":14171,"policy":14172,"rates":14173,"Ġ`":14174,"Ġtape":14175,"rev":14176,"Ġwitch":14177,"atim":14178,"Ġbite":14179,"Ġcave":14180,"Ġcents":14181,"enger":14182,"Ġmort":14183,"Ġmales":14184,"Ġfestival":14185,"Ġhated":14186,"Ġhilarious":14187,"aler":14188,"aska":14189,"Ġreass":14190,"agen":14191,"ĠTri":14192,"utsch":14193,"idency":14194,"Ġhah":14195,"these":14196,"ĠSound":14197,"ĠSanskrit":14198,"Ġconqu":14199,"unning":14200,"Ġstores":14201,"ĠCamer":14202,"ĠPoly":14203,"estyle":14204,"aku":14205,"ained":14206,"riz":14207,"ĠDy":14208,"Ġadjective":14209,"Ġuneth":14210,"Ġrud":14211,"ĠYears":14212,"Ġjunk":14213,"ĠJason":14214,"ĠOfficial":14215,"Ġnoble":14216,"ĠThings":14217,"allas":14218,"format":14219,"apy":14220,"Ġtradem":14221,"verty":14222,"Ġattitudes":14223,"ults":14224,"phen":14225,"Ġoffline":14226,"Ġdesper":14227,"Ġdesperate":14228,"ĠChola":14229,"Whatever":14230,"Ġentering":14231,"Ġunderstands":14232,"Ġmainspace":14233,"Ġideological":14234,
[...]
